#version: 0.2
Ġ t
h e
Ġ a
i n
Ġ s
o u
Ġ w
r e
h a
Ġt he
n d
Ġ m
Ġ b
Ġ o
e r
i t
i s
Ġ f
Ġ c
e n
o r
l l
o n
Ġ d
Ġt o
in g
e d
Ġ he
Ġ h
Ġ l
Ġ y
Ġa nd
n o
e s
Ġ I
Ġ p
ha t
Ġy ou
a r
Ġo f
a s
a n
o m
Ġt h
Ġ in
a t
Ġ no
Ġ ha
Ġb e
v e
Ġ g
Ġ Ġ
s t
l e
i m
u t
c e
s e
a y
e t
Ġt hat
l y
o w
l d
Ġ it
g h
Ġ e
i d
Ġno t
it h
o o
i r
Ġ u
c h
. .
en t
Ġo n
Ġm y
' s
Ġf or
Ġs t
Ġw ith
Ġm e
Ġ is
r o
Ġh is
r i
Ġw as
Ġ re
Ġw e
k e
Ġh im
a d
gh t
a l
i ll
he r
v er
Ġa s
i on
Ġ n
A nd
om e
ou r
Ġhe r
Ġa t
T he
t er
Ġ k
u r
ou ld
a m
Ġyou r
Ġha ve
Ġs o
a in
Ġl i
Ġth ou
Ġw h
o t
ou t
Ġs e
c k
Ġ R
Ġ H
c t
Ġa n
Ġa ll
o re
r a
Ġd e
Ġs u
Ġd o
es s
Ġb ut
Ġth is
Ġ S
p e
o l
a nd
Ġha d
oo d
or d
i f
o v
Ġs he
r u
Ġ P
' d
Ġa re
ĠĠ Ġ
Ġw ill
es t
Ġ _
t h
r om
g e
Ġs h
u s
Ġ W
l f
i c
i l
Ġu p
e ll
Ġ A
Ġc on
Ġw hat
an t
q u
Ġs ha
E N
ou s
' t
a k
u l
b le
ar d
a ke
Ġb y
ĠĠ ĠĠ
e m
n i
on e
Ġf a
B ut
u st
Ġn e
I N
t her
re d
Ġf rom
v en
se lf
re s
no w
I O
oo k
Ġ v
Ġm an
Ġa m
ha n
. _
t e
a ll
i ght
Ġw he
ar t
Ġ "
Ġo r
ĠH e
Ġg o
Ġthe m
ver y
o st
Ġk now
as t
Ġu n
A R
Ġthe re
i ve
u m
Ġ M
Ġs a
T h
Ġ The
Ġ L
in d
Ġw ould
p p
Ġwe re
.. .
Ġth y
o d
Ġthe y
e ar
Ġc om
a u
Ġa l
i ch
Ġ out
on g
Ġno w
Ġa g
Ġ C
, "
am e
r y
i e
Ġto o
Ġsha ll
T o
Y ou
f e
Ġ r
Ġe x
er s
Ġm ore
? "
ow n
e l
Ġ qu
Ġon e
Ġ '
Ġc an
Ġa b
is t
T hat
Ġ if
o s
Ġ our
Ġ G
W h
Ġ O
e p
U S
Ġ j
at e
Ġl ook
' ll
in k
Ġl e
Ġd id
h ing
Ġs ay
. "
or t
a re
Ġg ood
i g
k ov
Ġli ke
in e
Ġc ome
k ol
Ġ D
Ġt im
Ġb l
at ion
ni kov
t o
ou nd
Ġs ome
Ġw or
Ġl o
i ce
Ġu s
n a
re at
Ġse e
Ġthe n
Ġwh o
Ġthe e
Ġp r
Ġhe re
Ġbe en
Ġag ain
u re
f ore
n t
p t
as kol
askol nikov
H e
Ġs pe
Ġ E
w ay
o nd
c i
Ġl ord
a ve
Ġp ro
Ġa r
E R
Ġh ow
Ġ And
id e
at her
IN G
U C
Ġthe ir
- -
it y
d d
Ġs p
en ce
Ġm ust
W hat
Ġm ad
Ġ B
O R
! "
n g
Ġt han
Ġl et
Ġtim e
n e
Ġp l
oo t
Ġm ay
.. ..
Ġwhe n
Ġwh ich
at h
Ġ ro
E T
Ġ N
A N
â Ģ
âĢ Ķ
E S
Ġha nd
F or
Ġ But
it t
Ġ [
Ġ very
Ġc ould
is h
r ow
Ġsh ould
o se
ou gh
ĠR askolnikov
Ġan y
Ġsa id
a ble
ir st
Ġab out
Ġa f
v na
Ġof f
i a
Ġf l
Ġ hat
Ġbe g
he d
w e
ur n
res s
an ce
nd er
Ġc h
Ġm ake
Ġs ir
Ġp o
ri e
Ġ V
w n
Ġwe ll
K ING
ot h
it e
o p
a ck
Ġsu ch
Ġt w
Ġd is
n ess
as s
o ld
f ul
Ġd ay
Ġth ink
a g
i ck
Ġlo ve
d e
ĠĠĠĠ ĠĠĠĠ
. ]
ri ed
ing s
Ġp e
u e
a no
Ġb ro
Ġspe ak
Ġe y
ri ght
er v
it ch
ad y
Ġf e
im p
Ġb r
Ġc l
Ġthou gh
Ġin to
I C
a z
b er
Ġt ell
L O
i es
Ġbe fore
Ġup on
Ġp er
al k
a p
Ġw ord
Ġd own
Ġon ly
Ġ K
Ġthou ght
I US
u ll
m an
u ch
ĠI I
i le
Ġ en
w ard
Ġ You
i ld
oot no
Ġha s
ootno te
h in
F ootnote
Ġk ing
a ce
as e
Ġbe t
AR D
m ent
c c
Ġf ather
all y
Ġhim self
om et
Ġmad e
p s
ĠI t
ĠP et
r an
b l
M y
Ġhe art
Ġe very
a ge
re e
Ġw ay
Ġon ce
Ġe ven
i re
i ous
Ġc ha
Ġre m
Ġu nder
Ġo ver
is e
Ġd es
A s
he re
itt le
or n
f t
Ġo ther
ot her
ig n
y a
Ġg ra
Ġs omet
Ġt ake
Ġa way
at er
u n
Ġl ittle
ano vna
v es
Ġm ar
Ġm uch
Ġwhe re
ro v
Ġs c
Ġhat h
Ġ ru
Ġg reat
Ġey es
L I
Ġ (
Ġ F
ĠW hat
Ġt ru
Ġ Y
on ia
Ġnot hing
Ġo wn
ent le
Ġli fe
er t
Th is
Ġm ost
Ġy et
Ġ ke
Ġw om
Ġh on
Ġp art
Ġme an
Ġse em
Ġst ill
ct ion
in ce
Ġthe se
Ġd on
he n
Ġp re
Ġhe ad
Ġl ast
Ġ T
Ġm other
Ġg ive
Ġj ust
Ġo ld
dd en
Ġs l
Ġw ant
Ġde ath
K E
Ġe ar
Ġbro ther
Ġas k
ĠS he
au se
c l
Ġhe ar
T IO
Ġcon t
Ġfa ce
Ġw ent
Ġl ong
Ġt urn
N o
v id
Wh y
o y
Ġ ra
rie nd
t y
au ght
f f
os s
Ġne ver
Ġtw o
Ġf irst
Ġhe a
Ġcon s
Ġs m
um i
Ġaf ter
Ġsu dden
th ing
umi hin
p l
az umihin
v ing
Ġc our
Ġh o
Ġp ut
ĠS onia
Ġf riend
ear s
Ġs w
I n
e ct
Ġ right
Ġc ame
Ġg l
b e
u d
Ġbe l
R O
ou se
ou nt
re n
ĠR azumihin
v ed
Ġg et
Ġbl ood
i o
Ġsomet hing
O N
on s
ĠI v
Ġne w
Ġro om
Ġch ild
Ġm ight
ni a
p er
ou nia
at ter
Ġst and
it her
Ġt r
Ġc o
en s
no t
Ġmy self
d ay
r own
I f
Ġw r
Ġm ine
Ġg entle
c es
I t
ou l
I S
Ġa d
l ess
Ġha st
Ġbe c
Ġb ack
Ġp res
Ġp ass
ĠG od
Ġ imp
W ith
a ir
ĠIv anovna
Ġn ight
a b
ou ght
in t
Ġlook ed
i z
L A
E L
Ġwh y
ĠII I
rov itch
Ġm en
Ġdo or
Ġar t
W e
ar y
Ġcom m
ĠD ounia
Ġwith out
ain t
IC H
O L
Ġo b
j ect
Ġf o
en ed
ar k
Ġwom an
H ow
c ed
Ġc all
no ther
' ve
D U
Ġre s
DU KE
i gh
in ess
a ch
i ly
ĠPet rovitch
H am
Ġt alk
m ost
at ed
op le
Ġhon our
c he
i ed
C A
ut e
at ch
pe ct
Wh ich
g er
ICH ARD
Ġo p
Ġd one
Ġan s
EN TIO
Ġbet ter
e c
Ġw ar
Ġk ne
Ġbe ing
or row
Ġp le
Ġbeg an
Ġa nother
re t
Ġm ind
Ġth ing
Ġsudden ly
U E
IN C
aught er
Ġa cc
is s
Ġpe ople
S o
Ġg r
ĠW h
Ġhand s
in a
Ġs et
a w
Ġf ear
ĠM ar
i p
Ġb oth
r d
Ġs on
Ġc ried
Ġwor k
Ġd re
Ġcom p
T ER
Ġ J
Ġbel ie
A U
Ġ ent
ow er
Ġhe ard
Ġha pp
A B
Ġyou ng
O f
n ce
ri g
Ġunder st
_ ,
is ter
Ġtru e
F irst
t is
ll ow
f or
Ġke ep
Ġh ouse
Ġth r
Ġre st
o ve
Ġst ran
ou d
or f
Ġhea ven
Ġe nd
Q UE
Ġf ell
as ter
Ġst re
Th ou
QUE EN
Ġcon f
Ġre p
oo l
Ġn ame
g et
Ġsh ow
Ġcan not
ert ain
Ġp a
Ġal most
Ġth ose
Ġin de
if e
ur p
ĠR ICHARD
Ġfa ir
we et
o ck
Ġf ind
Ġde ad
ĠO F
Ġpr ay
UC H
f a
m s
Ġle ave
Ġm om
Ġmom ent
it ion
ĠR om
Ġrem em
Ġs ame
ha ps
G LO
c y
g ed
l ov
Ġs oul
UC ES
GLO UCES
GLOUCES TER
I s
s h
Ġe ver
Ġn or
Ġli ve
, --
Ġwor ld
Ġ That
Ġw a
re m
Ġhe l
Ġm in
i x
Ġsa w
R Y
a Ã
Ġp ers
ir y
W here
Ġbelie ve
aÃ ¯
c hed
or y
Ġde l
is ed
ur se
Ġse c
ul t
Ġfe el
. )
Ġg one
Ġunderst and
Ġinde ed
B e
s s
en se
Ġin st
t he
Ġh ome
ater ina
Ġcour se
INC ENTIO
Ġman y
ĠThe re
Ġy es
Ġword s
Ġh our
S he
Ġa dd
L AN
U M
Ġa p
ĠC l
vid rig
aÃ¯ lov
vidrig aÃ¯lov
Ġpo or
Ġt e
ĠR od
Ġd ist
Ġg u
Ġgo ing
Ġc le
se l
Ġde ar
orf iry
L E
Ġbe ar
Ġtoo k
Ġlook ing
k s
Ġb us
est ion
Ġagain st
Ġpl ace
Ġs weet
Ġm atter
ro vna
The re
Ġstran ge
Ġe l
Ġa pp
is on
Ġre c
EN RY
one y
Ġne ed
Ġqu e
Y our
t ing
C ome
N ow
Ġno ble
Ġe m
Ġst ood
ci ous
b t
d er
i ble
Ġw alk
Ġf ar
ent ly
The n
Ġyour self
ĠS o
Ġt ri
Ġs ister
Ġm ur
ĠK aterina
Ġw ife
ĠR ome
Ġc han
Ġas s
Ġthr ough
E O
W ell
a red
ak ing
el t
Ġle ft
ĠV INCENTIO
Ġt er
Ġb re
Ġth ree
Ġli ght
fe ct
Ġask ed
u ke
Ġ ill
Ġd aughter
Ġ im
Ġst ay
Ġs il
OR K
O r
or s
Ġto ld
Ġdo es
i er
i an
u p
Ġm oney
Ġin t
Ġat t
Ġk ind
ĠP orfiry
e e
l ed
Ġs erv
Ġli e
Ġqu ite
Ġqu estion
Ġseem ed
T H
ĠI f
._ ]
Ġhel p
Ġs imp
Ġb es
Ġd oth
Ġg ot
IN IUS
Ġw ind
le t
le ep
ĠS vidrigaÃ¯lov
ull y
Ġfo llow
n ing
Ġm a
on t
Y es
w er
Ġt ill
Ġc he
Ġd ru
Ġh u
ĠI V
Ġse en
Ġturn ed
W hen
m e
Ġ Z
it s
Ġc are
ro ss
ĠWh y
Ġque en
A M
Ġs at
Ġf elt
ut h
D W
_ ]
Ġl au
ak es
DW ARD
k en
l and
ĠI n
Ġth us
Ġv o
Ġth ings
Ġn at
M EN
Ġs ince
Ġb reat
Ġc ertain
P ET
T ES
y ot
Ġl and
yot r
L UC
N ot
re st
ĠThe y
m ed
Ġh us
A y
Ġt a
Ġg i
ver s
Ġwh ile
Ġper haps
Ġkne w
Ġfell ow
Ġsu b
ĠL ord
Ġpo int
i et
Ġm ist
way s
Ġchild ren
Ġbec ause
Ġel se
B y
m en
Ġc ount
Ġd ou
Ġcom es
Ġfriend s
Ġh old
L et
O M
T han
u ck
Ġd ie
Ġy ears
as on
le x
Ġk ill
Ġso on
te nd
Ġpl ay
d ward
Ġs ent
ĠL u
Ġho pe
M EO
f ort
Ġa w
ou n
Ġm er
Ġm on
Ġd r
Ġbr ing
RO MEO
i ke
Ġb ed
Ġre t
EN IUS
Ġremem ber
MEN ENIUS
Ġb est
Ġf ool
rie f
Ġbus iness
Ġl aw
Wh o
ut y
Ġevery thing
R UCH
b and
Ġt ra
em y
pp ed
Ġop en
PET RUCH
PETRUCH IO
et h
Ġr an
R AN
u se
re w
Ġc r
at i
Ġme et
ĠW e
Ġv is
Ġgra ce
G R
f ully
Ġl ady
Ġans wer
get her
Ġf ull
Ġh um
Ġu se
Ġsu pp
il t
Ġr ather
Ġap pe
Ġhus band
ir d
Ġwh om
Ġal ways
bl es
Ġear th
Ġpres ent
i al
u ne
Ġ This
Ġl ov
Ġg en
Ġre ad
Ġdre am
T is
Ġs ort
at ing
ĠP yotr
Ġex p
ec ond
y ing
Ġg ave
Ġher self
IO LAN
OR IOLAN
ORIOLAN US
C ORIOLANUS
H is
S econd
o e
s and
Ġw on
it iz
Ġin s
... "
ĠE dward
Ġany thing
Ġ To
Ġp ol
Ġp oss
Ġp ower
Ġthou sand
. '
Ġt ears
Ġm is
it ed
Ġc ar
Ġl ess
ir l
Ġ[ _
ĠĠĠĠĠĠĠĠ ĠĠĠĠĠĠĠĠ
Ġ ide
Ġr ound
Ġwho le
B A
R askolnikov
c ome
Ġb u
Ġha lf
ce pt
Ġst ra
Ġal one
Ġbeg in
Ġdru n
r ay
Ġt ong
Ġh igh
ĠH ow
Ġmean s
b y
Ġw it
Ġc rown
ain ed
IN A
ĠE DWARD
Ġnew s
, '
ur s
EN C
ak en
er ing
im e
od y
Ġdis c
Ġpers on
t en
er y
Ġst e
ter day
ward s
Ġwr ong
a il
Ġ For
Ġt able
Ġl ay
Ġp ri
ow s
Ġfor g
The y
te red
_, ]
G o
He re
Ġru n
Ġdou bt
re r
ha ll
Ġf ound
Ġfa ct
Ġcha r
air s
Ġdr ink
f ord
w ick
re ady
ir t
ry ing
Ġsp o
Ġgentle man
Ġb an
Ġl ist
at es
Ġg irl
id es
Ġun c
Ġen ough
, [
v il
he s
ion s
._ ,
Ġal ready
sel ves
Ġd ra
ar wick
Ġin ter
Ġday s
G ood
L ET
U n
Ġ ir
Ġc ause
ĠA lex
Ġfa ll
Ġthere fore
Ġpe ace
Ġple as
Ġha rd
Ġst r
Ġsh out
Ġstre et
ĠAlex and
i us
x t
Ġb oy
er al
as h
Ġre ally
ĠY ORK
e ver
Ġs it
Ġl ate
Ġfor t
ri a
ĠA n
ie ld
Ġwor th
IS AB
EL LA
Ġyes terday
Ġsimp ly
ISAB ELLA
Ġh or
ar ly
Ġst ate
Ġlet ter
Ġad v
c ent
g ing
m orrow
n er
Ġs leep
Ġh ur
ĠP ro
ard on
Ġpr ince
Ġf ur
Ġl ost
Ġsu re
Ġex c
Ġmin ute
H ave
J U
T A
Ġs ide
or k
Ġha r
ĠW arwick
Ġv i
LI ET
ON TES
LE ONTES
JU LIET
S t
s p
Ġ ri
ha rd
Ġm aster
Ġc a
em pt
Ġstra ight
Ġtong ue
D Y
l ing
Ġ Th
Ġa c
Ġa ct
Ġs ound
Ġin c
ul che
ress ed
Ġbr ought
Ġlau gh
ĠAlexand rovna
ulche ria
Ġ es
Ġf ree
Ġbe h
Ġfor th
ĠW ell
Ġvo ice
ENC E
D o
S T
V OL
p h
r ant
it ing
Ġf an
ra ct
Ġsu n
os ed
LA DY
B R
Ġl od
Ġre g
ĠV I
Ġple ase
Ġc ap
Ġto gether
Ġp urp
ce i
Ġre f
Ġan g
Ġun to
ĠL e
Ġcom ing
Ġj oy
ĠD o
A ll
Ġd if
Ġhe nce
Ġfor m
ĠA t
Ġtim es
Ġar m
S IC
d ot
m it
ce ed
ent y
Ġwe ep
Ġde p
Ġwho se
ĠRod ya
SIC INIUS
l es
Ġw ond
Ġc ase
ĠI s
Ġr ou
Ġsay s
ation s
t hat
v dot
Ġt en
Ġs er
Ġm akes
Ġf al
Ġp os
Ġth ine
im es
Ġpr ison
ĠN o
we red
Ġtr uth
ĠRom anovna
vdot ya
I L
N ay
Ġs ign
Ġre ason
ĠP ulcheria
est y
ic ul
Ġsha me
Ġqu ick
Ġans wered
Ġpa le
z hin
Ġg re
Ġk iss
de rer
Ġsec ond
v y
ou ch
Ġst ri
Ġde c
Ġsu ff
ic al
Ġle ast
Ġret urn
. [
o f
o g
y al
Ġw atch
it or
ri b
ĠH is
ĠHe re
Ġcom fort
we en
Ġgra ve
Ġnat ure
LUC IO
k ing
Ġe ach
ad e
ic es
ic hard
Ġun e
ĠC ome
R I
l t
Ġc old
Ġd an
Ġin f
id d
id ent
Ġre l
che s
Ġconf ess
ĠLu zhin
S ir
v itch
Ġ ut
Ġm orn
Ġp rom
Ġha ng
ut en
ĠA vdotya
Ġus ed
Ġar ms
emy on
Ġpol ice
U T
m p
w h
en ry
ve re
ĠĠ ĠĠĠ
Ġst ep
Th y
Ġob s
Ġbreat h
itiz en
F rom
g s
u red
Ġa ir
Ġb ody
ar s
as y
Ġg rief
Ġst ru
ver n
Ġse nd
ous in
ie f
Ġex pl
Ġsp ir
Ġey e
Ġdes p
Ġdrun k
Z AB
i v
Ġm ut
Ġb ra
er n
en e
Ġn one
ĠS emyon
ĠE LI
.... "
ET H
Ġfl at
ĠY ork
ZAB ETH
ĠELI ZABETH
G E
k a
Ġm et
Ġd ro
Ġin d
Ġre ady
ain s
ct ly
ive ly
ĠM r
Ġab s
ano vitch
erv ed
ĠRome o
Ġgi ven
Ġide a
A t
Ġt re
is hed
Ġc ond
Ġd ire
Ġd ark
Ġp ati
ĠM y
ĠE ng
Ġbet ween
Ġhast e
sh ip
Ġwalk ed
H ENRY
H AM
M ar
U p
r ance
Ġb id
Ġin te
ge l
Ġsh ort
Ġdis p
ab ly
Ġmur der
Ġpurp ose
W AR
r it
ĠH enry
Ġstand ing
Ġres pect
for m
c ing
r or
Ġf am
Ġd uke
ĠH am
ra id
Ġne xt
IC K
Ġsm ile
Ġsub ject
S hall
W ICK
in s
Ġs orrow
Ġc or
Ġc ra
ĠM AR
Ġhat e
WAR WICK
Ġt aken
Ġw ater
Ġwith in
ĠH ENRY
Ġdo ing
Ġex t
Ġgr ound
N urse
O h
i ver
Ġm ov
Ġd et
ĠThe n
Ġcount ry
Ġmorn ing
ĠHam let
I AN
P U
W ill
u al
Ġs ens
Ġb it
id er
ĠA s
Ġlord s
Ġpro p
Ġro yal
ĠSemyon ov
c a
r ing
Ġ i
re nt
Ġf right
Ġc orn
Ġp ardon
le ct
ĠR ichard
ru pt
Ġcon v
Ġknow s
ĠC itizen
ious ly
Ġwant ed
Ġrou bles
Ġinte rest
PU LET
E Y
E x
Y et
c ess
g ain
w ell
Ġs ing
Ġc ross
Ġd are
an y
Ġbe a
Ġst ud
fe nd
Ġthan k
itt ing
Ġaf raid
ber g
Ġcont in
Ġhapp y
A h
M IO
m al
u nt
Ġs ick
Ġf ight
Ġh ither
ar ing
Ġe re
Ġli ps
il ed
EN S
ni ght
Ġwhe ther
ĠN ow
ES S
Ġcomm on
Ġstr ong
O n
y ou
Ġt rem
in ed
Ġp ay
ent s
ck s
Ġtw enty
ĠK ing
Ġke pt
Ġadd ed
ĠRod ion
Up on
b ly
e red
Ġw all
Ġl ear
Ġin v
Ġha ving
ri age
Ġde ep
Ġfa ith
UC KING
ĠN i
Ġma id
BR UT
Ġfal se
UCKING HAM
BRUT US
B RO
B UCKINGHAM
L US
T RAN
Ġf our
Ġc row
as ya
im ov
et ov
am etov
Ġde ed
us h
Ġj ud
ING BRO
ĠB OL
Ġcour t
Ġfeel ing
Ġexp ress
TRAN IO
INGBRO KE
ĠBOL INGBROKE
N E
Ġs ight
re l
Ġb o
Ġc oun
Ġst o
ĠW hen
ast asya
Ġal ong
Ġqu ar
Ġj o
ment s
Ġmar k
Ġshout ed
uten berg
A TH
P ER
T IS
Ġwe l
al t
Ġdid n
Ġpro ve
Ġcl ose
Ġtr ou
Ġtalk ing
Ġmon th
Ġfort une
H OR
L AR
i red
p le
nd red
Ġc ru
Ġe vid
Ġnot ic
ent ion
Ġwe ak
Ġv ill
Ġgo d
ĠL et
ate ly
Ġpr oud
oss imov
C l
G AR
N or
v our
Ġf ore
Ġc ousin
Ġp ast
ck et
Ġv irt
Ġthink ing
ĠRom anovitch
GR E
Ġstru ck
ĠMAR GAR
ĠMARGAR ET
K ing
i at
t w
an k
Ġit s
Ġre al
Ġre pe
Ġre qu
Ġwh is
ĠS erv
Ġgra cious
ction s
Ġhu ndred
cei ved
A n
n ed
Ġo pp
Ġo cc
Ġd en
Ġto wn
Ġp ity
Ġbe at
ce ive
Ġfa ult
OR D
urp r
Ġserv ice
ĠZ ametov
' re
O ur
k es
Ġw ret
Ġb ad
Ġc ur
Ġnot e
Ġre ven
ĠH er
ra c
Ġne ar
AN GE
ag ue
Ġsw ord
Ġcomm and
ANGE LO
C U
a c
a id
b b
u ri
Ġs urpr
Ġf oot
Ġf ire
Ġso ft
Ġli es
ĠS t
us ed
AR INA
Ġag o
Ġex pect
are nce
ci al
ci us
Ġoff ic
Ġcha ir
ee ch
Ġappe ar
G od
K ATH
h r
v o
Ġb ook
is ing
Ġd am
ut ion
ĠA ll
Ġoff ice
ap er
Ġsw ear
KATH ARINA
L ord
b ro
i ct
Ġs k
Ġs in
Ġw ilt
Ġb ur
Ġp ar
an s
Ġso ld
Ġde al
Ġdo st
em ent
Ġaf f
Ġgl ad
Ġres ol
Ġsil ence
ĠZ ossimov
IL LO
Ġdan ger
A re
b ur
s hed
Ġs ense
Ġw ish
Ġc ut
Ġp u
Ġst airs
Ġre d
Ġyour s
out h
ĠN astasya
Ġpo cket
ĠPet rovna
Ġdes ire
Ġunc le
en ing
Ġd uty
Ġg row
Ġg az
Ġsu sp
Ġle ad
ES CA
Ġsomet imes
Ġbec ome
Ġpass ed
Ġbre ak
Ġwind ow
ESCA LUS
H or
H ath
P ol
h ow
s o
y s
Ġm o
or ter
Ġe ither
Ġso fa
Ġknow n
Ġthought s
Ġmar riage
Ġma j
Ġdif fe
f ya
l ike
z iat
Ġf ast
Ġc al
Ġl ad
am ent
Ġli ves
ĠD uke
Ġany one
Ġfe w
bl ing
Ġwom en
be ziat
Ġsec ret
Ġgen eral
Ġspir it
Ġwel come
beziat nikov
D UCH
P rov
Q ue
a im
u ous
u ally
le te
Ġlook s
Ġbl ess
Ġmad am
ĠMar fa
Ġcle ar
Ġvis it
Ġsusp ic
DUCH ESS
E n
I A
e v
g u
l ady
w here
Ġw in
ha r
ut es
Ġit self
oo f
Ġli ving
Ġse a
Ġgo ld
ie w
bl ed
Ġhea vy
Ġstre ng
Ġinst ant
Ġem b
Ġim ag
Que en
e nd
h ost
Ġt ouch
Ġs ake
Ġf ive
Ġl ying
Ġp ie
Ġof ten
ve l
Ġso vere
ct or
ĠW here
Ġv al
ĠG ood
are nt
Ġcl er
Ġseem s
Ġpre p
ĠMar cius
Ġforg ot
ĠPro ject
Ġbeh ind
Ġang ry
gel o
Ġcrow d
M ILLO
f ter
x e
Ġt em
Ġc ir
ing ly
at or
Ġlo se
Ġpro f
Ġcons ider
ons ense
CA MILLO
Ġcomp lete
Ġheaven s
ĠCl arence
ĠSo fya
Ġdra w
Ġquick ly
E ven
M ore
m er
t le
ha l
Ġc ry
Ġy e
al th
her d
ur al
Ġde vil
ru st
ĠP ol
art ed
ĠO f
ĠO n
Ġposs ible
Ġwond er
ĠSemyonov na
D id
F RI
T ENS
o or
o ver
t a
t ed
w ith
Ġ ed
Ġw ound
Ġb ound
at s
Ġsu m
Ġor der
um p
Ġbl ack
ress ing
Ġpre v
Ġcertain ly
Ġland lady
ĠAn gelo
Ġcorn er
HOR TENS
FRI AR
g g
u res
Ġa ge
Ġa xe
Ġm aking
Ġhe ld
Ġp orter
ir ty
ci ally
Ġspeak ing
Ġmar ried
Ġho ly
Ġop ened
Ġacc ount
Ġbes eech
Ġban ish
Ġfur ther
ĠLe beziatnikov
Ġut ter
Prov ost
HORTENS IO
A l
P TIS
a ven
c um
k ed
p herd
Ġ ought
Ġs ad
Ġs ix
Ġo ath
it ies
Ġf oul
Ġc e
Ġp ain
id ow
Ġfor get
Ġn onsense
Ġsha lt
ĠD on
Ġmar ry
Ġsc ar
Ġget ting
BA PTIS
Ġir rit
Ġhor se
Ġmut tered
ĠEng land
mal ia
Ġnotic ed
BAPTIS TA
' m
C US
C OM
M AR
T OL
W ould
Y CUS
d om
Ġb ow
Ġf un
Ġth row
Ġha ir
ard s
Ġqu iet
ĠG utenberg
Ġsp ite
Ġtru st
Ġpart icul
AU TOL
Ġhapp ened
Ġfan cy
Ġstreng th
COM INIUS
AUTOL YCUS
u ff
Ġm ove
Ġy ear
se t
ir m
Ġst ory
ri ble
Ġsa ve
Th ird
Ġbro ke
Ġhon est
Ġvi ol
LAR ENCE
Ġvill ain
rac ter
Ġmaj esty
! '
C LARENCE
M ER
et s
Ġan x
pe cially
Ġcon vers
ant s
ĠM ur
kol ay
Ġcha racter
ĠY es
Ġwar m
up id
Ġmist ress
Ġspo ke
Ġlaugh ing
B EN
N OR
P RO
b ut
u es
w hat
Ġf it
Ġl ater
st er
id ed
ri ar
Ġde f
us ic
Ġper fect
Ġother s
Ġob ject
Ġrep ort
Ġhour s
Ġchan ge
Ġmer cy
VOL IO
Ġdesp air
gain st
Cl own
Ġsovere ign
BEN VOLIO
! ...
L ook
S PER
c han
e ch
u ed
Ġf ly
Ġc ol
Ġc ity
en ch
Ġh ot
Ġthem selves
Ġimp ort
UM IO
GR UMIO
Ġbea uty
ĠNi kolay
PRO SPER
PROSPER O
A ST
H er
O ne
T w
s he
Ġ ve
Ġt ried
in al
Ġs itting
Ġw oe
en ger
Ġd in
Ġto wards
Ġy ield
Ġin qu
et y
ent ed
our s
ra ce
th ough
ĠA malia
res h
Ġsay ing
Ġear s
We re
CU TIO
MER CUTIO
ĠMur derer
. --
1 0
P O
T ake
i ar
Ġs ur
Ġh ide
Ġp ull
Ġyou th
Ġnot ice
ess enger
ic ally
pp ing
itt ed
we re
Ġcl ot
ĠK ate
Ġmin utes
Ġte a
LUC ENTIO
Ġes pecially
Ġbit ter
Ġgod s
G ive
P OM
a le
b s
c ul
e k
e w
g es
Ġ est
Ġm outh
Ġb ar
Ġb old
Ġf aint
Ġp ost
pe ak
us ion
ĠW ith
ave ta
Ġsm all
iz aveta
Ġent reat
LAN D
Ġte nder
Ġconvers ation
POM P
B ER
L INA
P AU
S h
W as
o ll
v ol
Ġm ock
Ġc reat
no ck
Ġp en
as ure
oo se
Ġst upid
Ġall ow
Th ough
Ġpro v
Ġevery one
Ġblood y
Ġpos ition
Ġlad ies
Ġscar ce
PAU LINA
Y ORK
_ ;
u ght
u ng
y b
Ġs qu
Ġw is
Ġb at
Ġb ene
er ve
Ġf if
Ġf ix
or th
Ġd ri
Ġp aper
Ġwh ite
ot ion
ĠA N
Ġfa rew
Ġfa vour
Ġun t
um ber
ĠO h
Ġsome one
ci ence
AN T
Ġpre t
Ġgentle men
Ġcall ed
Ġdre ad
Ġcomp any
Ġwa iting
Ġpleas ure
GRE MIO
Ġdiffe rent
Ġcler k
POMP EY
Ġfarew ell
N IA
S ay
X EN
f fect
t m
u de
Ġa ble
on y
on es
Ġl aid
oo p
Ġwe ar
Ġsu it
ous ly
Ġle a
are well
Ġpl ain
ĠĠĠĠĠĠĠĠ ĠĠĠĠ
Ġeven ing
LI XEN
Ġgl ass
Ġwar rant
UM NIA
Ġtra itor
Ġchar ge
Ġhard ly
VOL UMNIA
Ġobs erved
Ġmov ed
Ġfright ened
PO LIXEN
yb alt
POLIXEN ES
C an
G ON
S onia
b ed
e ad
Ġm od
it al
ing man
ce ll
Ġfor ward
il ity
Ġcon cl
te en
Ġspe cial
Ġspe ech
ING S
Ġfe ver
cc ess
Ġjust ice
Ġpres ence
Ġdel ir
cent io
Ġstep s
ĠServ ingman
Ġreven ge
AST INGS
H ASTINGS
I D
R ENCE
c ri
i ol
r on
he l
he ad
ha m
Ġf r
Ġf ing
Ġf rown
Ġat tend
if t
ĠL AU
el s
Ġsee ing
Ġbro ken
un es
Ġturn ing
ren ce
Ġad m
Ġfear ful
Ġinst ru
Ġter ror
Ġsil ent
by e
Ġhar m
bro ke
Ġclot hes
ĠLAU RENCE
B Y
P R
n at
u c
in ary
Ġs le
Ġm al
Ġb ig
Ġf at
Ġd ied
Ġl oss
Ġe ffect
Ġu nd
Ġst ir
Ġse ver
ĠL izaveta
Ġwor se
Ġlo ck
Ġdis g
Ġsl ow
cl ock
cl aim
Ġcont empt
ĠJ ul
Ġent er
Ġsat is
Ġlov ed
Ġac qu
Ġsuff er
Ġrepe ated
C LI
F F
M ay
T ell
h ood
Ġt aking
ou red
Ġm ed
Ġb os
er haps
Ġd est
Ġhe ll
om p
id en
Ġre ck
Ġse lf
Ġse ven
Ġde v
Ġam ong
Ġthy self
Ġab ove
Ġcont r
Ġafter wards
Ġgr ant
UM BER
Ġapp ro
Ġchan ce
Ġlie ge
TH UMBER
Ġbes ide
Ġext rem
Ġtrou ble
Ġcir cum
NOR THUMBER
CLI FF
Ġbos om
NORTHUMBER LAND
1 1
a pt
o es
Ġw ood
re ad
Ġl oud
Ġbe ll
ad am
al s
us s
il ing
ĠA h
Ġcon ce
ak ed
ers bur
ĠO ne
Ġpl uck
row s
Ġstand s
INC E
Ġter rible
Ġpos it
ersbur g
a ched
b it
g hed
m el
Ġt it
Ġt rying
Ġw idow
Ġm or
Ġb orn
er c
Ġf ut
Ġh op
Ġg ar
Ġg all
ly a
Ġst one
Ġme ant
Ġk nock
Ġde cl
ĠP l
il es
Ġun w
au d
ink s
Ġle g
ig ni
Ġpo ison
ĠPet ersburg
ĠF rance
Ġwit ness
Ġworth y
Ġri ch
ca pe
ĠAN NE
PR INCE
Ġfut ure
A LO
B ec
L a
L ike
S ome
m iss
Ġ U
Ġ KING
er m
Ġf ill
Ġf irm
Ġof fend
as ed
ow ers
am ed
ol ing
if ford
um b
Ġag ree
Ġr id
Wh ose
ci ent
ĠB iden
Ġcl oud
ĠY our
entle man
Ġsl ain
be red
Ġco at
CA PULET
Ġcr ime
Ġhur ried
Ġsto pped
Ġpie ce
Ġdin ner
igni or
? '
H ad
i um
i ence
l i
n y
u nd
u nder
Ġt ry
Ġw ild
ha p
Ġf et
or iol
Ġd ress
Ġhe ir
ter s
ur ing
pe red
if ic
il ty
Ġgo es
ĠM ont
au nt
ĠB e
ĠN ot
ag er
Ġru shed
Ġear n
Ġapp arent
Ġmur derer
Ġlau ghed
Ġkill ed
Ġcr im
Ġhum an
Ġposs ess
Ġlod g
mit ri
Ġstri ke
Ġpati ence
Ġpu bl
En ter
Sh ould
Ġcircum st
oling broke
S E
Ġt ran
Ġb oot
Ġf ond
Ġf resh
en ess
as p
Ġth ird
Ġme m
Ġre ceived
Ġas leep
Ġsu ccess
ĠS en
pe nd
Ġex cept
os ition
ĠD mitri
Ġsee k
Ġpro b
ĠB olingbroke
Ġen emy
Ġcont ent
Ġvo ices
Ġta le
Ġgen er
Ġpri v
Ġfam ily
Ġrequ est
O ph
P ro
c on
k now
Ġ id
in es
Ġw ed
re ed
Ġb urn
Ġb rief
it ude
Ġd ish
ar m
an ces
Ġth ro
Ġn urse
Ġli ber
Ġse iz
il s
ard en
Ġgo vern
are t
Ġfl atter
Ġbeg g
Ġcons cience
Ġgl o
Ġremem bered
Ġdel ight
ĠCl ifford
Ġem pt
Ġinter rupt
Ġweep ing
idd le
Ġexpress ion
ĠJul iet
La er
1 2
V ER
b id
d u
i ers
Ġt y
he e
Ġa uth
Ġa vo
Ġs y
Ġs or
Ġs ank
re y
Ġf in
Ġf riar
Ġc ast
on a
Ġp ract
Ġg ro
im ent
Ġon es
Ġli ved
ant age
ul ar
ust om
Ġal so
Ġcan st
Ġbl ame
Ġpr in
Ġspe ed
Ġtw ice
ag es
Ġheart s
Ġop in
ĠWh o
Ġass ist
Ġvirt ue
A PULET
F L
F ID
H a
I Z
N D
s pect
u dd
Ġ Thou
Ġa ction
Ġw oo
ha med
it er
Ġc op
Ġc aught
Ġc urs
en ka
Ġd iv
Ġl ow
as es
as hed
Ġin no
Ġg ate
Ġe at
Ġe ff
ir th
Ġis s
The se
Ġse at
ell ow
Ġcom pl
ĠC APULET
ĠG l
ĠG o
ort al
Ġar ri
OR IZ
ick ed
LI A
ces ter
Ġart ic
Ġkne es
AU FID
med i
Ġta vern
Ġlov es
ash ion
Ġtrem bling
Ġlear n
Ġgaz ed
Ġscarce ly
Ġpret ty
FL ORIZ
AUFID IUS
FLORIZ EL
) ,
P art
e ks
i ant
in ation
Ġb right
Ġc and
es ides
as ant
an c
an g
ri es
ad ov
Ġas hamed
ĠH ave
ĠW ill
Ġv iew
fe ction
Ġex ec
Ġthan ks
Ġrem ain
Ġ( _
ĠT ybalt
be y
int ed
Ġhonour able
Ġdre w
ix t
Ġgu ess
Ġgu ilty
There fore
Ġbre ast
Ġint ell
Ġhu ng
Ġbeh old
Ġlod ging
Ġpati ent
Ġstud ent
Ġcoun sel
Ġreck on
aud io
: [
c ceed
e al
g r
m and
ou cester
Ġm iddle
er able
Ġc ow
Ġd rown
om an
Ġg rie
Ġg ates
Ġe as
ill o
Ġsu cceed
ol k
ol s
if ul
Ġne cess
Ġv ice
um e
Ġex a
Ġex am
ĠE x
Ġoff er
Ġra ised
Ġinst ance
ĠCl o
Ġcle arly
Ġchan ged
Ġill ness
Ġbes ides
Ġche er
Ġes cape
Ġfan ci
Ġser ve
Ġwret ched
Ġdanger ous
Ġfix ed
Ġacqu aint
ĠSen ator
Ġempt y
A gainst
C IUS
O W
R ICHARD
T ill
f id
i res
u a
Ġ ven
Ġt ort
in ing
Ġm ount
Ġm usic
Ġf ield
Ġc uri
Ġd ust
Ġd ressed
Ġh id
as ion
Ġth ri
Ġin tend
Ġbe ha
Ġst ore
Ġst op
Ġn erv
Ġk na
ur ch
ra h
and er
ĠC am
Ġbl ow
Ġsome where
Ġhow ever
Ġro se
Ġra ge
She pherd
Ġtri b
Ġim medi
eth inks
Ġlov ing
itiz ens
BA ST
Ġpri est
Ġac cept
Ġprom ise
Ġdet erm
_; ]
Ġsever al
mel adov
SE BAST
Ġsor ry
Ġopin ion
SEBAST IAN
M I
M adam
S ee
f ic
g ged
j oy
s on
Ġs igh
ha nd
Ġb le
Ġb ase
it ation
Ġc atch
Ġc up
Ġto p
ing ham
Ġp h
Ġp ur
Ġth in
em ies
Ġne ck
Ġne ither
res ident
Ġun s
Ġex cell
Ġour selves
Ġcould n
Ġch ief
Ġen emies
Ġhear ing
igh b
Ġwa it
Ġdel iver
Ġfollow ed
Ġnat ural
Ġletter s
Ġbra ve
Ġmonth s
Ġwhis pered
Ġden y
Ġoffic er
Ġsuspic ion
Ġcomplete ly
Ġtit le
B IO
C om
H ER
O P
c her
g ment
l ish
n ers
t hen
u ct
z y
ed s
Ġl aughter
es h
Ġp aint
Ġin cl
st r
ch ool
ĠH ast
Ġan cient
ra w
Ġdo ctor
ol og
il st
Ġam az
Th us
ĠC oriol
os ing
Ġdid st
Ġsp ent
de red
Ġtell ing
Ġen c
Ġsl ight
Ġask ing
ren ch
Ġco pe
Ġpass age
EL LO
Ġtalk ed
Ġsoul s
ĠCl audio
Ġter ms
uck ingham
Ġbegin ning
Ġwit hal
Ġform er
Ġsuff ering
Ġune asy
wh ich
Ġjud ge
Ġquar rel
Ġevid ence
Ġsurpr ise
Ġcal m
ĠPol enka
MAR CIUS
Ġparticul arly
ĠMont ague
ND ELLO
ĠGl oucester
BIO NDELLO
: _]
A way
D IO
F arewell
M ON
c om
c ase
i ven
i ps
i bly
k y
k in
o ke
s y
t est
t were
Ġt ear
he m
Ġw ine
Ġw ide
Ġhe alth
Ġp un
an e
Ġth irty
Ġe le
Ġfor s
Ġre vol
ur y
am p
Ġso l
ĠS ir
if ied
Ġsha r
ĠHe aven
Ġun p
pp y
ĠC ap
ĠC hap
ĠD id
Ġpr ide
ĠB uckingham
Ġbeg un
Ġfe et
ĠK o
Ġcons ent
Ġroom s
Ġimp ress
Ġimp ati
ĠJ oe
orf olk
Ġass ure
Ġint ently
iet y
Ġmist ake
Ġsupp ose
Ġdrun ken
Ġhigh ness
Ġdep art
Ġcond ition
Ġfun eral
Ġcreat ure
Bec ause
know n
Ġauth or
ĠHast ings
ĠChap ter
: --
I R
M ake
P ray
e a
f it
i b
i ves
l s
Ġt or
Ġw ise
re ly
Ġo w
Ġf ie
Ġf ig
Ġf ine
Ġf ashion
Ġd ign
Ġl im
Ġl ack
Ġp al
ar ch
Ġin j
at ic
Ġg arden
le ase
am es
ot s
ĠA UM
ĠL ook
ĠC hr
Ġr ing
el come
Ġj est
Ġpr oof
ER LE
itt en
Ġbr ain
Ġsc ene
Ġlong er
Ġsm iled
ON IO
Ġpray ers
Ġmeet ing
Ġdream s
Ġexc use
Ġreg ard
Ġexpl ain
Ġdeed s
tw as
Ġmo on
ANT ONIO
Ġcontr ary
Ġfet ch
Ġprob ably
Ġglo om
Ġartic le
ĠAUM ERLE
! --
S ince
Z ALO
l ook
o h
Ġ ver
Ġm our
Ġb ot
Ġo bey
Ġf le
Ġc urse
Ġd a
Ġd ry
Ġl atter
Ġth ick
at ive
Ġbe ast
Ġe vil
id ly
Ġre ached
Ġas ide
Ġso le
ĠR O
Ġde fend
ov ed
Ġshe d
ĠP ar
ĠL anc
Ġwould n
ist ed
ĠG entleman
Ġj ump
Ġbl ows
Ġspe nd
Ġfl oor
un ning
Ġsw orn
Ġwr ite
Ġpass ion
Ġpa wn
Ġatt ention
Ġcare fully
Ġmer ry
Ġfool ish
Ġide as
Ġbu y
Ġrun ning
Ġlist en
Ġfur y
GON ZALO
Ġposit ively
Ġeff ort
Ġcow ard
ĠLanc aster
; [
C LA
D on
M ost
Q u
R e
S erv
a h
e x
e ep
y our
Ġb aw
Ġo dd
er man
Ġc rying
Ġp urs
ar l
ar ry
Ġth reat
Ġno ise
se qu
Ġli ft
Ġan ger
Ġsu per
ĠW ould
Ġne ighb
Ġv ent
Ġlike ly
ĠB y
Ġbr ide
Ġper form
Ġdes per
Ġwant s
Ġad mit
ian ca
Ġdrink ing
Ġvi ct
Ġgre en
Ġdec ided
Mar ry
Ex it
Ġve x
Ġpull ed
Ġbat tle
Ġcrim inal
Ġinterrupt ed
ĠCam illo
Ġcope cks
Ġshar p
D A
U DIO
c o
e em
i ber
k er
l u
Ġa im
Ġm atch
Ġb a
ll ed
on our
Ġha ven
Ġe ld
Ġe ight
Ġst air
Ġso ci
Ġdo g
ĠS u
ĠS ha
ĠS ome
ol ute
if y
ĠP a
ĠA r
Ġsha king
Ġv ile
Ġman ner
Ġpro ceed
ĠN orfolk
Ġoff ence
Ġfl esh
Ġking dom
Ġdes ign
Ġmean ing
Ġpre cious
Ġhead s
Ġsl ave
Ġra p
Ġcons cious
Ġob v
Ġfo e
Ġadd ressing
Ġserv ant
Ġche st
Ġins ult
Ġspo ken
Ġune as
ĠEng lish
MIO NE
Ġwret ch
Ġsurpr ised
Ġtem per
Ġslow ly
CLIFF ORD
Ġearn est
Ġtran s
fid ius
HER MIONE
CLA UDIO
B oth
E DWARD
H N
L ORD
M ust
O HN
S ON
c r
d o
f ied
h ouse
m ber
u ish
u fidius
Ġs en
Ġc re
Ġc unning
or ge
Ġl ar
Ġp et
Ġp ill
as ons
Ġbe ating
st ant
oo th
Ġu r
ch io
Ġre ceive
Ġk ings
am m
Ġde g
ru chio
ĠP om
us hed
Ġcon c
Ġor d
um ph
Ġal oud
ie ve
ĠG ive
ĠE ven
Ġpro test
ĠB ianca
Ġpl ed
âĢĶ "
Ġaf fect
ag ed
Ġfe ast
ran io
ĠF rom
Ġpart y
Ġra gs
Ġcons ul
Ġbec ame
ach ing
ĠMar meladov
Ġunderst ood
Ġshow ed
Ġaw ful
RAN DA
Ġlist ened
Ġhur ry
St ay
og n
Ġconv i
Ġwhis per
Ġocc asion
Ġsold iers
Ġforgot ten
ron ic
Ġpubl ic
Ġexa ctly
MI RANDA
A TIO
M e
M essenger
S uch
T Y
V ery
b ody
i est
i ance
o le
y ond
Ġt reat
Ġd u
Ġp hr
an us
Ġe qu
Ġe lect
Ġst or
Ġk it
ra ord
Ġde bt
pe are
ĠP r
Ġv ow
Ġun ha
Ġun known
Ġsa fe
Ġal though
Ġle gs
are r
Ġthen ce
ne y
Ġfl ung
Ġch o
Ġch urch
ag ger
Ġper p
Ġen joy
ign or
Ġsc re
Ġsc orn
Ġru de
ĠF rench
Ġsl i
cl es
Ġwr it
Ġimp oss
Ġacc ord
Ġshow s
Be ing
Ġche eks
ross es
Ġvis itor
Ġforg ive
Ġlist ening
Ġser ious
ĠHere ford
Ġexpl an
Ġmov ing
kes peare
Ġimag ine
Ġextrem e
Ġavo id
Ġiss ue
Ġfanci ed
Ġimmedi ately
oh n
ĠPar is
Serv ant
Ġsoci ety
ĠSha kespeare
1 3
A S
C all
L Y
R A
c rib
i or
m ond
t led
Ġs ons
Ġm ortal
Ġb ent
Ġb are
ll en
Ġy ellow
Ġp at
Ġin form
at ors
Ġbe w
Ġbe nd
ve y
st airs
Ġst art
Ġis n
ro ad
Ġwas h
Ġk n
ain ing
ĠH AM
ĠS aint
ĠS ignior
il iar
ĠA l
ous es
Ġal ive
ich mond
ist en
ĠO p
Ġsome what
Ġwor n
Ġwor st
Ġwor ship
Ġbr id
Ġen v
Ġrem ained
Ġgreat er
Ġtru mp
ĠY et
ĠT ower
Ġput ting
Ġmight y
Ġpass ing
Ġwork s
Ġkeep ing
Ġthr one
Be fore
Ġgu ard
Ġwalk ing
Ġtri umph
led ge
Ġsimp le
Ġsent ence
ĠLu centio
Ġcar ried
Ġbu ried
ail s
Un less
Ġpleas ed
Ġfree ly
Ġprom ised
Ġdro p
Ġdire ctly
Ġsubject s
Ġconv in
Ġjud gment
Ġappear ance
Ġed uc
Ġwound s
Ġsum mer
Ġinno cent
Ġintell ig
Ġdign ity
ĠChr ist
Ġstair case
ĠHAM LET
) .
C on
D ounia
H E
N T
b ear
e ed
g aret
h old
i ent
t s
z e
Ġ ignor
Ġt as
re g
Ġm id
is es
Ġc ost
ll y
Ġd ance
Ġl an
Ġbe yond
Ġg rown
Ġg host
Ġe ager
ro p
ro om
Ġwas n
Ġre b
Ġsu spect
if f
ru m
ĠP erhaps
Ġsh op
ic ious
ĠA ufidius
Ġfa il
Ġv ar
Ġv an
Ġun f
ĠL ady
ĠG erman
Wh om
Ġj our
ĠN ay
Ġpe cul
Ġcha mber
dden ly
Ġsl ip
Ġfriend ly
Ġpres ently
CA TES
ĠJ ohn
Ġent ertain
Ġent rance
Ġhapp en
Ġhapp iness
Ġpa id
Ġgu est
Ġcle an
Ġrec ogn
Ġtri f
Ġsil ver
Ġatt empt
Ġquestion s
Ġbreat he
Ġgi ving
Ġcar ry
Ġfact s
Ġabs olute
Ġcond em
Ġcra ck
Ġcru el
Ġopp os
Al as
Ġperfect ly
Ġcol our
Ġfing er
apt ist
Ġhurried ly
Ġmem ory
CATES BY
A r
G host
J OHN
R ome
S peak
g l
h ile
k ind
o ly
u b
x ford
z en
z ed
in y
Ġs chool
ou p
Ġm iss
Ġb od
Ġd ull
Ġhe at
Ġl ament
Ġp it
Ġp urse
Ġth under
Ġg a
se m
ch ief
Ġfor ce
Ġst arted
ro th
Ġwe igh
al ity
Ġde pend
Ġde mand
Ġsha d
Ġfa ces
Ġknow ing
ĠL ond
Ġr ough
Ġgood ness
ĠB aptist
Ġfl owers
Ġch oose
ĠV ols
Ġspeak s
Ġbet ray
ran k
Ġcha st
Ġunder t
Ġco ve
Ġdoor way
Ġwar s
Ġkne e
Ġneed s
EO S
Ġim m
Ġsupp osed
Ġappe ared
Ġread ing
Ġmis ery
Ġste al
Ġban k
Ġhor ror
St and
Ġref lect
Ġgre y
idd en
Ġfam iliar
Ġsold ier
Ġanx ious
Ġwis dom
Ġcloud s
ĠRO S
Ġbaw d
Ġlar ge
ĠLond on
B IAN
D I
H old
L e
L est
R EY
c hen
e ace
e orge
m ark
o ard
r id
s per
Ġ X
Ġ et
Ġs ong
Ġw ore
re p
Ġm aint
Ġb ones
Ġb irth
Ġc red
Ġl ine
Ġl ab
Ġp ra
ar r
Ġof t
as c
an ced
ce nd
Ġst ation
Ġst ared
Ġst oop
Ġn ay
ter ing
ĠR ichmond
ĠS ee
Ġsh ut
ĠW as
ni vers
Ġne arly
ĠG eorge
ĠO r
to gether
Ġsome how
Ġlo ath
Ġsp ring
Ġpl a
ran ge
Ġway s
Ġdes ert
Ġsl ander
Ġbec om
Ġkne el
ĠMar garet
Ġpa ces
Ġmur dered
Ġatt ent
Not hing
Ġaw hile
BA L
Ġste el
Ġadv antage
Ġprince ly
BR A
Ġref use
Ġdif fic
Ġbene fit
Ġdelir ium
Ġconce al
Ġhop es
Ġoffend ed
Ġapparent ly
Ġlodg ings
Ġwed d
Ġthro at
Ġliber ty
VER S
Ġexplan ation
Ġconvin ced
ĠBaptist a
BIAN CA
Ġdiffic ult
. <
2 7
A m
B OW
D e
P l
S vidrigaÃ¯lov
T ru
W elcome
a f
c an
f all
i en
m y
p ir
s ion
w ill
w ear
Ġ 1
Ġt one
in en
in ite
Ġm ag
Ġb ird
it hee
is ion
is ure
Ġf ant
Ġf ren
Ġf ier
Ġc ustom
or ous
ll ing
Ġd i
Ġto ward
ed ing
Ġl en
Ġy ard
Ġp ause
an ch
Ġth ither
Ġno se
Ġe ase
Ġst ern
Ġst uff
Ġme asure
ro y
Ġre ign
Ġre pl
am b
Ġyour selves
Ġse al
and al
ĠP resident
us es
qu e
um er
Ġsa f
ĠL a
ĠG AU
Wh ile
Ġbl ank
ound s
Ġpr ithee
pt ion
Ġsp ot
Ġwhen ce
Ġfe e
ĠK at
ign ant
Ġgra nd
Ġmar ch
Ġcont ro
Ġco ck
EL BOW
Ġrest r
Ġrep ly
the y
Ġwind ows
oun ced
Ġforg iven
Ġinter v
ĠTh ough
ĠIs ab
Ġprison er
Ġgre et
RI VERS
Ġinf lu
Ġpolice man
Ġext raord
Ġsens ation
Ġwall s
Ġbo x
Ġval iant
Ġprep ared
ĠOn ly
Ġviol ent
Ġimport ant
orth y
Ġlea ving
Ġfr ont
Ġcand le
Ġsucceed ed
Ġdesper ate
ĠSu ddenly
Ġimposs ible
ĠGAU NT
A b
D oth
E re
F a
G UE
R os
Y ea
a ld
g an
p o
t here
Ġw at
nd eed
Ġm ild
Ġf urn
Ġc hat
Ġc art
en ces
Ġhe s
Ġl ed
Ġl ot
ĠI lya
Ġha bit
Ġg ain
le y
ut ed
ay s
Ġe asy
Ġu nivers
Ġfor bid
Ġst ar
Ġwe ek
Ġn ine
Ġn ice
The ir
Ġk ins
ĠH OR
Ġhad st
Ġfa cing
um ent
Ġal arm
ie u
fe it
Ġr ain
Ġr oot
os p
ĠO xford
ink ing
Ġle an
ort ens
Ġgood ly
Ġbl ind
Ġus urp
Ġpr on
Ġlord ship
Ġpro te
Ġar g
Ġmad ness
Ġpl an
Ġshould er
Ġhat red
ĠPet ruchio
ert es
ĠT ranio
Ġgl ance
Ġco ll
less ly
Ġcomp ass
Ġstran ger
Ġfair ly
Ġadd ress
Ġstrange ly
Ġrec all
Ġim age
Ġfool s
ĠĠĠĠĠĠĠĠĠĠĠĠĠĠĠĠ ĠĠĠĠ
TA GUE
Ġcap ital
Ġhang ing
Ġexpl ained
Ġdire ct
Ġsens ible
Ġcontin ually
Ġcontin ued
Ġvirt uous
ĠServ ant
Ġfault s
Ġsoft ly
Ġexpect ed
Ġwin ter
Ġanx iety
Ġfif teen
Ġdelir ious
hel ia
Ġlock ed
Ġboot s
Ġcop y
Ġtrib unes
Ġexcell ent
Ġneighb our
co at
Ġobv iously
Ġkit chen
ĠOp helia
Ġpecul iar
Ġoppos ite
Rome o
Ġcove red
ĠHOR ATIO
ortens io
M aster
N IUS
O ut
T Z
c ha
e ction
f ive
h il
o on
o hem
s es
s ome
t om
t ic
Ã ©
Ġ QUEEN
Ġt ent
he arted
Ġa y
Ġs its
Ġb all
Ġf ro
Ġf ru
or at
or ough
Ġd ue
Ġl inen
ar n
om in
Ġth rown
Ġg rew
st on
Ġfor ced
Ġst ro
Ġre asons
Ġn umber
our se
ter n
Ġan no
pe y
Ġsh ook
Ġsh own
Ġcon sequ
Ġcon vey
Ġv ain
Ġun able
Ġal together
fe red
Ġex per
Ġex ceed
Ġab road
Ġle isure
are st
Ġwor ry
Ġsp le
Ġro b
ĠN ap
Ġfl ower
LO NIUS
un ate
Ġke y
Ġhon esty
Ġpart ly
Ġseem ing
ĠT ell
ĠT ake
Ġsl aughter
Ġear ly
Ġhea v
Ġwr itten
Ġob ed
pect ed
Ġkeep s
Ġconf usion
Ġpers u
Ġpers ons
Ġtri al
ian s
Ġhold ing
Ġmis erable
Ġbu ild
urs ed
Ġstreet s
Ġdro pped
iver ing
Ġjo in
Ġevid ent
har ina
Ġgold en
Ġquiet ly
Ġparticul ar
umber land
Ġleg al
Ġcircumst ances
Ġdish onour
Ġimpress ion
Ġfig ure
Ġlan gu
Ġfren zy
ĠLa ertes
A fter
C ould
C rosses
G I
G u
I EL
N ever
V IR
c use
d en
t on
w hel
w oman
Ġ er
Ġ Un
Ġt empt
Ġs our
Ġs aint
Ġw ert
re es
ha ve
Ġb as
Ġb ab
is p
en ance
en mark
or se
on c
Ġd irty
Ġh y
Ġh ouses
Ġp ack
Ġth rust
Ġe h
id ence
ch olog
Ġst at
Ġme l
ri ck
Ġwas t
Ġwe ary
ad s
ur d
ot e
Ġse arch
ĠH orat
Ġdo om
ĠP O
Ġsha ke
Ġknow ledge
ĠM ad
ĠM ark
ĠM erc
Ġwould st
ĠC an
Ġex ist
ĠG REY
ort ed
ĠE very
ond er
Ġpro claim
ĠB esides
Ġmay be
Ġany way
Ġthink s
Ġpe asant
Ġcl osed
Ġbefore hand
Ġen g
Ġcons um
Ġsm iling
Ġbel ow
Ġacc ident
for ce
Ġdead ly
Ġfeel ings
Ġte ach
Ġrec oll
Ġaw are
oun ter
Ġlaw ful
Ġhum ble
Ġsort s
Ġir on
ract ed
Ġcap able
Ġreturn ed
wh ile
Ġobs erv
Ġspir its
Ġinterest ing
ĠNi k
Ġcoun ter
PER DI
Ġweak ness
Ġocc up
Ġbook s
Ġaff airs
Ġresol ved
Ġemb arr
nat ural
Ġdisg race
Ġgovern ment
Ġexec ution
Ġacquaint ance
Ġph ys
MON TAGUE
sy cholog
Ġgloom y
Ġpill ow
Ġunha ppy
Ġeduc ation
Ġjour ney
Ġinterv iew
ohem ia
GI LIA
VIR GILIA
ĠHorat io
PERDI TA
Ġembarr ass
P eace
S ET
S LY
T oo
d raw
g o
k of
l ic
m n
r ate
r ings
u g
v ent
w ise
x pected
y r
Ġw et
Ġm ill
Ġm otion
Ġb row
is m
is hing
Ġf ought
Ġc ough
en et
Ġd ying
ed ant
Ġh it
Ġh ol
Ġl ust
Ġp ick
Ġp ict
Ġp sycholog
om itch
Ġth rew
Ġha ught
Ġbe ard
id a
Ġst ock
ro te
ill ing
ver ty
Ġde ceived
ol er
Ġsh udd
ĠA re
ĠA fter
ant ag
Ġman ners
._ )
all ow
Ġor gan
Ġun l
od im
Ġr ise
ound ation
Ġpro per
Ġpro cess
Ġpro sper
Ġar rest
Ġpo verty
Ġrem ark
Ġdes erved
Ġsc andal
Ġru in
ĠF omitch
Ġtru ly
Ġwom b
vid ed
pl ace
With out
Ġcomm end
Ġob t
Ġcall s
Ġyoung er
for med
ors es
Ġdoes n
Ġkind ness
Ġpleas ant
ĠPro kof
Ġexc ited
Ġabs urd
Ġdire ction
IAN A
ĠSemyonov itch
Ġinv ited
ac her
Ġoffic ial
Ġbanish ment
MAR IANA
Ġinqu ir
Ġsqu ee
Ġsle w
Ġsatis fied
Ġfirm ly
Ġpriv ate
Ġid le
Ġseiz ed
Ġarri ved
Ġeas ily
Ġnecess ary
Ġven ge
ĠCoriol anus
ĠPa ul
ĠPom pey
Ġelect ronic
ĠProkof itch
. ,
; --
B ro
B el
P AR
S u
V INCENTIO
f l
g ood
l er
l ight
m ore
Ġt ired
Ġa id
Ġa ud
Ġs ides
Ġw icked
re ement
Ġm orrow
Ġm ention
Ġm ethinks
Ġf ood
Ġf ate
Ġf ully
Ġc ou
en es
Ġd uring
Ġh idden
Ġp ure
Ġp ave
at ure
Ġha p
ro t
ro du
ri c
Ġwas te
Ġwe pt
ad ua
ur b
ĠH a
Ġan gel
Ġun se
Ġag reement
ĠC a
el ve
ĠD enmark
Ġro t
ĠN orth
Ġfl ed
Ġbrother s
pl oy
Ġsw ift
Ġgl ory
Ġbel ong
Ġtr ad
Ġacc ess
Ġrep ent
Ġwa ited
rem io
Ġdist in
Ġdist rib
Ġgu ilt
Ġbus y
Ġland s
Ġunc ons
Ġdra wn
Ġinter p
Ġshout ing
Ġadv ice
Ġca pt
Ġinc re
Ġang uish
Ġarm y
Ġwatch ing
Ġune xpected
Ġconfess ion
Ġsens es
Ġfour th
bb ing
Ġgrow ing
Ġemb race
Ġtem p
Ġutter ly
Ġdri ve
Ġdecl ared
Ġbegg ar
Ġdelight ed
eal ous
Ġtort ure
Ġkna ve
Ġtor ment
Ġmour n
Ġvict ory
Ġphr ase
Ġbrid ge
rum io
Ġlab our
Ġlen g
Ġsaf ety
ĠKat harina
ĠIsab el
Fa ith
ĠPO LONIUS
ĠNik odim
PAR IS
Ġpave ment
: '
B et
E W
P yotr
P erhaps
_ .]
a pp
b ow
g ar
g ress
h is
i pe
j o
m ay
s ky
v est
Ġ &
Ġa ston
Ġs al
Ġs we
Ġw ra
Ġw oes
it able
Ġc ab
en cy
or ne
Ġd well
ed y
Ġh osp
Ġp ot
Ġp ap
ar se
Ġg ift
st and
et er
Ġfor ty
Ġwe ight
Ġwe aring
ad ed
ill y
am ing
Ġli p
Ġli est
Ġli ked
ĠR uss
Ġshe pherd
ru n
th is
Ġsh r
ĠA y
ous ed
Ġun ple
Th ink
ĠL ida
el ess
os ity
ort ion
Ġtim idly
Ġsp ort
ĠB l
ĠB ohemia
Ġdes erve
un ity
ĠF oundation
pl es
ens ion
Ġcomm iss
Ġob st
Ġhonour s
Ġset tled
ove red
Ġremem b
Ġte eth
Ġem ploy
Ġcare ful
Ġfellow s
Ġcount enance
Ġdou ble
Ġaw ake
Ġran k
Ġdisc uss
Ġchar ity
Ġreg ular
Ġcond uct
Ġdisp atch
Ġdisp osition
Ġcor re
Ġsing ing
Ġstrong er
On ly
Ġquar ter
bb ed
Ġbless ed
Ġprof ess
Ġprev ious
Ġdef ence
Ġfever ish
Ġfing ers
Ġdisg ust
Ġmor al
Ġfle w
Ġjump ed
Ġeld er
Ġconc ern
Ġconvi ction
Ġwedd ing
Ġextraord inary
Ġanno y
antag enet
Ġuncons cious
' ?
B U
D OR
D ENS
H ark
P lease
S weet
T IUS
a cc
a ff
e unt
g ue
h im
o pe
s ide
u let
v i
v al
w ould
y ard
Ġthe ory
Ġm amm
Ġb rows
Ġo bl
it ors
Ġf ra
Ġc ent
Ġc ases
Ġc itizens
or ious
on ed
Ġd er
ing ing
Ġp in
Ġp ress
Ġth ief
ve ll
Ġg ent
Ġg ross
ut ation
Ġnot es
Ġst ars
Ġst ones
Ġme at
Ġhis t
Ġse p
ĠH ortensio
Ġan on
if fe
ru ng
ĠP adua
th ink
ĠW atch
ĠA nt
Ġcon qu
ast ic
Ġun natural
AR IEL
ĠM ay
ĠM ore
ĠM aster
Ġsa cri
ĠL EW
Ġex ha
Ġcan al
ist ress
ĠG aunt
ĠG remio
Ġj ew
Ġj ealous
Ġle nd
ound rel
ĠE arl
ide red
Ġro ad
Ġshould ers
Ġaf fection
Ġfl o
Ġfl ashed
Ġtw elve
Ġdis e
Ġbro ad
Ġfe ather
Ġgreat ly
Ġpre c
pl ess
Ġho llow
ud ed
Ġwr iting
With in
Ġwork ing
TER N
ĠJ ove
Ġend ure
Ġconf ound
fa ction
Ġmin ister
Ġdel ay
Ġunderstand ing
Ġinst ead
Ġcle ver
Ġbear s
Ġbre ad
Ġint ent
Ġfollow s
Ġche ek
Ġmist aken
Ġmist rust
ates by
Un to
Ġfall en
Ġexc it
Sir rah
Ġprop ert
Ġlear nt
LAR TIUS
Ġdam n
Ġsk ull
Ġgaz ing
Ġinstant ly
Ġwound ed
Ġce rem
chan ce
Ġhide ous
Ġfif ty
Ġunt il
Ġsle pt
iter ary
Ġreckon ing
Ġnerv ous
Ġenc ounter
Ġpun ish
ĠCap ulet
Qu ite
Ġpled ge
Ġcho ice
ĠX I
Ġattent ively
Ġunivers ity
Ġkins man
Ġvenge ance
ĠNorth umberland
Ġhosp ital
BU RY
DENS TERN
ĠWatch man
ĠLEW IS
* *
; '
? [
B l
F ear
K aterina
O s
P ardon
P SON
P edant
R TIS
S AM
U IL
a x
a it
a fter
b ray
c st
c red
f er
l ar
p es
r ist
r ough
s a
w orn
Ġt orn
Ġs n
Ġs ly
Ġs ink
ou nce
Ġw ench
Ġw rote
Ġb ore
Ġb ast
Ġb ond
Ġf ain
Ġf il
Ġc ens
Ġc ries
Ġd im
Ġd umb
Ġh orses
Ġl est
Ġp ite
Ġp icked
ow bray
Ġst ain
Ġst ab
Ġwe ap
Ġwh ilst
Ġse es
ĠH im
ĠH ay
ĠP er
th y
Ġsh irt
ĠA m
ĠA p
Ġfa ire
Ġv ol
Ġun b
Ġun m
ĠM i
ĠM en
Ġsa cred
ĠThe se
ĠG rumio
ĠG UIL
Ġspe ct
Ġsp are
Ġro ck
ET ER
Ġfl ow
Ġcl ass
Ġcl aim
Ġper ceive
Ġdown stairs
Ġover whel
Ġsc r
Ġwant on
Ġturn s
Ġra ise
aught ers
ff ic
Ġho le
ect ed
Ġco ver
Ġgr at
Ġbelie ved
Ġpray er
Ġdel ic
Ġint ense
Ġint rodu
Ġkind ly
Ġgi ves
RAN TZ
Ġhum our
Ġhum bly
Ġsupp ort
Ġless ons
Ġbegin s
ENC RANTZ
Ġexc han
Ġmaster s
Ġsound s
Ġrou ble
Ġser iously
Ġkiss ed
Ġut tered
Ġabs ence
Ġtre ason
Ġrespect ed
Ġcor rupt
Ġinterest ed
Ex eunt
Ġsing le
Ġevid ently
Ġopp ress
CU RTIS
Ġbur st
Ġresol ute
Ġlead ing
Ġbless ing
Ġprep are
Ġed ge
Ġsum m
Tw as
ANT I
Ġlea ves
Ġfat al
miss ion
Ġpossess ion
Ġlodg ers
Ġprin ci
Ġimpati ence
eep er
Ġlift ed
Ġvent ure
Ġequ al
anch oly
umer le
Ġlangu age
Ġmel ancholy
ĠMark et
Bro ther
Os r
SAM PSON
ĠGUIL DENSTERN
? ...
? --
? _]
A L
B er
C H
C itizens
E X
E ither
M ade
N e
P orfiry
T R
a v
a ct
i vers
i vil
l ong
m b
o llow
r ison
s hall
w l
z z
Ġt all
he t
Ġa ught
Ġs an
Ġw ake
Ġw its
Ġw aked
re qu
Ġm at
Ġm ir
Ġm ood
Ġc at
Ġc ure
Ġc ivil
ed ious
Ġh ig
Ġp ier
Ġth orough
im ate
ut io
se c
Ġmy st
Ġst um
Ġst ick
Ġre cei
Ġse ll
ĠR e
Ġsu gg
ĠS omet
ol es
ov na
est ed
us hing
ĠA b
Ġcon j
em ber
Ġam b
Ġun fort
ĠM owbray
Ġsa ved
Ġag on
Ġqu oth
Ġour s
ĠO ur
Ġbl ock
ĠAnd rey
ĠB oth
Ġro gue
Ġaf ford
Ġfl ight
Ġdis s
erv es
Ġbr ains
Ġwhere fore
Ġsc oundrel
Ġpre tend
cl am
Ġsm art
Ġchild ish
ĠMar s
Ġcomp an
Ġent ire
Ġend ed
ĠRom an
Ġwa il
Ġdist ance
Ġdist urb
LE Y
Ġmatter s
Ġatt ack
Ġkind red
Ġpoint s
Ġsoon er
Ġmer c
Ġbring ing
Ġadv ance
Ġhur t
Ġca res
Ġac ross
ĠLe w
Ġdro ps
Ġind iffe
Ġbid s
Ġcor se
Ġcross ed
Ġfight ing
Ġjo int
Ġmark et
Ġcru shed
Ġnotic ing
ac le
uri ous
Ġexpect ing
Ġdam ned
bur y
Ġval our
Ġye a
Ġbow ed
Ġdread ful
GON US
Ġconcl usion
head ed
Ġfrown ing
Ġmal ice
ĠPl ay
Ġty rant
Ġgro an
Ġcuri osity
Ġauthor ity
Ġbot tom
Ġdeg ree
Ġaccord ing
Ġignor ant
Ġcondem n
Ġundert ake
ĠROS ENCRANTZ
Ġcred it
Ġbecom es
Tru e
Gu il
Ġmamm a
Ġexcit ement
Ġpropert y
ANTI GONUS
F ie
G et
L isten
M ine
T CLIFF
U nder
_ .
g ers
h y
h um
p han
s c
u ing
Ã ¨
Ġ ess
Ġ Upon
Ġt akes
Ġt edious
Ġs oup
Ġs illy
Ġw and
Ġw ither
Ġw ont
Ġm ot
Ġm eth
Ġb ru
Ġb orrow
Ġb orne
Ġo rig
Ġf ist
Ġf old
Ġf ret
Ġf rank
Ġc ig
Ġd ared
Ġhe ed
ar row
an cing
Ġth read
Ġg le
Ġg asp
Ġst out
Ġst aring
Ġme nd
ri ly
Ġwe eds
ke ep
Ġn ames
am s
ord s
Ġsh ore
Ġsh ock
Ġsh rew
ĠA f
Ġcon stant
Ġsha pe
Ġor phan
Ġthere of
ĠM e
pp er
Ġal ar
Ġag reed
Ġab use
Wh ilst
." ]
Ġlo g
Ġpro ver
ne w
Ġpl ague
Ġfl ushed
Ġdis d
Ġbet rot
Ġrem ains
Ġdes crib
Ġgreat est
Ġpart ing
Ġpart ed
Ġcont ract
Ġra gged
Ġcons idered
Ġsm ell
ud ing
ĠIv anovitch
Ġtr ain
Ġwr ath
Ġad ieu
Ġpres ident
Ġdoor s
Ġfo lly
Ġacc us
Ġset ting
Ġrep ro
Ġdist ing
Ġapp re
Ġlaw y
Ġopen ly
Ġins ol
ĠĠĠĠĠĠĠĠĠĠĠĠĠĠĠĠ ĠĠĠĠĠĠĠĠĠĠĠĠ
Ġste pped
Ġadv ise
Ġhar sh
Ġact ually
Ġkiss ing
rib ly
Ġut most
uten ant
Ġabs ent
Ġtre asure
Ġtre acher
Ġdark ness
Ġcra ve
Ġstud y
Ġfore head
Ġocc ur
Ġsword s
Ġresol ution
Ġprev ent
Tw o
oll o
Ġprov ide
Ġfr ame
Ġdest roy
Ġfill ed
Ġgener ous
Ġty ran
Ġsy mp
Ġfin ished
Ġcurs ed
Ġgate way
Ġpaint ed
str ous
Ġamaz ed
ĠKo ch
look ing
Ġsole mn
Ġuneas ily
Ġstor m
ĠPr ince
Ġsli pped
RA TCLIFF
Ġtas te
Ġrecogn ised
Ġabsolute ly
ĠVols ces
Ġet ern
Ġloath some
Ġfier y
Ġcompass ion
Ġfru it
Ġconsequ ence
Ġexceed ingly
Ġcou ple
Ġrot ten
Ġexha ust
Ġprec ise
Ġpite ous
Ġunfort unate
ĠLew is
Ġbetrot hed
5 0
A ch
B IS
C T
D es
D ost
D ON
G entle
H ear
H OP
M ethinks
O nce
R od
S ignior
a ly
a cles
b re
c le
f ess
g y
g ive
h ind
m ing
o very
p en
r ound
r ont
s ed
w ixt
Ġ Queen
Ġt aught
Ġt une
in centio
Ġw ings
Ġm ess
Ġm udd
Ġb ite
Ġb ark
it ol
Ġf ish
Ġf rant
Ġc ell
Ġc ard
Ġd aughters
Ġh ost
Ġl ower
es y
Ġp ath
Ġp air
Ġp ains
om as
Ġin fect
Ġg est
Ġg own
st it
ut ies
ut land
Ġe cst
Ġst ol
Ġst if
Ġme re
Ġn umb
Ġk night
am n
ĠR utland
ra nd
Ġde ce
ĠS h
ĠS peak
ord er
Ġsh oes
Ġup set
ĠA d
Ġwhat ever
ant ua
ak er
Ġfa res
Ġne g
res p
ast ing
ĠM ake
ĠM antua
Ġsa il
ĠL A
Ġr ash
Ġr asc
Ġab rupt
kol ka
Ġbl ue
Ġwor ried
ci ans
Ġpro du
Ġar range
Ġsp ake
Ġmad man
ĠB arn
Ġmay st
ĠN ever
ĠN ev
AN LEY
Ġfl ood
Ġfl ash
Ġsir rah
ĠV incentio
Ġpe ep
Ġper il
Ġen vy
Ġcha mp
Ġru m
Ġru le
ĠF arewell
Ġpart s
Ġra ising
Ġsw ore
Ġsw allow
Ġgl ow
Ġhast ened
Ġfo es
Ġacc use
Ġfind ing
Ġhel pless
Ġsec ure
Ġte nd
Ġass ured
Ġter m
Ġlight ed
Ġfollow ing
Ġhu nt
Ġbreat hing
Ġsupp er
oe ver
ĠĠĠĠĠĠĠĠĠĠĠĠĠĠĠĠ ĠĠĠĠĠĠĠĠ
Ġtong ues
Ġwrong s
Ġdep uty
Ġrel ation
rit hee
Ġhate ful
Ġquar re
Ġmark ed
Ġfore ign
tw ixt
Ġcur rent
Ġaff air
Ġgrow s
Ġlead s
Ġprof it
Ġce ased
Ġpain ful
Ġprov ost
Ġcontempt uous
Ġsatis faction
Ġgrant ed
Ġcircumst ance
reed om
Ġburn ing
Ġpract ise
Ġdiv ine
Ġstore y
Ġdeterm ined
Ġamaz ement
Ġrevol ver
ĠCap itol
Ġuneas iness
Ġsen ate
Ġord inary
TY BAL
Ġperp lex
Ġextreme ly
Ġbew ild
ĠChrist ian
Ġbod ies
Ġshad ow
Ġfant astic
Ġrepl ied
Ġrestr ain
Ġforgiven ess
Ġhes it
ĠMerc utio
Ġunple asant
Ġrememb rance
ĠMi kolka
Ġprover b
BIS HOP
TYBAL T
1 4
B id
B ook
B esides
D ER
G utenberg
I ndeed
J ust
K EN
K now
L o
P ut
R em
S C
T ut
a ult
a ches
b r
e y
f ather
g in
j ust
o inted
Ġt ou
Ġt id
Ġt est
he ther
Ġa pt
Ġs cept
Ġw re
Ġw ives
Ġm as
Ġm il
Ġm ater
Ġm essenger
Ġb al
Ġb ill
Ġo we
Ġo rac
er ona
it ure
Ġc her
Ġc ook
Ġd ig
Ġl uck
Ġp ort
Ġp arent
Ġp owers
ar ies
ar ily
as m
an ley
Ġha unt
Ġg ently
st ep
le v
ly ona
Ġmy ster
Ġst ret
Ġme rely
Ġwe alth
ur ance
ĠH ad
Ġan tic
ra ced
Ġde w
Ġsu llen
Ġbut cher
ru d
Ġwill ing
Ġsh rie
Ġsh ip
us ing
il i
il ia
ĠA umerle
ĠĠĠĠ ĠĠĠ
Ġv antage
Ġgo ss
Ġun less
ĠM usic
ĠC omin
ĠC atesby
Ġr is
Ġqu al
Ġab and
os en
ep t
Ġle vel
Ġbl est
pt ure
Ġpro ved
Ġpro gress
ER TES
OR Y
Ġpl ot
ath y
AN D
Ġshould st
Ġbeg ged
Ġfe ed
ap able
ĠK eeper
Ġrem edy
Ġover t
Ġdes cend
ign ation
Ġwhere in
ĠF l
Ġtru n
Ġke ys
Ġlast ed
Ġcour age
Ġad o
Ġimp rison
Ġart icul
Ġres ist
Ġple ad
Ġwork ed
Ġrest ore
Ġend s
Ġfind s
Ġwa ist
Ġdel iber
ĠThere fore
Ġap art
Ġdist ress
Ġdist ressed
Ġque er
Ġem p
Ġtri ck
Ġtri ump
Ġserv ed
Ġdru m
Ġta il
Ġpoint ed
OM AS
Ġplay ing
Ġaw fully
Ġlaw s
Ġtra itors
Ġins ist
Ġdisc over
Ġperson al
Ġir re
Ġca used
Ġjoy ful
Ġwond ering
Ġsign s
Ġdec ide
Ġtre ad
Ġshort ly
Ġdet ail
Ġtrem bled
Ġlear ned
Ġfaith ful
Ġcourt esy
Ġreal ised
Ġden ied
Ġcur t
Ġbur den
Ġpocket s
Ġsuspic ious
Ġimag ination
Ġpie ces
Al ack
Ġce ase
Ġviol ently
Ġcol ours
Ġsur round
Ġbitter ly
Ġest ate
Ġfaint ly
Ġcontempt ible
Ġconce it
Ġgar ments
ĠPl antagenet
Ġwitness es
Ġhuman ity
Ġcurs es
Ġhung ry
Ġeas ier
Ġhid ing
Ġnerv es
ĠCoriol i
Ġele ven
Ġda res
Ġrap id
Ġperp et
Ġenv ious
Ġtrump ets
Ġintellig ence
HE LIA
Ġvan ity
Ġtrif les
Ġchast e
BRA KEN
Ġcontro l
Ġinflu ence
Ġpron ounced
ĠPaul ina
Ġleng th
Ġwra pped
Ġpap ers
TR ESS
oles ome
Ġentire ly
Ã¨ d
Ġmot ive
Ġcig aret
Ġmater ial
Ġorac le
ĠComin ius
BRAKEN BURY
2 0
A d
E dward
G ORY
H ence
M IS
P oor
R et
R ichard
S how
T urn
U nt
b ar
b an
d ig
e en
h us
i od
j ud
n ant
o c
o ci
o ff
r t
r ous
t ime
u it
u ine
u ced
Ġ ing
Ġt iny
Ġt roth
he st
in ct
in ous
Ġs ins
ou ble
Ġw ager
Ġm are
Ġm ass
Ġm ouse
Ġb and
Ġb ought
er set
it ary
Ġf ires
Ġc as
Ġc ool
en ced
en ius
or ies
Ġd ies
Ġhe els
Ġh ook
Ġh ind
Ġh int
Ġl oose
Ġl amb
Ġy onder
no on
Ġp il
Ġp ension
om erset
Ġno is
Ġbe er
Ġg idd
ut ing
se ll
ir ing
Ġwith draw
Ġme chan
Ġre ve
our ish
Ġwh ip
ck ed
ct ors
ra ph
Ġde b
Ġdo zen
ĠS uch
Ġhad n
ov es
Ġshe ep
ru mp
ĠP ray
Ġsh ri
ĠA lyona
Ġcon ne
ant ly
Ġsha wl
ard ine
Ġv ir
Ġv ast
Ġv od
Ġv ig
Ġv ows
Ġv ouch
Ġman age
han t
Ġun g
um ov
ĠL ic
Ġcom b
Ġal as
Ġout ward
Ġout side
ĠC on
ĠC ould
fe rence
Ġr oused
Ġex erc
Ġex agger
ĠO VER
ĠD r
Ġbl ur
Ġbl ush
Ġlo yal
Ġus ual
na umov
He aven
ĠE n
Ġsp l
Ġpl ant
Ġmay or
Ġdis like
Ġdis may
Ġbr ook
Ġcl ut
bl er
My self
Ġrem oved
Ġover come
ft y
Ġsc old
Ġru st
Ġru sh
Ġhon oured
ĠT HE
Ġsm ooth
Ġput s
In to
ount y
Ġget s
Ġco ff
iz e
Ġcomm itted
Ġres p
Ġacc used
Ġacc omp
Ġwork man
Ġwork men
Ġrep ul
fa ced
sh ire
Where in
Ġadd ressed
Ġfar ther
Ġass oci
Ġserv ices
ont ent
Ġhu ge
PET ER
Ġta x
Ġmer it
Ġmon ster
Ġmon ument
Ġmon strous
Ġappe al
Ġgen uine
Ġpol it
Ġposs ibly
Ġpower ful
Ġthousand s
Ġmis fort
Ġless on
Ġdisc har
Ġdisc ourse
Ġpri ze
Ġboy s
ĠAn y
ĠTh omas
Ġwond ered
Ġdec ision
Ġinf inite
Ġstru gg
Ġind ignation
Ġcontin ue
Ġcontin ual
Ġmaid s
Ġsto le
GRE GORY
aper naumov
Ġpar ag
Ġresol ve
Ġsense less
Ġconsider ation
Ġporter s
Ġirrit able
Ġirrit ably
ĠĠĠĠĠĠĠĠĠĠĠĠ ĠĠĠ
Ġmod esty
Ġinstru ct
Ġappro ach
apt ain
Ġposit ive
Ġmor bid
Ġunw illing
Ġwild ly
Ġcast le
Ġassist ant
Ha ving
Ġven om
Ġcuri ous
Ġsigh s
Ġpur cha
Ġslight est
ĠKo lya
Ġodd s
iber ia
Ġba be
Ġtrump et
Ġmaint ain
Ġpra ise
Ab out
Ġrecall ed
Ġheav ily
Ġobed ience
ĠMad ame
Ġpict ure
Ġhaught y
Bel ieve
Ġdistin ctly
Ġhist ory
Ġjew el
Ġcens ure
Ġmyst ery
Ġindiffe rent
DON E
Ġabrupt ly
ĠBarn ardine
ĠNev a
DER BY
Ġtid ings
MIS TRESS
Ġvod ka
ĠOVER DONE
! [
A p
C h
F ather
F ORD
G H
L ong
O X
P HELIA
R es
R ight
R ICH
S p
S OM
V AL
a bl
a cy
b oard
c ough
d le
d own
f ound
f ice
f oot
l aw
l ict
m ion
m other
m aster
o ful
p r
r ouble
w w
w ork
Ġ z
he ld
Ġa ch
Ġs ed
Ġs alt
Ġs nat
ou bt
Ġw id
Ġw ot
Ġw ink
Ġw itch
Ġw aking
Ġw oful
Ġm irth
Ġb ri
er ate
it es
is a
is it
Ġf reedom
or g
Ġh om
Ġl ouse
es us
Ġp our
Ġp ressing
at he
Ġno ose
Ġno bles
Ġbe f
Ġg ame
et ite
ld om
Ġe v
Ġe ating
Ġfor ms
Ġst amp
Ġwas ted
Ġre de
Ġre vere
Ġn aked
ur st
Ġse as
Ġse vere
Ġde vel
Ġsu p
ĠS ic
ĠS omerset
pe l
ru ction
ĠP ER
Ġsh ot
ic y
il os
ell o
Ġsha re
EN E
ard ing
ard ed
Ġfa c
res ent
Ġv ul
te ous
Ġthere in
Ġsa v
Th ree
ĠC al
Ġqu it
ist ing
ĠG rey
ĠO PHELIA
are l
Ġbl unt
Ġpro vo
Ġpro vided
ER IA
ER SET
Ġtheir s
ĠB er
ĠN or
âĢĶ âĢĶ
ĠV erona
Ġdis miss
ful ness
Ġbr ings
Ġcl o
Ġtell s
ĠK apernaumov
Ġen s
Ġking ly
Ġsomet ime
Ġpre fer
ĠT rump
Ġra re
Ġra il
Ġgl anced
Ġbel oved
Ġtr ade
Ġgentle woman
Ġhast y
ab ility
Ġwar n
Ġgr ad
Ġset s
Ġstre w
Ġmoment s
ition s
Ġapp etite
Ġrec over
Ġneed ed
Ġter ribly
Ġbre ed
Ġbre aking
Ġserv ants
Ġfollow ers
me nd
Ġhold s
Than ks
Ġran g
Ġuse less
Ġins ide
Ġcar riage
Ġstra w
urs day
ime ly
ail or
Ġban ished
Ġfall ing
Ġlate ly
Ġfort unes
Ġhor rible
Ġsure ly
Ġca ut
Ġca uses
ĠTh y
Ġreg ret
Ġang rily
Ġarm our
Ġdep osed
IL L
Ġsign ific
Ġshame ful
Ġhang ed
Ġdesp ite
Ġdet ails
Ġtrem ble
Ġfour teen
Ġclose ly
Ġtrou bled
bro ker
Ġsk y
Ġdiffe rence
Ġsecret s
Ġirrit ated
Ġwarm ly
Ġpen it
Ġplain ly
Ġinstru ment
Ġund one
Ġdev ise
Ġbell y
Ġexam ining
Ġthri ve
Ġthri ce
Ġintend ed
Ġcalm ly
MON D
Ġdepart ure
Ġpal ace
Ġinj ured
Ġpawn broker
Ġeffort s
Ġvex ed
Ġvex ation
Ġsharp ly
ĠAr ch
Ġvar ious
Ar t
Ġweigh ing
Ġpla ces
Ġwat ers
Ġfurn iture
Ġsple nd
Ġpersu ade
Ġsquee zed
vi our
Ġobl ig
Ġdise ase
sa fe
Ġbast ard
Ġexchan ge
Ġcompan ion
Ġess ent
Ġfrant ic
Ġneg lect
ĠLA ERTES
SC ENE
Ġtriump hant
OX FORD
RICH MOND
SOM ERSET
VAL ERIA
mion e
ilos op
4 1
4 7
5 9
B es
B US
C Y
C ousin
E d
G reat
H Y
H as
L ove
M AM
M OP
N S
N ARD
P r
P rithee
S A
S e
T ybalt
T ailor
a res
a ves
b orn
c ence
f rom
h or
i am
i ond
l iness
m ity
n el
p ed
s ha
t les
u ce
u ary
w ing
w as
w ain
w ig
Ġt ame
Ġa unt
Ġa ctions
in ate
Ġw ard
Ġw ag
Ġw oke
ha s
Ġm ile
Ġb ud
Ġb ench
Ġf requ
Ġc ot
Ġd om
Ġd ate
Ġd aring
Ġd agger
Ġto mb
Ġhe ap
Ġh m
Ġl ent
Ġl ines
Ġp ant
Ġp ear
Ġp itch
ar ation
Ġof fered
as hing
as ants
an while
om en
Ġin ward
Ġin ex
Ġno dd
Ġbe held
Ġg ather
Ġg age
im ation
Ġe Book
ir on
Ġst u
Ġst age
Ġst uck
Ġwas hing
Ġre now
Ġre ach
al ent
Ġn arrow
our age
Ġher s
Ġk in
Ġk not
Ġso cial
Ġwh i
Ġwh ither
Ġwh olesome
out s
Ġse est
Ġse ated
Ġse ason
ck ing
ĠH arry
Ġde ceive
ĠS hall
ĠS iberia
ru s
ĠP ri
est ry
Ġsh oot
Ġsh ivering
ic s
ul ate
Ġfa iled
Ġv ague
Ġam end
Ġun like
ĠM OW
ĠL ud
ĠC aptain
Ġex ile
Ġqu ench
Ġqu ivering
Ġj e
Ġle ather
ĠD or
Ġtim id
Ġlo at
ĠE l
Ġsp ace
Ġmust n
ĠB ona
Ġlet s
Ġro ar
ish ment
Ġfl ies
Ġhat ed
Ġch ide
Ġch oler
Ġcl am
Ġcl ock
Ġper ish
Ġbet wixt
Ġheart ily
Ġcha llen
Ġrem orse
Ġdes ires
un ch
Ġsc ope
Ġru s
ĠF riar
Ġpre y
Ġpre ced
Ġwant ing
Ġlong ed
pl ay
Ġbel ike
Ġtr ous
ens ive
Ġwr ink
Ġnight s
Ġres ign
Ġacc ursed
ĠWh ich
AB HOR
Ġrep utation
Ġshow ing
Ġpa used
Ġever l
,-- --
Ġwa x
ix enes
Ġpers ist
Ġrec ent
Ġneed ful
Ġass urance
Ġlight ning
Ġsil k
TH OMAS
Ġche ap
Ġcare er
Ġnat ive
Ġbreat hed
vers ion
Than k
Ġplay ers
Ġdr am
Ġret ired
Ġremember ing
Ġtra ce
Ġhum ili
Ġappe ars
Ġdream ing
Ġexp ressed
Ġins isted
Ġposs ib
Ġspo on
Ġunc ertain
Ġadv ent
ĠTh ursday
Ġsound ly
ST ANLEY
ĠLe ave
Ġjoy s
icul ous
Ġcold ly
Ġcross ing
Ġbea ut
Ġmaid en
ush kin
Ġsto pping
Ġvirt ues
Ġrepe at
Ġbad ly
Ġcur st
ĠSt ay
Ġoffic ers
Ġchair s
Ġbur nt
Ġbur then
Ġsuspic ions
Ġtouch ing
ats wain
Ġutter ing
Ġoath s
Ġviol ence
Ġimport ance
Ġest eem
Ġmouth s
ĠĠĠĠĠĠĠĠĠĠĠĠ ĠĠĠĠĠ
Ġconcl uded
cri be
Ġadm itted
Ġmal ignant
Ġdev otion
Ġloud ly
Ġrid iculous
Ġcrim son
Ġtran sp
Ġexcept ion
Ġpriv ile
Ġseiz e
Ġgovern or
Ġavo ided
Ġprin cess
Ġph ilosop
Ġfors worn
Ġimpati ent
Ġdesign s
Ġconscious ness
Ġtrans l
Ġur ged
Ġaffect ed
Ġwhisper ing
Ġkn ife
Ġeager ly
Ġunf old
Ġreflect ed
BRA Y
De ath
ien ced
Ġexper ience
ĠNap ole
ĠEvery one
Ġoccup ied
Ġembarrass ed
ĠCa ius
Ġincre ase
Ġswe at
Ġconqu er
Ġweap on
ĠMen enius
ffic er
Ġdelic ate
EX ETER
Ġsan ct
Ġthorough ly
Ġagon ising
Ġwand ering
Ġgasp ing
Ġorphan s
Ġalar med
Ġdisd ain
Ġsymp athy
Ġexhaust ed
ĠMusic ian
Ġtrun k
Ġcigaret te
Ġmechan ically
Ġexerc ise
Ġsnat ched
Ġdevel op
ILL IUS
BUS HY
MAM ILLIUS
MOP SA
iond ello
ĠMOW BRAY
ABHOR SON
! _]
2 2
6 1
A gain
B o
B ring
D ear
H ast
H el
M ight
N one
P age
P resident
R ep
R azumihin
S c
S ha
S et
T E
T were
W idow
a is
a wn
b us
c or
f y
f old
i lf
i ally
m itted
o b
s er
s ing
s oever
t es
u ation
v ity
v ial
w r
Ġ rig
Ġt u
Ġt ut
Ġt ick
Ġt ap
he nd
Ġa h
in ent
in tend
Ġs way
Ġw ol
Ġb ade
er ity
er cy
it ated
Ġf u
Ġf ame
Ġd ar
Ġd urst
ed ly
Ġhe ight
Ġl ing
Ġl ion
Ġl osing
Ġp ed
Ġp ond
as ing
as hen
Ġth orn
Ġin ev
at t
Ġha b
Ġg ri
ch ill
Ġis land
Ġre jo
Ġn ap
am est
Ġli kes
Ġwh iles
ĠR ivers
Ġall e
ra ge
ra ction
Ġde arest
ĠP lease
ĠP isa
Ġwill ingly
th ou
us ions
ic able
il ence
Ġup stairs
ĠA way
Ġcon st
ul se
em per
Ġfa re
Ġfa wn
Ġman aged
Ġam en
Ġun st
AR CH
ĠM essenger
Th ose
Ġal ter
Ġag ony
ĠC ons
You ng
fe ctions
Ġr ising
Ġex claim
Ġmore over
Ġab oard
ĠG u
ĠG et
ĠG host
ate ful
ĠD e
to p
Ġlo ver
Ġsee king
Ġpr int
Ġhere after
ci o
ci es
ci an
Ġsp read
ĠB iondello
Ġpl ans
ish op
Ġshould n
Ġch in
Ġdis play
Ġpe asants
Ġbr own
Ġcl asp
Ġper mission
Ġen mity
ĠPet er
Ġdes erves
Ġother wise
un n
Ġwhere of
ert ed
Ġpre jud
ĠT H
Ġcont ented
Ġsm iles
Ġafter noon
Ġgl ancing
ud es
Ġnew ly
less ness
Ġimp er
ute ous
Ġwar like
Ġgr ass
Ġhands ome
Ġfear fully
ĠJ ust
Ġent ered
Ġrep air
Ġhel m
Ġap olog
Ġbear ing
Ġapp arel
Ġrec ord
Ġtri vial
TH AS
Ġwind s
Ġsince rely
ĠLord s
Ġbest ow
Ġvis age
Ġpol icy
Ġcar rying
ĠĠĠĠĠĠĠĠĠĠĠĠĠĠĠĠ ĠĠĠĠĠ
cept ion
Ġcrown s
Ġdisc onc
Ġsleep ing
Ġhar k
St ill
Ġsound ed
Ġinc apable
Ġes c
Ġdif f
Ġsign ify
Ġsecond s
Ġsecond ly
Ġconfess ed
Ġobs erve
Ġsend s
Ġdrunk ard
Ġbra nd
Ġdro ve
Ġdisp le
Ġrespect able
Ex cuse
Ġdeep ly
Ġopp ort
Ġcommand ed
uri es
ĠSt anley
Ġsk ill
Ġcal cul
Ġcler ks
mer ic
ĠPol ixenes
Ġwonder ful
Ġprev ail
Ġprev ented
ked om
ĠDon ald
Ġmove ment
Ġdef inite
Ġyouth ful
Ġest abl
Ġsqu are
Ġbene fa
Ġunt imely
Ġmod est
Ġmed ic
Ġwood en
Ġgar land
Ġgall op
Ġdecl are
Ġgener ally
Ġpract ical
Ġprin ces
Ġassist ance
Ġcompl ain
Ġarri val
Ġintell ect
Ġgrie v
Ġgrie ve
Ġnecess ity
ĠEx cuse
Ġbeha viour
Ġdeterm ine
Ġble eding
Ġsol ic
Ġfie nd
Ġmour ning
Ġsole ly
ker chief
Ġearnest ly
Ġsen ators
Ġdeg rees
Ġpled ges
Ġconvi ctions
Ġdu kedom
Ġinform ation
Ġbend ing
Ġenv iron
Ġintellig ent
Ġignor ance
Ġtas k
Ġentertain ment
Ġguest s
Ġcondem ned
gl ass
Ġpit iful
Le ave
Ġmaint ained
BAL THAS
Ġwat ched
Ġcopy right
ĠNap les
Ġtempt ed
Ġphys ical
Ġpsycholog y
Ġshudd ered
Ġtemp est
Ġshr oud
Ġcommiss ion
ĠMore over
Ġsacri fice
Ġflo ated
ĠAp ollo
Ġfaire st
Ġresolute ly
Ġhig her
Ġorig inal
Ġfold ed
Ġecst asy
Ġrasc al
Ġwre ck
Ġmyster ious
Ġgoss ip
Ġwaist coat
Ġsurround ings
Ġvir gin
Ġexagger ated
Ġaccomp an
Ġmisfort une
Ġparag raph
Ġrede em
ĠPER CY
Ġvul gar
Ġclo ak
ĠArch ive
Ġtrous ers
ashen ka
BALTHAS AR
1 5
1 6
1 8
2 4
3 0
3 1
3 3
3 7
4 5
A Ed
B ear
C EL
F OL
K eep
L u
L ay
M ark
P er
P ost
R ead
S ave
c ra
c ol
c ure
d s
d ge
e f
f ret
g on
g ly
k ady
l ich
l ove
l ier
m ong
o cc
o int
p ent
s ay
s ame
s uch
t t
t ies
u le
u pt
v ior
w hen
w ife
y es
Ã ¦
Ġt ide
Ġt ied
Ġs now
Ġw ing
re en
re et
re land
Ġm ain
Ġm us
Ġm ult
Ġm ates
Ġb on
Ġb ure
it a
is c
is her
Ġf ears
Ġf ray
Ġf inal
Ġf asc
Ġc y
Ġc amest
or m
on ious
on ius
Ġd ow
Ġd rows
Ġd rank
Ġl u
Ġl az
Ġl ark
ĠI N
ĠI ndeed
ĠI reland
Ġp an
Ġp age
an ing
an cy
Ġth irst
Ġno bly
Ġha z
ut in
se e
et ter
Ġe ast
id ing
Ġnot ed
Ġnot ion
Ġu gly
Ġst y
Ġst ing
Ġst ale
Ġme as
Ġis le
ro g
ri al
ri ct
Ġwas hed
Ġre aching
ad es
al es
Ġn ought
Ġn ails
Ġso re
Ġso ck
Ġwh ore
ot ed
ĠR ess
ĠR os
Ġde fect
Ġde af
Ġsu f
ĠS und
ol ks
Ġshe et
ĠP hil
ĠP ashenka
Ġup per
ĠA gain
ĠA meric
Ġcon ference
Ġsha n
Ġsha de
ak ov
ak est
em ly
em ark
Ġne arer
Ġman kind
Ġun just
ĠL isten
ĠL iterary
ind ing
ind ed
pp ers
Ġcom est
ie ved
Ġr ouse
Ġr uth
Ġab hor
ist s
os es
Ġle ap
ig ation
Ġwor rying
na ble
Ġpro ject
Ġsp it
ĠB el
ĠN ew
Ġhand kerchief
Ġaf fections
Ġbeg ging
Ġch osen
ĠV ice
ĠV ery
Ġtw ain
Ġdis gu
Ġdis order
old ier
ag ne
Ġper iod
Ġhas n
Ġfather s
ran g
Ġevery where
Ġcha se
Ġover coat
As ide
Ġru e
ĠF are
ĠF irst
Ġpart ner
Ġdon ations
hen sion
ĠT w
ĠT it
ĠT ill
ĠT han
Ġmother s
Ġsl ay
oss ess
Ġright s
Ġgl orious
Ġco arse
Ġad ver
Ġad vers
Ġimp l
Ġimp ud
aint s
aint ed
CA S
Ġacc om
So ft
Ġgr im
Ġcomp lex
ĠJ ack
ĠJ ew
Ġyoung est
for th
Ġhouse hold
Ġstran g
Ġconf irm
Ġconf idence
Ġnor th
Ġlive ly
ult ies
Ġdist racted
Ġdist rict
Ġdear ly
Ġrec overy
Ġem otion
Ġstay ed
Ġserv es
let s
Ġdru ms
ĠLu cio
Ġopen ing
Ġgen ius
Ġcar ri
rer s
Ġchar ged
Ġspo il
Ġfall s
ĠTh us
Ġlod ge
Ġlod ged
Ġcap s
Ġref le
Ġrel ish
Ġrel uct
Ġprom pt
wh o
wh y
Ġgrief s
Ġdro pping
Ġdisp osed
Ġcor on
Ġcra zy
ĠMAR CEL
unt s
Ġpay ing
Ġinv al
Ġfalse hood
Ġbo ar
Ġjo b
Ġtrou bles
Ġcru sh
Ġreal m
Ġreal ise
Ġtown s
Ġbeat en
ĠHer mione
Ġsk in
Ġcal am
Ġval ue
Ġsix teen
NOR FOL
chan ge
Ġve ins
Ġinqu isit
Ġmock ing
Ġallow ed
Ġdri ven
Ġadm ir
Ġbig ger
Ġappro aching
Ġunw orthy
Ġsuccess ion
Ġflatter ing
Ġsy ll
Ġfin ally
Ġgro ans
Ġeat en
ĠWill iam
Ġguess ed
Ġgrie ved
Ġmount ing
Ġmount ain
Ġkna ves
Ġow ing
Ġgloom ily
Ġsuper intend
ĠPa v
Ġcre ation
Ġpet ty
Ġpet ition
Ġmid night
Ġreb ell
Ġdepend s
ĠROS S
pir ator
Ġmag n
Ġblank et
Ġlean ed
Ġprote ct
Ġarg ument
Ġsple en
ĠUn ited
Ġbab y
Ġconsum ption
Ġcounter feit
Ġphys ic
Ġmill ions
Ġprosper ous
Ġobt ain
Su pp
Ġaud ience
Ġhap ly
Ġunse en
Ġinterp ret
Ġcapt ain
Bet ter
ĠRuss ian
Ġcorre ct
Ġannoy ance
DOR CAS
Ġcerem ony
Ġoverwhel med
Ġcorrupt ion
ĠSomet imes
clam ations
Ġdescrib ed
Ġlawy er
Ġtreacher ous
Ġoccur red
Ġetern al
Ġstol en
Ġstif ling
Ġnumb ers
Ġglow ing
Ġbewild ered
Ġhesit ating
Ġscept re
Ġantic ip
Ġqual ities
Ġimprison ment
Ġperpet ual
Ġreve rence
Ġblur ted
Ġev ents
Ġrevere nd
Ġfac ulties
Ġsplend id
Ġessent ial
Bes eech
ĠNapole on
Bo atswain
Ġinev itable
Ġdisconc erted
Ġopport unity
Ġmedic ine
Ġenviron ment
Ġbure au
ĠRess lich
ĠPhil ip
ĠMARCEL LUS
NORFOL K
! )
/ /
1 7
1 9
2 1
2 3
2 5
2 6
2 8
2 9
3 2
3 4
3 5
3 6
3 8
3 9
4 0
4 2
4 3
4 4
4 6
4 8
4 9
5 1
5 2
5 3
5 4
5 8
: //
A D
A cc
A men
B oy
C ame
C ough
C ons
D IN
D raw
D isp
F l
F ER
I m
K ind
M other
M istress
N astasya
O U
P re
R R
R oman
S omet
W ilt
W orthy
a ha
a ur
b oy
b by
b ows
b ility
c il
c ast
c ons
c ertain
d on
e xt
i ot
i able
i ving
i pping
l og
m aid
m aker
o cr
p ing
p ro
r as
t han
z ing
Ġt ro
Ġt ight
Ġt um
Ġt ink
he art
Ġs ings
Ġs ought
Ġs outh
Ġw est
Ġw ave
Ġw itt
Ġw ander
Ġb ol
Ġb ul
Ġb ag
Ġb uck
Ġo h
Ġf ed
Ġf em
Ġf um
Ġf urious
en eral
or ing
on ce
on est
Ġto oth
Ġto ps
Ġh ill
Ġl am
Ġl ap
Ġl atch
no inted
Ġp ound
Ġp ace
Ġp ushed
as te
an ks
an asy
Ġin n
Ġin ner
Ġin formed
at in
at cl
Ġbe think
Ġbe ef
im ents
ut ter
et ch
ly ing
Ġe ag
id ering
Ġfor bear
Ġfor feit
Ġst ates
Ġme lt
ri cians
Ġre ward
Ġre sem
Ġwe ather
Ġwe eks
ad ing
ad ays
al is
al ine
Ġas pect
Ġn et
am ov
ain st
Ġli ken
Ġli king
Ġwh it
ĠH m
Ġde ject
Ġsu ck
Ġsu ng
ĠS ince
ol a
ĠP al
ĠP rov
ĠP estry
ĠW ait
ic ed
ĠA nother
Ġcon ver
ul ous
Ġv ault
Ġam iss
Ġam use
art ha
Ġor dered
Ġthem e
Ġun re
Ġun kind
Ġthere by
ive red
um ed
ĠM in
ĠM adam
ĠL atin
Ġal ike
Ġout rage
Ġnow adays
Ġag itated
ie ves
ie utenant
Ġab st
Ġab ide
os ive
ĠG ree
Wh ither
hing ed
Ġgood s
ig ence
Ġbl ast
Ġbl az
Ġsome body
Ġlo ad
pt ive
He y
Ġar ras
Ġsp ur
Ġoff ices
Ġch rist
Ġdis in
Ġdis sem
Ġday light
Ġlove ly
ĠĠĠĠĠĠĠĠ ĠĠ
Ġpe ers
Ġbr an
Ġper j
Ġper force
Ġthought fully
Ġrem ove
here nt
Ġgra ves
Ġmar rying
Ġsc ow
Ġsc ore
Ġru d
ĠF ort
Ġke en
Ġmean while
Ġfriend ship
Ġsw ell
Ġgl it
Ġco pper
ens ed
ens es
Ġwr ought
Ġhast ily
Ġpres erve
Ġimp art
Ġcomm unity
Ġob sequ
Ġres c
atch ing
Ġmind s
Ġacc ustom
Ġgr ain
Ġhapp ily
for ced
Ġrest ed
Ġrest aur
Ġheaven ly
Ġinde pend
Ġpray ed
ĠRom ans
sh ould
Ġwa ves
the e
Ġel bow
Ġel bows
Ġrec onc
Ġrec overed
Ġtri cks
Ġstay ing
up on
Ġatt ract
ĠZ aha
Ġpoint ing
Ġcount y
Ġhope less
Ġmer chan
Ġret ire
Ġtra ces
Ġran s
Ġread iness
Ġdream t
Ġins in
Ġmis chief
Ġmis chance
Ġhigh ly
Ġste ep
Ġpri ce
Ġpri ck
Ġdoubt ful
Ġchar m
Ġgirl s
Ġstr ing
Ġfort night
Ġvi vid
St ri
ĠTh ink
Ġact ed
Ġinc ident
Do es
Ġdep ra
Ġfal con
Ġprison ers
icul ty
Ġsuff ic
Ġdan cing
Ġinf er
Ġrel ig
Ġrel ative
Ġsend ing
Ġdesp ised
Ġflat te
Ġtre es
Ġdisp ute
Ġfam ous
Ġcor rid
Ġprop het
Ġconv ict
Ġdare st
Ġsick ly
Ġsick ness
Ġstrong ly
Ġcoun sell
Cl arence
GRE EN
tw ill
Ġrequ ire
Ġreven ged
Ġdam p
Ġbur y
Ġpar li
Ġgaz e
Ġvisit ors
Ġcrowd ed
Ġdraw ing
ĠPol onius
Ġsad ness
Ġpain fully
Ġhot ly
Ġbar ren
Ġbold ly
Ġpen et
Ġpret t
Can not
Ġmod ern
cri ption
nat ured
Ġdest ruction
Ġamong st
Ġcontr ad
Ġgar ret
Ġknock ing
Ġknock ed
ALO NS
Ġagree able
li ction
Pro ject
Ġliber al
Ġflatter y
gr im
Ġfanci es
Ġbeha lf
Ġdeterm ination
Ġcup board
Ġincl uding
Ġslight ly
Ġformer ly
Ġlim it
Ġbot tle
Ġda ily
Ġvict im
Ġaim s
ĠAr kady
Ġinsult ing
ĠPom fret
TY RR
Ġtreat ed
Ġphr ases
Ġscre am
Ġscre amed
Ġwrit es
Ġpit ied
Ġreflect ing
Ġpra ises
ien na
Ġbird s
Ġfier ce
Ġstern ly
Ġinflu ences
Ġhes itation
Ġprote ctor
Ġball ad
Ġstro ke
tern al
Ġobed ient
Ġhy ster
Ġhy po
Ġobserv ation
Ġlust y
Ġinquir ingly
Ġmention ed
Ġunse emly
Ġaston ishment
Ġgift s
Ġobst acles
DOR SET
Ġfil thy
Ġstab b
Ġscr utin
Ġpretend ing
ĠMars hal
keep er
ĠAf anasy
Ġdisting uish
Ġinsol ence
Ġtyran ny
Ġprecise ly
Gentle men
Rod ya
Ġgest ure
Ġdece it
Ġchamp agne
Ġquarre lled
Ġperplex ity
Ġaband oned
Ġarticul ated
Ret urn
Unt il
Ġpil grim
Ġgidd y
Ġcoff in
Ġassoci ated
wig ovna
ĠLud wigovna
Ġchallen ge
Ġadvent ure
Ġbeaut iful
Ġphilosop hy
Ġsanct uary
Hel p
Ġdar ling
Ġdiff iculty
Ġgriev ous
Ġaccompan ied
AEd ile
tt ps
Ġdow ry
Ġsuf fered
Ġrefle ction
unts man
Ġinval id
Ġsuperintend ent
ĠPav lov
DIN AND
FER DINAND
atcl iff
ĠPestry akov
ĠZaha rovitch
Ġcorrid or
Ġparli ament
ALONS O
TYRR EL
' âĢĶ
5 7
6 0
6 4
A llow
C oriol
D is
D own
E very
E ach
F ive
F air
M en
M akes
O T
O ff
P H
P et
P ulcheria
R un
U R
V ols
W r
Y e
a ut
a bles
b ook
b ack
c ould
c ock
c ont
d one
d ers
d el
e lf
e ous
e ven
f ly
f ace
f ellow
g room
i vid
k ward
m on
n es
n icious
o is
o qu
p re
p it
p ut
p rop
r ation
s chool
w ord
Ġt ard
Ġt ip
Ġt resp
in ces
Ġs ar
Ġs ire
Ġs ooth
Ġw ip
Ġb red
er by
is hes
Ġf row
Ġf olks
Ġc ro
Ġc ert
Ġc itizen
Ġd ed
Ġd ressing
Ġd uties
Ġto re
Ġto il
Ġh ie
Ġh orn
Ġh oney
Ġl ur
Ġy on
Ġy ond
Ġy ards
Ġy oke
es ar
es sel
Ġp i
Ġp ow
Ġp red
Ġp ush
hat h
as kov
as hes
om ach
Ġin k
Ġin fection
Ġno bility
Ġha g
Ġha w
Ġbe ck
Ġbe fall
st e
st em
im ony
ay ed
id s
id ers
Ġst ag
Ġst ains
Ġst iff
ri ch
Ġre nd
Ġre ap
Ġre new
ad v
al ed
ill ain
Ġn est
our th
Ġher ald
ur ity
Ġso ber
ot he
ck now
Ġan im
Ġall iance
ra cious
Ġde ck
Ġsu e
Ġsu bt
Ġsu its
Ġsu itor
Ġdo ve
ĠS c
ĠS p
ĠS ay
ĠS oldier
ol ved
ru e
ru de
ĠP e
th ree
Ġsh y
Ġsh ield
il an
Ġwhat soever
ul s
ul ch
ble m
Ġne at
Ġv essel
Ġman if
Ġam ount
Ġwhe el
Ġun hinged
um ents
ĠM it
ĠM ost
ĠM ilan
Th rough
ĠThe ir
pp et
Ġal ack
Ġal ms
ĠC h
ĠC ur
ie ge
Ġr ad
Ġr ate
Ġqu ant
Ġab used
ist ak
ist rib
ep ing
Ġj ot
Ġle ct
ig nt
ĠD erby
Ġbl ushing
ound ed
Ġwor m
Ġlo vers
Ġus ing
ure ly
ĠE h
Ġpro dig
Ġar ran
Ġar ise
Ġar gu
Ġsp y
Ġsp ark
Ġmust er
Ġro ared
Ġfl ame
Ġfl ush
Ġch ill
Ġsir s
ĠV en
ĠV ienna
Ġpe ev
erv ing
imp ly
Ġbr ut
Ġbr ood
Ġcl os
Ġper nicious
ull us
Ġen force
Ġbet imes
Ġcha in
ign ed
Ġmar ks
Ġwhere on
Ġsc ent
Ġru led
LI S
ĠF roth
Ġjust ly
Ġsl aves
Ġcont em
No ble
oy al
Ġra ce
Ġra ck
Ġra ven
Ġcons ol
Ġcons idering
Ġsw oon
Ġgl oves
atter n
Ġco in
ought s
Ġcomm it
Ġcomm ons
Ġcall ing
ĠMar ian
ip pe
Ġent ry
Ġthr ashed
Ġrep ose
the st
Ġcle ared
Ġsweet er
Ġapp ointed
Ġint ention
Ġatt ain
Ġatt racted
Ġhelp ing
Ġhelp ed
Ġcare less
Ġhus h
Ġsub d
Ġsub s
Ġcount ed
Ġhope lessly
Ġaw a
Ġaw kward
Ġbed room
Ġcr imes
Ġvis ited
Ġsupp ly
Ġearth ly
Ġpresent s
ĠĠĠĠĠĠĠĠĠĠĠĠĠĠĠĠ ĠĠĠ
Ġdisc overed
Ġperson ally
Ġwrong ed
Ġlay ing
Ġpleas ing
Ġadv anced
ĠPro spect
Ġfur thest
Ġexc ess
Ġhar l
Ġri ver
Ġact s
Ġact or
Ġinc o
Ġinc red
Ġforth with
Ġreg al
Ġweep s
Ġwond rous
Ġkiss es
Ġdec is
Ġinf am
Ġinf ant
Ġrel ief
iv ity
Ġbra ce
Ġmet al
Ġprop he
Ġprop ortion
Ġbea uteous
Ġstud ies
Ġstud ying
Ġpay ment
Ġlear ning
Ġinv est
Ġsto pp
Ġquar ters
Ġwel com
An on
ĠSt ates
Lord s
Ġpar ce
Ġmo an
Ġemb raced
Ġimag ined
Ġsovere ignt
Ġprof ound
Ġprof ane
Ġconsider able
Ġdraw ers
Did st
Ġpain ter
Ġforget ting
Ġyield ed
Ġinqu ire
Ġpull ing
Ġentreat ies
Ġcreat ed
Ġpen ny
Ġprov ince
Ġdread ed
Ġinstru ction
Ġinstru ments
Ġund o
Ġstir ring
Ġsatis fy
Ġdest iny
Ġdev oted
Ġloud er
bit ious
Ġhop ed
Ġgall ant
ĠNot hing
Ġgener ation
Ġburn s
Ġseiz ing
Ġbegg ary
Ġsy stem
Ġpract ice
Ġones elf
iter ally
Ġinno cence
Ġbehold ing
Ġdrown ing
Ġexam ple
ĠEx eter
Ġtort ured
Ġimmedi ate
Ġexcell ency
Ġchief ly
Ġpaint ing
Ġincl ined
str ained
Ġrevol ting
Ġow l
Ġlim bs
Ġbeast s
Ġcoward ly
Ġpurs uit
Ġthreat s
Ġthreat ening
Ġneighb ours
Ġeld est
Ġrap ier
Ġinsult ed
Ġtemper ament
do ing
Ġur ge
Ġpat ron
Ġpat ricians
ĠAl as
Ġmid st
ĠJohn son
Ġrecogn ise
Ġtrif ling
Ġshad ows
Ġpla ced
Ġdesert ed
Am ong
Ġdi vided
Ġgreet ing
Ġchat ter
Ġstro kes
ĠEvery thing
Ġeng aged
Ġrecoll ect
Ġembarrass ment
yr rel
Ġcough ing
Ġhol p
Ġremark s
Ġinquir ies
Ġtemp or
stand ing
ĠRuss ia
Ġconcern ed
Ġunconscious ly
Ġsep ulch
ĠMay or
Ġunm istak
Ġspect ators
Ġgrat itude
Ġoppress ion
Ġmir acle
Ġrecei ving
Ġconj ure
Ġmerc iful
hum oured
Ġfrank ly
Ġshrew d
Ġaccus ation
Ġrepro ach
Ġappre hension
Ġmess age
Ġprodu ce
Ġcontemptuous ly
Rem ember
Ġtou ched
Ġparent s
Ġhind er
Ġnois eless
Ġconne ctions
Ġscold ing
Ġrepul sion
Ġstrugg le
Ġpurcha se
ĠSic ilia
Ġsav age
Ġgrad ually
Ġdom ain
Ġpant ing
Ġpear l
ĠDor set
Ġclam our
Ġeverl asting
Ġprivile ge
Ġhab its
Ġrejo ice
Ġalle g
ĠGu ild
col oured
occ up
Ġfasc in
ĠRos aline
ĠTw o
ĠTit us
Ġcalam ity
Ġsyll able
Ġrebell ion
ocr atic
alis bury
Ġliken ess
Ġrestaur ant
ĠPavlov na
Vols ce
Ġtresp ass
Ġfrow ard
askov ya
Ġarran ged
Ġpeev ish
Ġsovereignt y
5 5
5 6
6 2
6 3
6 5
6 6
6 7
6 8
6 9
7 0
7 1
7 2
7 3
7 4
7 5
8 0
A nother
B ra
C ry
C ond
C LE
D amn
F ran
F RO
G l
H m
H ail
H ang
L ady
M eth
M any
O ld
O MEN
R ather
S m
S it
S on
S ound
T e
T ra
T ush
U GH
V ice
W arwick
W hether
b on
b ell
b red
b od
b ers
b el
c ow
c our
c ary
c rosses
c Ã©
d es
d ita
e re
e el
f fe
g ot
g han
g reat
j ection
l est
l ock
l eness
m ake
n on
p or
p ers
p ress
s ar
s omet
s ire
s wer
s har
s peak
t ra
t ell
u ished
v ail
w ar
w ers
y et
y ev
Ġ }
Ġ ice
Ġ Quite
Ġt ur
Ġt aunt
Ġt arry
he ard
Ġa cknow
Ġs im
Ġs ch
Ġs na
Ġs cience
Ġw ipe
Ġw rung
Ġm ould
Ġm um
Ġb ay
Ġb ash
Ġo pe
Ġo ak
Ġo mit
Ġf ard
Ġf res
Ġf ount
Ġc ate
or bed
on iously
Ġto ad
Ġto morrow
Ġh ttps
Ġl a
Ġl at
Ġl iterary
no thing
Ġp oo
Ġp est
Ġp ressed
Ġp omp
Ġp ang
Ġp ipe
Ġp rud
Ġp attern
ar us
ar ried
ar ated
ar iat
Ġth umb
Ġin her
Ġha y
Ġha re
Ġha lt
Ġbe re
ve t
ve ch
Ġg ap
st ance
st ead
st rick
im ble
ce rem
ow ards
Ġnot orious
ch ild
Ġst are
Ġst ove
Ġst ray
Ġst omach
Ġme w
Ġme ek
Ġre v
Ġre ar
Ġre nt
Ġre vel
Ġwe ars
al se
al us
Ġas hes
Ġn on
Ġn ail
Ġn amed
Ġn umer
Ġk er
Ġk ick
ur rey
am ents
Ġse ldom
ĠH as
ĠH ence
Ġan ci
Ġde gr
Ġsu l
Ġsu gar
Ġdo gs
Ġdo cum
ĠS e
ĠS weet
ĠS alisbury
pe ar
and a
Ġshe ets
ĠP h
ĠP ut
ĠP ot
ĠP oor
ĠP ole
Ġare n
Ġsh one
Ġsh un
Ġsh iver
us p
ĠW ILLO
ĠW elcome
il ar
il ess
il ities
Ġup right
Ġcon ceive
qu estion
Ġsha mel
Ġsha pes
ak ale
ĠĠĠĠ ĠĠĠĠĠ
Ġam bitious
art ius
Ġor n
Ġgo ver
Ġun fe
Ġun cles
Ġun bear
Ġun acc
Ġun cerem
Ġsa cr
ĠL ove
ĠL ippe
ĠL artius
Ġcom pe
au ghan
Ġnow here
Ġag es
ĠC om
ie ce
Ġshall ow
Ġr at
Ġr ide
Ġr ings
Ġex clamations
Ġqu ality
ĠG ert
ĠO nce
Ġle ague
ig hed
Ġlike wise
ĠD ushkin
to e
Ġwor ms
Ġlo cks
Ġus ually
Ġpr ime
Ġpro vid
dd ing
ĠB ER
ĠB akale
ne ver
Ġpl ate
Ġpl enty
ES T
Ġany where
ia c
Ġfl our
Ġfl ax
Ġbeg u
Ġbeg et
Ġch ur
Ġch ose
Ġpo p
ĠV ass
Ġtw itch
Ġdis mal
ag o
ag ant
ag ine
ag ues
Ġey el
Ġfe at
Ġcl um
Ġper man
Ġper fection
Ġen er
ĠIt aly
bl ance
bl eness
Ġover step
Ġdes cent
ft s
un te
Ġmar vell
rov ed
Ġsc an
Ġsc atter
Ġru pture
ĠF in
Ġown er
ĠT ar
ĠT yrrel
Ġjust ify
Ġsl and
Ġdeath s
Ġcont ents
Ġcons p
Ġsm oke
Ġcour teous
Ġsw ain
Ġblood shed
Ġchild hood
Ġtr ink
Ġco ffe
Ġwr inging
Ġback s
Ġpres ume
Ġimp ressed
Ġwoman ish
Ġwar ri
ĠJ u
ĠJ esus
Ġent ering
Ġent hus
Ġhapp ening
Ġkeep er
Ġthr ong
Ġend ured
Ġstre am
Ġrep ay
Ġrep resent
sh ine
sh ips
Ġnor mal
Ġworld ly
Ġwa ving
Ġwa ved
Ġhel ps
ix ed
Ġpers isted
Be hind
Ġcle ft
Ġbus h
Ġapp l
Ġrec omp
Ġchan ging
Ġbre eding
Ġlight s
ian cÃ©
Ġlie utenant
Ġsimp lic
Ġsub stit
tend ants
Ġplay ed
Ġsent iment
ĠLu ise
Ġmon arch
Ġtra p
Ġtra ck
Ġtra ged
Ġtra vell
Ġran ge
Ġcr it
ati ence
Ġvis iting
Ġlov est
Ġexp ed
Ġexp enses
Ġpol ite
Ġbu ilt
Ġbu rial
Ġdisc ont
Ġste ed
Ġste ad
Ġste eds
Ġchar itable
Ġdrink s
Un cle
Ġsleep s
Ġri pe
Ġact ual
Ġinc on
Ġref er
ĠAt tendants
ĠIs n
ouch safe
Ġstri ve
Ġdec or
Ġreturn s
RI AN
Ġdan ced
Ġbreath less
iv al
Ġabs orbed
Mar ch
Mar meladov
Ġrespect s
Ġsorrow s
Ġcra ves
Ġcountry men
Ġprop ag
Ġroyal ty
Ġfright en
Ġinterest s
Ġcross es
Ġhither to
Ġcommon we
Ġinv ite
ush y
Ġcourt ier
Ġbo ast
Ġrepe al
Ġbeat s
bb ish
vo c
Ġdam nable
Ġpu ff
Ġred ress
Ġbreak s
Ġfast ened
En ough
gu ard
Ġprep ar
Ġtem ple
Ġsad ly
Ġirrit ation
Ġthrow ing
Ġtrust y
Ġcharacter ist
Ġwarm th
Ġfly ing
Ġinqu iry
Ġnotice able
Ġfaint ing
ĠWith out
Ġsmall est
Ġmock ery
Ġcreat ures
Ġstupid ity
Ġbene vol
Ġfif th
Ġfavour able
Ġglass es
Ġfrown s
Ġinstru ctions
Ġharm ony
Ġfat ig
Ġsever ity
Ġenter pr
Ġmed dle
Ġself same
Ġextrem ity
Ġhop ing
ĠU nder
Ġheir s
Ġpossess ed
Ġid iot
arm ing
Ġthro bbing
Ġcop ies
Ġexec uted
Ġexa ct
Ġcheer ful
Ġacquaint ed
Ġmount ed
Ġcuri ously
Ġbeha vior
Ġstop s
Ġble m
Com mend
Ġfors wear
Ġrevol t
ĠDid o
Ġow es
Ġinj ury
Ġver se
Ġfle et
Ġevil s
Ġjump ing
Ġbride groom
Ġcriminal s
Ġproceed ings
Ġobv ious
Ġcre pt
Ġord ers
Ġrude ly
Ġghost s
Ġreb els
Ġga ily
Ġdemand s
Ġimm ortal
Ġstoop ing
Ġbecom ing
Ġpron ounce
Ġfru its
Ġer ror
Ġsaint s
Ġbab es
Ġconsum ptive
Ġrecoll ected
Ġiron ical
Ġoccup ation
Ġmill ion
Ġhol id
Ġpict ures
Ġshudd er
Ġobt ained
Ġtrad emark
Ġinterp osed
Ġunexpected ly
Ġaston ished
Ġcommiss ariat
Ġprofess ion
Ġfra g
** *
Ġstab bed
ĠPer dita
Ġfaire r
Ġoverwhel ming
Ġprinci ple
Ġmat hem
Ġpier ce
Ġpier cing
ĠSomet hing
clam ation
Ġsmart ness
Ġmeth od
Ġconstant ly
ĠMe anwhile
Ġlog ical
Ġappre hend
Ġtyran n
Ġmudd led
Ġarrange ments
Ġpeep ed
Ġmas k
Ġhaunt ed
lev ant
Ġstret ch
Ġris k
Ġemp hat
Ġirre levant
ban ished
Ġband s
ĠLic ense
ĠEn ough
Ġclut ch
Ġdischar ged
ĠAny way
Ġz eal
Ġcaut iously
Ġsignific ance
Ġpenit ent
Ġoblig ed
Ġfrequ ently
Ġrenow ned
Ġspoon ful
ilf ul
Ġfu lf
ĠCons pirator
Ġsolic it
Ġlu x
Ġsty le
ĠSund ay
ĠAmeric a
Ġadvers aries
Ġcoron ation
Ġinquisit ively
AD RIAN
Ġfem ale
Ġeag le
ĠProv idence
Ġaccustom ed
Ġreconc iled
Ġmerchan t
Ġinsin u
Ġinfer ior
Ġcounsell or
Coriol anus
Ġtard y
Ġtip toe
othe cary
Ġsubt le
ĠCur tis
Ġquant ity
ĠMarian a
Ġharl ot
Ġinco herent
Ġsepulch re
Ġunmistak able
Ġalleg iance
CLE OMEN
FRO TH
UGH BY
vech sel
strick en
Ġnumer ous
Ġanci ently
ĠWILLO UGHBY
Ġshamel ess
Ġunbear able
Ġsacr ament
ĠLippe vechsel
ĠGert rude
ĠBakale yev
Ġcoffe e
Ġenthus i
Ġsimplic ity
CLEOMEN ES
! ..."
) âĢĶ
8 1
? ..."
A vdotya
B re
B AR
B ah
C ourage
F all
F ind
F OR
F ool
F ollow
F etch
I I
L ive
M ist
M aking
M ercy
O pen
P atience
R UT
S ix
S end
S top
T I
T en
T alk
T ranio
T owards
V ouchsafe
W ait
Z ossimov
_ )
b ble
b ation
b idden
c omp
d re
d uke
f oo
g nant
h orse
i ved
l ter
l ves
m et
m ph
m ade
n or
n et
n ic
n ance
o x
o king
p y
p al
p ast
p ardon
p gl
r am
r ain
r oof
r iment
s l
s hap
u able
v ish
w ater
Ġ 3
Ġ vel
Ġ 10
Ġt ig
Ġt ack
Ġt ree
Ġt ang
Ġa le
Ġa ut
Ġa nointed
Ġs and
Ġs ous
Ġs ne
Ġs amov
ou ched
ou bled
Ġw akes
Ġm ant
Ġm ort
Ġb ull
Ġb ows
Ġb iting
Ġb ounty
er ment
it iff
is ons
Ġf en
Ġf est
Ġf its
Ġf itted
Ġf iancÃ©
Ġc u
Ġc ult
en ches
or us
or ial
on oured
Ġd ot
Ġd ine
Ġd ried
Ġd ower
Ġd irt
Ġd iver
Ġd ined
Ġto wer
Ġh ire
Ġl ame
Ġl amp
Ġl iterally
no ble
es u
Ġp he
Ġp or
Ġp ate
Ġp ig
Ġp ushing
ar ison
Ġth ieves
Ġin ch
at ri
at tered
at ively
Ġno ses
Ġha ll
Ġg e
Ġg oose
st s
ut s
ut ions
se y
Ġe cc
Ġe gg
oo ps
ent er
ro ar
ro ve
Ġre n
Ġre in
Ġre ass
Ġwe b
ke ley
ad em
al f
Ġas h
Ġn in
Ġn aÃ¯
Ġn unn
Ġn upt
our n
ter ate
Ġli qu
Ġli very
Ġwh ist
Ġwh irl
Ġwh ips
Ġse m
Ġse ar
ĠR em
ĠR ep
ĠH y
ĠH ark
Ġan n
Ġan t
Ġan ch
Ġall usion
ra ught
Ġde m
Ġde er
Ġde vour
Ġbut ter
ĠS urrey
if ying
ru ly
ĠP art
ĠP ETER
Ġwill s
th ings
Ġsh ru
Ġsh ower
Ġsh ines
us ively
ĠW ilt
ĠW hether
ic ide
Ġup roar
ell y
Ġcon ven
Ġcon ject
Ġcon tend
Ġcon cent
Ġsha bby
EN D
ul ation
em ing
em ents
em pered
one l
Ġfa ils
IN E
Ġv io
Ġam orous
._ }
Ġor ator
Ġgo dd
Ġun in
Ġun look
AR L
um es
um ny
ĠM os
Ġsa ck
Th ine
Th ings
ĠL au
ĠL az
ĠL ike
Ġcom r
Ġal oof
Ġag itation
ĠC all
ĠC ont
ĠC ounty
Ġr ow
Ġr oof
Ġr ites
Ġex ternal
ers ed
Ġab und
Ġour self
ĠG entle
ĠO fficer
Ġj aunt
ig m
ĠD ane
ĠD amn
Ġbl ot
Ġbl amed
ation al
ound ing
Ġlo fty
Ġpr inted
Ġpr anks
ure r
ĠE m
ci le
Ġpro sec
Ġsp ider
Ġsp rings
Ġsp rung
ĠB ur
ĠB ec
ĠB etter
Ġlet ting
Ġro aring
Ġro ses
Ġro bbed
ĠN e
Ġhand ed
Ġoff ences
Ġfl ing
Ġfl ag
Ġfl ourish
Ġhat ch
Ġpo et
ĠV ah
Ġdis o
Ġdis hes
Ġdis li
Ġdis reg
ag ing
Ġfe es
Ġcl ap
Ġcl osing
Ġcl imate
ber t
ber y
Ġper formed
ap ed
Ġdown right
ĠK now
ire ct
Ġgra ces
Ġgra ced
Ġmar s
Ġmar ble
Ġmar vel
Ġsc ru
Ġsc ared
Ġsc rew
Ġru les
Ġru bbish
Ġgreat ness
ĠF I
ĠF ear
ĠF ollow
Ġpre occup
Ġpre gnant
Ġlast ing
ĠT ur
Ġold er
Ġask s
Ġcont ri
Ġcont rib
Ġlong ing
Ġra g
ff aw
Ġcons ented
Ġsm elt
Ġsm oking
Ġho arse
Ġright eous
be ing
ĠIv an
Ġtr im
Ġtr ash
Ġtr oop
Ġtr oops
Ġco ach
Ġad ul
Ġpass ers
Ġfo ils
che th
Ġans wers
ret ion
Ġacc ent
Ġgr in
Ġset tle
aw ful
Ġfear ing
ĠMar ch
Ġcomp et
Ġcomp are
ĠJ er
ĠJ ud
Ġbelie ving
Ġhapp ier
for ward
Ġrest s
ertain ly
fa ct
ition al
Ġnor ther
Ġwa its
Ġwa iling
rem pt
Where to
Ġsec urity
Ġfeel s
Be hold
Ġinst inct
the m
the ir
Ġdist rust
Ġgu ffaw
Ġel oqu
Ġrec re
Ġrec om
Ġfar thing
Ġmur m
Ġmur ders
Ġass ume
Ġter r
Ġim pe
Ġstay s
Ġlie f
ont es
AM US
Ġta bles
Ġsub miss
Ġsub stant
Ġsub stance
Ġsent enced
Ġmer riment
Ġdr oop
Ġret reat
Ġtra g
Ġtra vel
Ġcr ook
ĠWe re
Ġanswer ing
Ġsupp li
ial s
Ġdream ily
Ġins uff
Ġins ane
Ġmis er
Ġless er
ĠĠĠĠĠĠĠĠĠĠĠĠĠĠĠĠ ĠĠ
Ġbu nd
Ġbu zz
Ġste alth
Ġdoubt s
Ġfound ation
Ġchar ges
irt ue
Ġdra g
Ġdra gged
Ġshout s
Ġsit uation
ĠAn ne
Ġadv oc
Ġhur rying
Ġvi ctor
Ġca itiff
ĠTh rough
Ġact ing
Ġinc ensed
rant s
Ġsun set
Ġsun shine
Ġreg iment
Ġpurp le
cei ving
Ġref und
Ġdep th
Ġdep ose
ĠIs land
Ġser pent
Ġsign al
Ġsign ified
Ġgre ed
Ġgre asy
Ġstri ct
Ġstri ctly
rib unes
Ġcomfort ed
idd ing
Ġrel ations
Ġhang s
Ġeye b
Ġind ic
Ġind ignant
Ġdire ctions
Mar cius
Ġinte gr
Ġdisp ersed
form ation
Ġground s
Ġdet est
Ġprop hes
Ġroyal ties
ring ing
Ġcorn ers
Ġtrem or
Ġinv ol
Ġsight s
Ġbo arding
Ġcru st
tw o
Ġreal ity
Ġreal ising
Ġrequ ired
Ġreven ue
Ġcommand s
Ġfoot ing
Ġfoot step
ĠSt ill
Ġsin ister
Ġpar as
Ġaff ront
Ġaff lict
Ġaff liction
Ġred oubled
Ġlead en
Ġlad s
Ġvisit ation
ev sky
Ġstreng then
Ġemb ra
Ġimag es
Ġcir cl
Ġdraw s
ĠYes terday
Ġobject s
Ġreport ed
Ġcol onel
Tw enty
Ġinqu ired
Ġfaint ed
Ġentreat y
Ġwis hes
Ġfavour s
Ġdifferent ly
Ġconcl ude
ID AMUS
Ġmal icious
Ġmed ium
Ġdest it
Ġreck less
Ġappro ached
Ġconce ited
li hood
ific ate
ĠBe fore
Ġfond ly
con om
Ġauth ors
Ġfin ish
Ġspeed y
Ġcurs ing
Ġdiv or
Ġcompl aint
Ġartic les
Ġbright ly
Ġexec ute
Ġhung er
Ġreckon ed
Ġdrown ed
Ġble ed
Ġcatch ing
Ġpur ity
cher s
Ġincl ination
Ġele ment
Ġsol itary
Ġtor ch
Ġfashion able
Ġpal m
Ġring ing
Ġproof s
ĠRO OM
Ġcoward ice
Ġsuper ior
eem ing
Ġrap idly
Ġaffect ing
Ġtreat ment
Ġstor ms
ĠPr askovya
arer s
Ġchurch yard
Ġenjoy ment
crib ed
Ġbew are
Ġeduc ated
Con fess
reg ular
Ġcost s
Ġghost ly
Ġshop s
Ġcrack ing
Ġrough ly
Ġchast ity
Ġimm ense
Ġsteal ing
Le beziatnikov
rid ge
Ġstoop ed
ĠSee ing
Ġconceal ed
Ġfant asy
Ġdi adem
Ġgrand sire
Ġgreet ings
po int
Ġfurn ish
Ġnice ly
Ġroot ed
Ġarg uments
Ġcoll ected
Ġexper ienced
Ġpersu aded
Ġbuild ing
Ġer rand
Ġstat ue
Ġsearch ing
Ġexist ence
Ġexecution er
Ġpsycholog ical
Ġstock ings
Ġproper ly
Ġarrest ed
Ġsquee zing
ĠCa esar
Ġbelong ed
Ġdistrib uting
Ġmourn ful
Ġleng then
jo in
Ġsal ary
Ġcab in
Ġweight y
Ġobl iv
Ġfra il
Ġcent re
Ġder an
Ġsacri fic
Ġminister s
Ġcerem onious
Ġpunish ment
Ġbore d
Ġbond age
Ġweap ons
Ġvol unte
Ġspect acle
Ġscr atch
Ġcover t
Ġintrodu ced
Ġsumm on
av ish
Ġhig hest
Ġstum bled
Ġsugg ested
Ġamb ig
Ġafford s
Ġjoint s
ĠPlay er
sc alus
Ġmeth ought
Ġlawy ers
Ġinsol ent
Ġetern ity
bre ak
Ġinfect ed
ĠSh ore
Ġrum ours
Ġquarre lling
Ġunpleasant ness
Ġcher ish
Ġstret ched
Ġrestore d
Ġdeliber ately
Ġcurt ain
ĠLic io
Ġclut ched
Ġdischar ge
Ġhom age
ĠCal ib
ĠBer keley
NARD INE
Ġcot ton
Ġnodd ed
ĠeBook s
rus hin
ĠPri am
ĠEl bow
Ġrus hing
Ġwrink led
Ġpossib ility
Ġexception al
Ġtransl ation
Ġtu gged
Ġtap ster
Ġwol f
Ġped lar
Ġpond ered
Ġnap kin
ARCH IDAMUS
Ġclasp ed
Ġprejud ices
Ġdisple asure
Ġestabl ish
cra ft
Ġruth less
Ġimpud ent
Ġaccom pl
Ġcomplex ion
Ġreluct antly
Ġadmir ation
Ġchrist ian
Ġbran ches
Stri ke
Ġsuffic ient
Ġprett iest
Ġcontrad ict
Ġhyster ical
Pet ruchio
ivid ual
Ġcert ificate
Ġpow der
ĠMit ka
ĠVen ice
Ġnoiseless ly
Meth ought
Ġsim ilar
Ġsch ol
Ġcate g
Ġker chief
Ġdocum ent
Ġflax en
ĠVass ily
Ġtwitch ing
Ġmarvell ous
Ġtrink ets
Ġwarri ors
Ġdiscont ented
Ġcommonwe alth
Ġprepar ations
Ġenterpr ise
Ġenthusi asm
BAR NARDINE
RUT LAND
pgl af
ĠnaÃ¯ ve
Ġnunn ery
ĠWilt shire
ĠMos cow
ĠLau rence
ĠLaz arus
ĠVah rushin
Ġfootstep s
! âĢĶ
7 6
7 7
7 8
7 9
9 0
: _
A w
A ct
A pp
A TER
A malia
B ound
B AN
C a
C RO
C IS
C hr
C ontent
E l
E ver
E ng
E CT
F oo
F ore
F ull
F alse
G a
G entleman
G arden
G ives
G OT
H ic
H enry
H ush
H ortensio
I lya
J esus
L izaveta
L ead
M ur
M OR
M uch
N ame
O fficer
P ers
P rep
R el
S aw
S IR
T ON
T akes
V E
V illain
W it
W oe
W omen
W EST
W ATER
Y ield
Z ametov
] --
a pe
a ction
b our
b acc
c is
c all
c op
c hard
c und
c ourse
d is
d aughter
e lect
f riend
f ashion
f ume
g ent
g one
g entle
g rown
g utenberg
g iving
h t
h ole
i qu
i pp
i pped
k n
k est
k ers
l in
l or
l ain
l ine
m o
m as
m ary
n ame
o ken
p ar
p et
p ot
p ret
p ray
r at
r im
r ated
r hus
s pe
s erv
s ince
t ake
t ong
u ro
v ice
w d
w s
w it
w or
w ls
w orthy
y mph
z el
Ġ ig
Ġ Qu
Ġt ie
Ġt ren
Ġt ips
Ġt akest
Ġa fe
Ġa ched
Ġa ches
Ġa version
in q
in ers
in ately
in arily
Ġs ow
Ġs ess
Ġs ni
Ġs oot
Ġs iege
ou lev
Ġw inking
re ction
ha h
ha bit
nd y
Ġm ute
Ġm iles
Ġb out
Ġb rick
Ġb idding
Ġo st
er ous
er ily
is ite
is ement
Ġf und
Ġc em
Ġc ano
Ġc rest
Ġc uck
Ġc rew
Ġc ities
Ġc ards
en st
en vol
or ovna
on z
on us
on cile
Ġd and
Ġd il
Ġd ally
Ġd aint
Ġd arted
Ġd uc
ing er
ed uc
ed nes
Ġhe n
Ġhe el
Ġl our
Ġl ance
Ġl un
Ġl ions
Ġl ung
Ġy awn
no cks
es ter
es crib
es cend
ĠI m
Ġp om
Ġp ent
Ġp han
Ġp ark
Ġp ip
Ġp ages
Ġp ounds
Ġp ounced
an ish
om es
Ġin ve
at is
Ġno bler
Ġno bleness
Ġha m
Ġha il
Ġbe et
Ġbe ads
Ġbe ams
Ġg ay
Ġg am
Ġg ains
Ġg aunt
Ġg athe
st ru
st ained
se th
ay ing
et ery
Ġe vent
id el
ir ous
ch ond
ent ry
ent ric
Ġst ench
Ġst inking
Ġst aff
Ġme al
ro ach
ri el
ri fied
Ġre nder
Ġwe ed
ad d
ad ies
al ter
al most
ill ed
Ġas sem
Ġn ast
our t
our ge
Ġher d
Ġat e
Ġk nocks
ur gh
ur ally
Ġso il
Ġso aked
Ġli c
Ġli ar
Ġli ck
Ġli vest
Ġse x
Ġse ed
Ġse vent
ck ster
ĠR E
ĠR ed
ĠR ev
ĠR aven
ĠR atcliff
ĠH old
ĠH aven
ĠH untsman
ct r
ct ed
Ġan c
ra v
Ġde jection
Ġsu cc
Ġdo ctr
Ġbut t
ĠS T
ĠS it
ĠS ix
ĠS how
ĠS TE
ĠS chill
ĠS CRO
pe ople
ol ve
ol erable
if ies
if orm
ov entry
ĠP yr
th ri
th row
th ose
Ġsh red
Ġsh ine
Ġsh ining
Ġsh ips
us ale
ĠW est
ĠW all
ĠW el
ic iously
ic ule
il ver
ell e
ell ed
ell ows
ĠA ct
ĠA llow
Ġcon ception
Ġsha ft
Ġsha ken
ul ated
Ġne gl
Ġne arest
res pect
Ġv ind
Ġam ain
te rest
te xt
Ġwhe els
art s
ast ed
Ġun gr
Ġun iform
AR LIS
um ing
ĠM ust
ĠM ah
ĠM istress
Ġsa ith
ĠL ast
ĠL ong
ĠL ittle
pp ily
ong ru
Ġag g
Ġag ed
ĠC y
ĠC AST
ĠC rist
ĠC Ã¦
ĠC oventry
ĠC ARLIS
Ġr hy
Ġex cl
ist ocratic
ĠG reen
Wh iles
ĠO R
ĠO ut
ĠO ver
ep ht
Ġj u
Ġj ar
Ġj ade
Ġle wd
ig ent
ig onus
Ġlike lihood
ĠD ian
Ġbl iss
Ġbl ister
Ġbl ade
Ġwor ser
Ġlo c
Ġsee ks
Ġpr ate
Ġhere in
Ġspe c
ĠE ly
ĠE LY
ĠE gy
ĠE scalus
ĠE uro
Ġpro ves
Ġpro clamation
Ġar ound
Ġar ray
Ġar bit
Ġar istocratic
Ġhow ling
-- --
Ġsp ine
Ġsp urs
Ġsp iders
Ġmust y
Ġmust ard
ĠB r
ĠB ushy
OR GE
Ġpl ants
ĠN ept
Ġhand le
For give
Ġcould st
Ġoff ensive
Ġfl ock
Ġfl ashing
we igh
Ġch orus
Ġpo ignant
ĠV aughan
op en
Ġdis claim
Ġday break
ag ot
ick le
de ath
Ġpe rempt
Ġspeak er
Ġbr at
Ġbr anch
Ġper t
Ġper miss
Ġper sec
Ġper mitted
Ġen lar
Ġen igm
ild ren
Ġbet ide
ran ch
ran cis
bl ood
ire ctly
Ġcha ins
Ġrem iss
Ġrem ote
Ġrem inded
Ġover strained
Ġdes cribe
Ġdes irous
LI BAN
ĠF ive
ĠF rancis
ĠY OU
Ġpart ies
Ġpart ial
Ġmean er
ĠT che
ĠT ime
Ġear lier
Ġra ve
Ġcons ult
Ġsm other
pl osive
Ġcour ty
Ġsw ears
Ġsw oll
In tend
be ck
ount able
ren ces
ons ible
Ġmight st
per haps
per ienced
atter y
Ġco z
Ġco ats
Ġwr ing
Ġpres erved
Ġimp ot
Ġimp ose
Ġimp ulse
With draw
Ġnight ing
EL AND
Ġfo ll
Ġfo il
Ġres ort
Ġtalk s
CA LIBAN
Ġwar ning
Ġgr asp
Ġgr ateful
Ġgr inding
ĠWh ose
ĠWh ile
aw s
Ġcomp ly
ĠJ epht
Ġbelie f
Ġhapp ens
Ġrest ing
Ġstran gers
aster y
Ġconf ined
Ġconf used
fa vour
Ġmoment ary
Ġwa iled
Where of
Ġinst it
the se
Ġap ace
Ġap rop
Ġdist orted
Ġdist emper
Ġbus hes
Ġsweet ly
Ġapp ly
Ġapp lic
Ġapp roved
Ġrec oncile
Ġneed le
Ġwalk s
Ġchan ces
Ġass ault
Ġlight ly
Ġint ents
Ġatt ire
Ġatt ach
Ġatt itude
Ġsimp let
Ġma le
Ġche que
Ġche cked
Ġhu ckster
Ġland ing
Ġland ed
Ġmist akes
Ġkill ing
Ġplay s
Ġplay ful
Ġhope ful
Ġmon oman
Ġmon astery
RAN CIS
Ġcr ut
Ġcr am
Ġcr amp
Ġhum ility
Ġhusband s
Ġpresent ed
Ġpresent iment
oe bus
Ġmis under
BA GOT
Ġdisc overy
Ġdisc ontent
Ġdisc retion
Ġperson age
Ġste ward
Ġrun s
Ġban ks
Ġlist s
Ġinter change
Ġir regular
Ġpleas ures
Ġstr ained
ĠAlexand er
ever al
Ġworth less
Ġadv ised
Ġsleep y
Ġhur l
Ġhar bour
sp urgh
Ġri ches
Ġri bb
Ġca pe
ĠTh ree
Ġinc or
Ġreg ion
Ġpurp oses
Ġref ined
Ġref used
ĠLe ontes
Ġform al
Ġsign ed
Ġquick er
ouch ing
Ġstri fe
Ġstri king
Ġdec ay
Ġcomfort s
Ġconfess or
Ġprom ot
mp et
Ġdesp icable
Ġmut inous
Ġbra gg
Ġflat s
GE ORGE
Ġind ividual
Ġind escrib
Ġtre asons
Ġwater y
Ġmov es
Ġsens ibly
Ġprop os
Ġprop osed
Ġi k
Ġsing ular
Ġstud ents
Ġinv ention
Ġinv itation
Ġdeep est
Ġjud ging
Ġjo cund
Ġclose t
Ġweak ly
Ġvill ains
Ġfore st
tw ould
tw enty
Ġwhis kers
Ġhundred s
An y
Ġreven ges
ĠHer cul
bb orn
Ġsurpr ising
Ġfoot man
Ġsoft ened
Ġsk irt
ans wer
Ġglad ly
Ġmaj est
Ġcal umny
gu ndy
Ġwin ters
Ġval uable
Ġprep aring
Ġtem ples
Ġdevil ish
Al though
Ġce le
Ġpain ters
Ġforget fulness
Ġirrit ability
Ġbow els
Ġfun ny
Ġspite ful
Ġfancy ing
set tled
Ġcharacter s
Ġdef y
Ġdef iant
Ġimport s
Ġyield s
Ġyield ing
resh old
Ġsur m
Ġbitter ness
Ġest imation
Ġbold ness
Ġpost s
Ġwis er
Ġwis est
Ġbat tered
Ġdri ft
Ġdri ving
Ġfavour ite
Ġdread fully
Ġsuit ors
Ġrevenge ful
Ġattend ed
Ġadm on
Ġadm ire
Ġadm ired
Ġeffect s
ĠJul ius
Ġmed it
Ġmed itation
Ġappro bation
Ġextrem es
Ġwood cock
read ing
Ġbell s
Ġpluck s
Ġgall ows
Bec omes
Ġrid icule
Ġcloud y
Ġcloud ed
Had st
ific ation
ĠBe hind
Ġhuman e
Ġpubl isher
Ġcircumst ant
Ġmem ber
Ġmem bers
Ġpriv ately
Pro ve
Pro ceed
Pro claim
Ġdelight s
Ġdelight ful
Ġwoo ing
Ġdiv ision
Ġtavern s
Ġcand id
Ġgrie ves
Ġexam ine
Ġexam ples
Ġcheer ly
Ġcheer fully
Ġmusic ian
Ġmusic ians
Ġbeha ve
Ġstore ys
ĠCam b
Ġtrib ute
Ġsigh ing
Ġpur ge
Ġchief est
Ġdeliver ance
Com es
Com fort
iven ess
Ġimpati ently
ib ility
Ġwise ly
Ġow ed
Ġregard ed
Ġpurs ue
Ġpurs ued
Ġpurs uing
Ġthreat en
Ġtrans gress
Ġcre ate
Ġkit es
Ġdebt s
Ġcho ked
Ġscre aming
Ġscorn s
Ġsli pp
RA HAM
road s
Ġkn elt
Ġbrid al
Ġsuspect ed
Ġfail ure
Ġattempt ed
Ġlament able
Ġga it
Ġga pe
Ġbetray ed
Ġimm ov
Stand s
Ġsong s
rep ared
Ġdifficult ies
Pl antagenet
pir ation
Ġgrand am
Ġcontro lled
Ġextraord inarily
Ab ove
Ġmild ness
Ġkins men
Ġusurp ing
Ġcoll ect
ĠĠĠĠĠĠĠĠĠĠĠĠĠĠĠĠĠĠĠĠ ĠĠ
ĠĠĠĠĠĠĠĠĠĠĠĠĠĠĠĠĠĠĠĠ ĠĠĠ
TZ WATER
Ġfro st
Ġconvey ed
Ġrob es
Ġrob bery
Ġheav ier
Ġbas eness
Ġstat ement
Ġrecoll ection
go vern
Ġstock s
Ġangel s
Ġbelong s
Ġtrad es
Ġdistrib ution
Ġguilt less
Ġtorment ed
Ġswe ep
Ġdwell ing
Ġshr ink
ĠBl unt
Ġdiscuss ion
Ġcorre ction
Ġconcern s
Ġannoy ed
Ġder ived
ĠAnt igonus
Ġconqu est
Ġjew els
Ġintent ions
Ġbast ards
ĠAm ong
Ġvol ume
Ġflow ed
Ġintrodu ce
Ġprinci pal
EX TON
Ne ither
zz led
Ġmood y
Ġstum bling
Ġrecei pt
Ġsugg est
Ġsugg estion
Ġattack ing
Ġorig in
Ġfret ting
Ġgle am
Ġshock ing
Ġdisting uished
Ġtreacher y
Des p
Rod ion
Ġdece ased
ĠSh ould
ĠAd ieu
ĠĠĠĠĠĠĠĠĠĠĠĠĠĠĠĠĠĠĠĠĠĠĠĠ ĠĠ
Ġbewild erment
Ġproverb ial
ey ed
Ġtest imony
Ġmil k
Ġbal m
Ġbill i
Ġport ra
Ġshrie k
Ġaband on
Ġovert ook
Ġado pt
Ġemp has
Ġtail or
Ġirre voc
bar ov
Ġshri ft
Ġvouch safe
Ġspl it
Ġrust le
Ġpolit ical
Ap pear
ww w
Ġsevere ly
Ġsup rem
Ġprovo ked
NARD O
Ġstu pe
Ġstu bborn
Ġwhi pped
Ġamend s
Ġje ering
Ġloat hing
Ġloat hed
Ġpreced ing
Ġpreced ent
Ġpersist ent
Ġpersist ently
Ġhumili ating
Ġpossib ilities
Ġdevelop ment
Sha lt
bus iness
Ġimper ial
Ġcalcul ated
Ġbenefa ctor
Ġbenefa ctors
Lu centio
Ġmult itude
Ġdrows iness
Ġlaz y
Ġhaz ard
ĠBel ieve
ĠJew s
Ġcarri ages
Ġmagn ific
Ġlam bs
Ġdeject ed
ĠPal ais
Ġunkind ness
ĠMin ola
Ġblaz e
Ġdisin her
Ġrud eness
ĠFort une
Ġglit tering
Ġrans om
Ġvivid ly
Ġflatte rers
Ġhypo chond
Ġpilgrim age
PH EN
Ġhaw k
adv ised
ĠPe ople
Ġmanif est
Ġclos er
Ġconsol ation
Ġawa iting
Ġinvest ig
Ġparce l
ĠGuild enst
Ġbash ful
Ġfard el
Ġpoo rest
Ġprud ence
usp icious
Ġgover ness
Ġuncerem oniously
ĠBER NARDO
Ġpop ular
Ġclum sy
Ġperman ent
Ġrecomp ense
Ġsentiment al
Ġtraged y
Ġcrit ic
Ġexped ition
Ġpropag anda
Ġcharacterist ic
Ġfatig ue
Ġblem ish
Ġtyrann ous
Ġemphat ically
Ġfulf il
dre ams
Ġvel vet
Ġmant le
Ġecc entric
Ġnupt ial
Ġconject ure
Ġgodd ess
ĠBur gundy
ĠBec ause
Ġdisreg arded
Ġmars hal
Ġscrew ed
ĠFI TZWATER
ĠJer usale
Ġnorther n
Ġtrag ic
Ġbund le
Ġadvoc ate
Ġeyeb rows
Ġintegr ity
Ġprophes y
Ġinvol unt
ĠCalib an
ĠVassily evsky
El se
Ga oler
Garden er
MOR ELAND
Pers u
WEST MORELAND
bacc o
Ġafe ard
oulev ard
Ġcem etery
envol io
educ ated
ednes day
Ġlun atic
Ġlung s
Ġphan tom
Ġgathe red
ĠRaven spurgh
ĠSTE PHEN
ĠSCRO OP
ĠPyr rhus
Ġshred s
ĠWall ace
ĠWel sh
Ġvind ict
Ġungr ateful
ĠCAST LE
ĠCrist al
ĠCÃ¦ sar
ĠCARLIS LE
ĠEgy pt
ĠEuro pe
ĠNept une
ĠTche barov
Ġswoll en
ĠJepht hah
Ġaprop os
Ġribb ons
Ġindescrib able
ĠHercul es
Ġhypochond ria
ĠGuildenst ern
ĠJerusale m
! _
, ...
8 4
8 7
9 7
? âĢĶ
A T
A c
A f
A dd
A GE
A CT
B r
B less
B ene
C le
C am
C ont
C har
C atesby
C ertainly
D el
D ep
E r
E nd
F oul
G race
G ainst
H o
H ie
H igh
H arry
K o
K at
K nock
L ies
L ieutenant
M is
P urs
P eter
S wear
S ection
V irtue
V erily
W ert
Z ounds
a ving
a ces
a cious
a cing
a pping
b u
b es
b al
b ol
b oth
c at
c ry
c ils
c ub
c erity
d ict
d isp
e ve
e very
e ared
e ches
f ig
f ollow
g age
h ors
h onour
i em
i ction
j ac
k ens
l o
l p
l ow
l ord
l ive
m ir
m od
m osp
m istress
o in
p ter
p res
p art
p ost
p ort
p rov
p ired
p aper
r al
r ong
r ish
s u
s ent
t oo
t ri
t ree
t ied
t ail
t ling
t rees
u bl
u iv
v ious
v ied
v als
w ling
w itted
w omen
y e
y cor
Ġ ou
Ġ ire
Ġ 20
Ġ version
Ġt in
Ġt on
Ġt row
Ġt atter
Ġt ents
Ġt alent
he w
he red
he res
Ġa ven
Ġa we
Ġa che
Ġa iry
in er
in ies
in ius
Ġs hat
Ġs ine
Ġs urn
Ġs cient
Ġs inking
Ġs ize
Ġs ighed
ou ps
ou ches
Ġw es
Ġw reat
Ġw ary
Ġw ished
re cy
ha d
ha el
Ġthe ories
Ġm ent
Ġm art
Ġm oe
Ġm uff
Ġm ixed
Ġb ust
Ġb ail
Ġb ishop
Ġo m
Ġo ce
Ġo il
er ning
is y
is ions
Ġf ri
Ġf ile
Ġf ring
Ġf itting
Ġf uri
Ġc ord
Ġc ave
Ġc ared
Ġc uff
Ġc ords
en ious
or ical
or ney
ll s
on io
Ġd us
Ġd ame
Ġd ash
Ġd iest
Ġto e
Ġto y
Ġto ss
Ġto bacco
Ġhe inous
Ġhe dge
Ġh ood
Ġh ilt
Ġh inted
Ġl it
Ġl ink
Ġl ace
Ġl ute
Ġl ash
Ġl unch
no men
ĠI mp
Ġp ith
Ġp ine
Ġp up
Ġp anc
Ġp ots
Ġp ulse
ar p
as k
as ci
as per
an ity
Ġth w
Ġth reshold
Ġin ches
at re
at ory
Ġno d
Ġno on
Ġno vel
Ġno body
Ġg y
Ġg ru
Ġg ust
Ġg ig
Ġg ained
Ġg orge
Ġg rum
Ġg rud
Ġg utter
st one
st ation
st rov
st ock
le nd
le ad
le ased
im s
ce it
ce ls
et ition
ly mp
ow l
Ġe g
Ġe bb
Ġe pit
Ġe conom
Ġe jac
ir med
ch o
ch ink
ent h
ent re
ent ious
Ġfor bidden
Ġst er
Ġst am
Ġst ake
Ġst em
Ġst ung
Ġst agger
Ġwith d
Ġme ed
ro ll
ri l
Ġre wards
ke y
ad o
ad vent
ill s
Ġas cend
Ġn ag
Ġn ick
Ġn aught
Ġn igh
Ġn imble
Ġher n
Ġat mosp
ter y
ur ous
ur ther
ur vy
ur atively
ur rection
ain ty
ot land
Ġse qu
Ġse lling
Ġse wing
ĠR o
ĠR ap
ĠR oyal
ĠH ath
ĠH ang
ĠH alf
Ġan aly
Ġall udes
ore d
ra ged
ra ils
Ġde cent
Ġde arer
Ġsu ited
Ġdo le
ĠS ly
ĠS everal
ĠS ycor
pe ian
ov en
Ġshe lter
ĠP ha
ĠP el
ĠP LA
ĠP eace
est roy
th ought
th umberland
ge on
ge red
ge ment
us ive
ĠW ater
ĠW itten
ĠW ednesday
ic ate
ic ation
ic uous
ell a
ĠA gainst
ĠA CT
ĠA chill
ant ic
Ġsha res
ous ing
ul sion
ble t
ard o
em s
em broke
ni hil
Ġfa ced
ust ice
ven om
Ġv a
Ġv ass
Ġv ap
Ġman hood
han ging
all el
ight s
Ġwhe t
Ġor b
Ġor chard
ĠHe ar
Ġgo al
ast ened
Ġun a
Ġun h
Ġun man
Ġun aw
Ġun rest
Ġun ruly
Ġthere to
um s
um ps
ĠM ine
ĠM ary
ĠM iss
Ġsa vour
Th row
ĠL ay
ĠL ieutenant
ĠL adies
Ġwere n
od es
Ġal t
ĠC upid
ĠC entre
Ġr ood
Ġr ats
Ġr ational
Ġex h
Ġex asper
Ġqu ake
Ġqu ilt
Ġcan on
Ġcan non
Ġab ject
Ġab ility
Ġab nor
os ure
ĠG eneral
ĠG onz
ĠO strov
ĠO lymp
ĠD u
ĠD ar
ĠD em
ĠD ear
ĠD el
ĠD oth
Ġbl own
Ġbl ushed
Ġwor ries
Ġus es
Ġpr ating
Ġspe eches
ĠE xt
Ġpro long
Ġar med
Ġar oused
Ġsp ies
Ġsp ilt
Ġsp ade
Ġsp aring
Ġsp ots
Ġmad men
ĠB ern
ĠB agot
ĠB envolio
ne ath
ne cess
Ġro bb
ĠN ed
ĠN ear
itt any
Ġany body
ia bly
Ġfl in
Ġfl int
urn ing
Ġch op
Ġpo ets
rie ved
ĠV alent
ack et
Ġtw isting
Ġdis l
Ġdis cl
Ġdis app
Ġdis respect
ass ing
ag ainst
ĠĠĠĠĠĠĠĠ ĠĠĠ
ĠĠĠĠĠĠĠĠ ĠĠĠĠĠ
Ġpe er
Ġfe eding
Ġbr ass
Ġbr ute
Ġcl im
Ġcl oth
Ġcl ue
az ed
Ġper cept
Ġper mit
Ġper chance
ap h
ap pe
Ġdown fall
ĠK ent
Ġthought ful
Ġen forced
Ġen rich
ĠPet rov
bl ack
Ġevery body
Ġeven ings
Ġcha pel
Ġunder go
Ġunder neath
Ġover look
Ġover heard
Ġdes ired
ft en
Ġgra vity
un s
un is
un ed
un ately
Ġsc ra
Ġsc enes
Ġsc ourge
Ġru bbing
ĠF OR
ĠF ourth
Ġtru er
Ġmean ness
Ġpre text
Ġhead str
ĠT ew
ĠT roy
ĠT ullus
ĠT ribunes
Ġsl ack
Ġsl ily
Ġsl avish
Ġbrother hood
Ġhear s
Ġcont act
Ġra ving
Ġra ging
Ġra iling
Ġra rely
Ġra pture
oss om
Ġsm eared
pl icable
Ġcour ses
Ġho ar
Ġgl ances
be en
be ians
Ġtr am
Ġco al
Ġco il
Ġco ast
Ġco ars
Ġco ppers
ens ity
Ġad orn
Ġback ward
Ġpass es
Ġpass port
ab out
ab eth
iz ed
iz abeth
Ġcomm un
Ġfo x
Ġres our
Ġres erved
Ġres erve
che lor
Ġmind ed
Ġgr oup
ĠWh om
ĠMar ry
ĠMar cell
Ġcomp re
Ġcomp ared
ĠJ up
Ġent rails
AB RAHAM
ister ous
Ġconf er
Ġconf ed
Ġconf ident
Ġconf lict
Ġrep etition
Ġshow ers
Ġpa ced
ock ed
sh ow
sh op
,-- _
Ġdel ivered
Ġsec recy
.) ,
Be at
Ġhome ly
Ġpoor ly
Ġdist raction
Ġgu er
Ġgu lf
Ġdear th
ks bury
Ġsweet est
Ġapp ar
Ġrec ount
Ġneed less
Ġnoble man
Ġem blem
Ġfar m
Ġchan ced
Ġchan ges
Ġass ail
Ġass ented
Ġass umed
Ġlight ness
Ġint olerable
Ġatt rib
Ġquestion ing
ont ane
Ġhu g
Ġcare lessly
Ġsince re
Ġbreat hes
Ġcertain ty
Not es
Ġta pe
Ġgi ant
Ġfellow ship
Ġsub mit
Ġelse where
Ġcount ing
Ġaw ry
Ġaw aken
Ġvis its
GR EY
Ġlady ship
Ġhum ours
Ġsupp osition
Ġdream y
Ġexp i
Ġexp ost
Ġins anity
.' "
Ġmis c
Ġcar ries
Ġround ly
Ġbu z
ĠHow ever
Ġcrown ed
ĠFor give
Ġpri vy
Ġchar ming
Ġspo ons
Ġban qu
Ġpeace ful
Ġstr ain
ĠAn swer
Ġhor rid
cent re
Ġhur ts
Ġexc uses
Ġhar vest
sp oken
Ġri ce
Ġri ot
Ġca us
empt ion
Ġact ive
Ġinc omp
Ġinc ongru
cei ves
Ġang le
ĠDo es
Ġhence forth
Ġform at
Ġwond ers
Ġser f
Ġfal tered
Ġsign ifying
Ġreason ing
Ġreason able
Ġstri p
Ġstri pes
Ġreturn ing
Ġcomfort able
Ġgrave yard
Ġinf ring
Ġrel ieve
Ġrel ieved
Ġprom ises
Ġhang man
Ġobs c
Ġbreath s
Ġmut ual
ern s
Ġind uced
Ġind uce
At tend
Ġtre ble
Ġcond escend
Ġdark ly
Ġpati ently
Ġpati ents
Ġmurder ing
Ġmurder ous
Ġpurpose ly
Ġrespect ful
form ity
Ġcor p
Ġcor resp
Ġcra b
Ġcra ft
Ġsens ations
Ġprop osition
Ġfright ed
Ġconv uls
Ġstud ied
Ġthank ful
itting ly
Ġcommon place
Ġtrem end
Ġpay s
Ġinv ented
Ġcrow s
Ġcourt s
Ġexpress ly
Ġbo at
Ġbo isterous
Ġjo ke
Ġjo ined
Ġtrou bl
Ġcru c
Ġproud est
Nor thumberland
Ġpast ime
Ġopp ose
Ġopp osed
Ġden ying
Ġwret ches
Ġcommand ment
Ġsoft en
ĠSt and
ĠSt age
ĠSt range
Ġswear ing
Ġsin cerity
Ġpar l
Ġpar ched
Ġdeal ing
Ġaff right
Ġpu iss
Ġred emption
Ġgrow th
Pol enka
Ġmo iety
Ġmaj or
Ġfast ing
Ġsecret ly
Ġbless ings
Ġsuspic iously
Ġcrowd s
Ġcir cle
Ġprof its
Ġdevil s
Ġutter ance
Al most
Ġsix ty
Ġce iling
Ġirrit ate
Ġirrit ating
Ġbow l
Ġfun ction
Ġfun ctions
Ġthrow s
Ġmove ments
Ġanx iously
Ġdef iance
Ġdespair ing
Tw ill
Tw ixt
she aring
Ġve il
Ġsur face
Ġest imate
Ġbar gain
Ġpost ed
Ġtender ness
Ġpen al
Ġstupid ly
Ġprov inces
ung ed
Ġsqu eal
Ġwis hing
Ġbat tles
Ġsuit able
Ġlea f
Ġmod el
cell ent
Ġconcl usions
Ġspeech less
Ġfr amed
Ġfrown ed
Ġattend ing
Ġattend ant
Ġharm less
Ġmal iciously
Ġund ressing
Ġund oubt
Ġstir red
Ġdisg raced
Ġsuffer ings
Ġdev ice
Ġdev ote
Ġbosom s
11 6
Ġtit les
Ġmor ose
Ġleg ally
Ġpoison ous
ĠMont agues
Ġmem orial
Ġsuccess ful
Ġprob able
con fid
Ġid ly
Ġthro bbed
Ġbegg arly
Ġbegg ars
Ġglo be
12 0
Ġgro om
Ġgro tes
Ha ppy
Ġlow ly
Ġiss ued
Ġcompl aining
Ġremain ing
ixt ure
Ġbreast s
Ġcow ards
Ġexam ined
Ġwretched ness
Ġacquaint ances
Ġtort uring
Ġmount ains
Ġdust y
Ġintend ing
Ġbeha ved
Ġstore d
Ġblow ing
Ġrose mary
Ġaccept ed
Ġexcell ence
Com mand
cher y
esh rew
Ġenc ourage
Ġele ction
Ġele ments
Ġfors ooth
Ġsol itude
Ġunp ardon
Ġunp repared
Ġcondition s
Ġauthor ities
Ġfig uratively
Ġlim its
Ġinj urious
Ġinj ustice
atic s
ĠLook ing
ĠChr is
Ġdry ly
Ġthick ly
Ġspend ing
Ġpassion ate
Re ady
Ġvent ured
Ġperform ing
Ġaim ed
Ġaim lessly
Ġba ld
Ġba chelor
Ġeight een
ĠSome one
Ġur ging
Ġconc erning
Ġprotest ed
Ġfeast s
Me anwhile
Ġdu kes
Ġstor ies
raord inary
Ġsafe ly
Ġsafe guard
Ġscre en
Ġsli pping
Ġaccord ance
Ġstart ing
Ġstart led
ĠAl most
ĠAl ban
ĠOp en
reg ory
Ġmid wife
Ġreb el
Ġvar let
Ġunf astened
Ġtrif le
Ġschool master
Ġmiss ed
Ġbod es
Ġlament ation
ĠVols cians
ĠVols cian
Ġbank rupt
Stand ing
Ġfamiliar ity
Le ft
Ġet c
Ġslander ous
Ġattent ive
Ġwedd ed
Pl ay
Pl ain
Tru ly
can not
Ġmag ist
Ġlen ity
Ġreign s
Ġfee ble
ĠKat ia
Ġgrand father
Ġrestr aint
ĠIsab ella
Ġbox es
Ġmild ly
Ġfurn ished
Ġunivers al
Ġstar ve
Ġstar ving
Ġcoll ars
Ġneighbour hood
Ġfro zen
Ġbuild s
Ġbas in
Ġstat utes
Ġdoom s
ĠMerc ury
Ġexist s
Ġeng age
Ġaccident ally
Ġobserv ance
Ġhol es
ĠAfter wards
Ġunl uck
Ġunl awful
Ġprosper ity
Ġcommend s
Ġinquir ing
fl ow
Ġaud ible
Ġmention ing
Ġdistrib ute
Ġdistrib uted
Ġincre ased
Ġtorment ing
Ġsal oon
Ġpap a
run k
Ġobst inately
Ġemploy ment
Ġcorre ctly
Ġcent ury
Ġpin ch
Ġgent ry
Ġgent ler
Ġgent eel
Ġsep arated
ĠAnt ium
Ġdise ases
Ġmistrust fully
ĠCapulet s
Ġsn atching
Ġfil th
Ġdim ly
ĠPer cy
Ġoppress ive
Ġsumm ons
Ġprinci ples
long s
Ġsan ction
Ġmir ror
Ġstum ble
ĠAb out
ĠAb ove
Ġamb ition
Ġagon ies
Ġscoundrel s
Ġdisturb ing
Ġattack ed
Ġmerc iless
Ġadvance ment
Ġgroan ing
sc ore
Ġgle amed
Ġdescrib ing
Ġaccus ations
Ġrepro aches
Ġdestroy ed
Ġsolemn ity
Ġfruit ful
Ġexhaust ion
pen ny
Ġhost ile
Ġprodu ced
Ġchamp ion
Ġhelpless ness
Ġperplex ed
Just ice
Ġmil itary
Ġdig est
Ġluck less
Ġprogress ive
ĠFl or
Ad v
Ġcas ually
Ġpil ot
Ġgidd iness
Ġdeb ate
Ġshri ll
Ġvig our
Ġvig orous
Ġloyal ty
Ġtax es
Ġpolit eness
Ġindifferent ly
Ch ildren
Ġwid ows
Ġwink ed
Ġwitch craft
Ġbri ll
ĠKapernaumov s
Ġprefer red
Ġcaut ious
Ġpenit ence
Ġneglect ed
Pr oud
Ġwag gon
Ġbud ge
Ġinex plicable
Ġnodd ing
Ġrenow n
Ġje er
ĠEl izabeth
Ġrus hes
Ġhumili ated
Ġmaiden head
Ġtransp arent
Ġconquer or
wr iting
Ġtut or
Ġthorn s
Ġconst able
ARCH BISHOP
Ġexclaim ed
ĠTH IS
Ġesc ort
Ġdisple ased
Ġintellect ual
mong er
Ġbon ny
Ġdrows y
Ġpan ic
Ġwhore son
Ġdefect ive
Ġabhor r
Ġdisgu ise
Ġdisgu ised
Ġdisorder ly
ossess ing
Ġadver se
Ġadver tis
Ġgrim ly
Ġcarri on
Supp ose
Ġanticip ation
Kind ly
Somet ime
cast ically
Ġtight ly
Ġbul k
Ġbag gage
artha ge
Ġabst ract
Ġperj ured
Ġswell ing
Ġobsequ ious
Ġresc ue
Ġindepend ence
Ġattract ive
Ġdepra ved
Ġdepra vity
Ġrelig ious
Ġscrutin ised
Wr ite
Ġsar castically
Ġwip ed
Ġanim al
ĠCh urch
Ġexcess ive
Ġdecis ive
Ġinfam y
Ġtempor ary
Ġfascin ating
Cond em
bod ing
lest ick
shar per
Ġtaunt s
Ġacknow ledge
Ġlat est
Ġpest ilence
Ġbere ft
ĠPh oebus
ĠPot chink
Ġorn aments
Ġunacc ountable
ĠTar peian
Ġconsp icuous
Ġsubstit ute
Ġtravell er
Ġmathem atics
Ġspoonful s
Ġlux ury
Bre ak
Mist ake
Ġtig er
Ġsamov ar
Ġphe nomen
Ġren ounce
Ġreass ured
Ġnin et
Ġliqu or
ĠRem ember
Ġanch or
Ġvio lets
Ġprosec ute
Ġdiso bed
Ġdisli ked
Ġpreoccup ied
Ġcoach man
Ġcompet ent
fact ory
Ġeloqu ence
Ġrecre ant
Ġrecom mend
Ġimpe ach
Ġsubmiss ive
Ġinsuff erable
Ġembra cing
Ġcircl ing
Ġdestit ute
Ġobliv ion
Ġsacrific ing
Ġvolunte ers
Ġambig uous
Ġcateg ory
Mur der
Prep are
elect ronic
fashion ed
rat itude
Ġig noble
Ġsni g
Ġfund ament
Ġcano py
Ġcuck old
Ġdand y
Ġdil igence
Ġinve terate
Ġlic ense
Ġsevent een
ĠRev iew
Ġanc est
Ġdoctr ine
ĠSchill er
ĠMah omet
Ġagg rieved
ĠBr ittany
Ġperempt ory
beck ons
Ġimpot ence
Ġnighting ale
Ġapplic able
Ġbragg art
Ġcircumstant ial
ĠCamb io
Ġimmov able
Ġmagnific ent
Ġinvolunt arily
Ġvindict ive
Cam illo
cub a
uiv ant
Ġou ter
Ġsurn ame
Ġscient ific
Ġwes tern
Ġbust le
Ġfuri ously
advent ure
Ġatmosp here
ĠSycor ax
ĠPel ion
ĠWitten berg
ĠAchill es
Ġabnor mal
ĠBern ardo
ĠPetrov sky
Ġheadstr ong
ĠTew ksbury
ĠMarcell us
ĠJup iter
Ġcorresp ond
Ġgrotes que
ĠPotchink ov
" ...
' !
' ?"
1 10
7 61
8 2
8 3
8 5
8 6
8 8
8 9
9 1
9 2
9 3
9 4
9 5
9 6
9 8
9 9
? _
A ff
A umerle
B old
B ON
C E
C O
C ut
C old
C omp
C arry
C ursed
C inq
D en
D are
D uring
D oubt
D irect
E C
E AN
E MI
F it
F ill
F ell
F ourth
G iven
G room
G rand
H ard
H untsman
H arp
I LI
I mp
I GH
J ECT
J oin
K eeper
L U
L ast
L ie
L ittle
M an
M usic
N ight
N ATH
N orfolk
P e
P res
P ale
P AGE
R en
R ed
R ev
R atcliff
S R
S en
S ic
S ings
S leep
S land
S urely
T r
T ran
T rust
T ouching
U r
U s
W ife
W orse
_ ."]
a fe
a ccess
b en
b at
b est
b ast
b ber
b ably
b etter
b ox
c er
c us
c ame
c reat
c ause
c ount
c up
c rant
c ousin
c ases
c ounter
c apable
d ur
d ist
d oor
f ed
f an
f ast
f ranch
g al
g own
g ation
g ies
g race
g reed
h ill
h our
h ouses
h orses
i ge
i ently
i ates
i arly
l ings
m es
m ak
m pt
m uch
m inded
n s
n ut
n al
n one
o ften
p in
p an
p ri
p ol
p ier
p oor
p rick
p rote
p iece
r ide
r uth
r ained
s w
s ive
s ong
s hing
s ick
s hin
s weet
s ix
s cape
s af
s ilver
t ill
t able
t empered
u v
u ge
u ity
u cy
u bs
u eless
v irt
v iol
w ed
w ore
w ood
w ind
w el
w orth
x im
y ed
z ens
Ã ´
Ġ rom
Ġ 50
Ġt ar
Ġt amed
Ġt ales
Ġt ainted
Ġt asted
he er
he ar
he ro
Ġa v
Ġa pe
Ġa fore
in o
in ter
in ore
in ci
in ence
in ish
Ġs om
Ġs ith
Ġs ite
Ġs ipping
ou st
Ġw an
Ġw rang
Ġw ilful
Ġw enches
re nd
re ason
Ġm ing
Ġm ast
Ġm using
Ġm ixture
Ġm oust
Ġb en
Ġb ath
Ġb ree
Ġb other
Ġb ier
Ġb unch
Ġb attery
Ġb oulevard
Ġo per
er o
er ation
er whel
is k
Ġf art
Ġf el
Ġf ence
Ġf ired
Ġf uss
Ġf ickle
Ġc ri
Ġc ue
Ġc ush
Ġc amb
en erate
en nel
or ie
or ously
on na
on esty
Ġd at
Ġd ens
Ġd iet
Ġd ict
Ġd ashed
Ġd ainty
Ġto t
Ġto ken
Ġto ads
Ġto wel
ing e
ed ies
ed iment
Ġhe y
Ġhe ro
Ġhe al
Ġhe igh
Ġh its
Ġl ain
Ġl ots
Ġl isp
Ġl ids
Ġy are
es tering
Ġp as
Ġp ard
Ġp el
Ġp ia
Ġp ious
Ġp edant
as ions
an im
an ger
om y
om enes
Ġth ump
Ġth rees
Ġin att
at hed
at age
at ched
at omy
Ġno m
Ġno vice
Ġbe llow
ve rest
ve lled
ve lling
Ġg na
Ġg ird
Ġg ang
Ġg amb
Ġg inger
st able
st rel
le ven
ut or
ut us
ut able
se z
se en
se ven
se arch
et tle
ow ick
Ġe p
Ġe ats
Ġnot with
ith met
oo thing
Ġon line
Ġfor ces
Ġfor cing
Ġst ith
Ġst ress
Ġst alk
Ġst ark
Ġst ained
Ġst amm
Ġme llow
ro s
ro se
ri an
ri est
Ġwas p
Ġre form
Ġre vell
Ġre action
Ġre leased
Ġwe al
ad ise
her s
Ġas pir
Ġas certain
Ġas cribed
Ġn urs
Ġn erve
Ġn ursed
Ġn ourish
Ġn iece
Ġn uts
Ġher bs
ter night
Ġk il
ur g
ur able
ur bed
Ġso bbing
Ġwh os
ot hes
ĠR ight
ĠR osen
ĠH and
Ġan imation
Ġan nihil
Ġall ies
ra ve
ra ken
Ġde alt
Ġde ception
Ġde formity
Ġsu ed
Ġsu nder
Ġdo ings
Ġdo ves
Ġdo ctors
Ġdo zens
Ġbut che
ĠS A
ĠS et
ĠS te
ĠS uff
ĠS wear
ĠS imply
if th
if ted
ĠP o
ĠP RO
ĠP rithee
ĠP atri
ĠP embroke
Ġwill ow
est al
Ġ_ '
th rough
ge ant
Ġsh ove
Ġsh oe
us hes
us ual
ĠW alk
ĠW ales
ĠW alter
ic an
ic les
ĠA g
ĠA ch
ĠA cc
Ġcon ge
Ġcon ceived
Ġcon stit
ant ing
ant ime
ant ages
qu al
qu ite
qu isite
Ġsha red
Ġsha ven
Ġsha ped
Ġsha wls
EN BER
Ġfa ction
Ġfa cul
Ġne p
res ist
Ġv il
Ġv ine
Ġv ial
Ġv ac
Ġman g
Ġman ly
._ "
all ing
Ġ" _
Ġor isons
ĠHe y
ĠHe ctor
ĠHe lp
ĠHe cuba
Ġgo s
Ġgo blet
ost erous
ast ical
ast ingly
Ġun wh
Ġun think
Ġun att
Ġun child
Ġun settled
Ġun necess
Ġun usual
AR T
um n
um erable
um ption
ĠM an
ĠM other
ĠM any
ĠM ercy
ĠM artha
Ġsa p
Ġsa ving
Ġsa ucy
Th oughts
ĠL y
ĠL od
ĠL ife
ind er
ind ly
pp ose
... ?
ear ch
Ġcom ic
Ġcom ment
Ġcom bed
Ġal tern
Ġout s
Ġout st
Ġout cry
ĠC H
ĠC le
ĠC ast
ĠC ourt
ĠC arthage
ie ving
fe el
fe nder
fe its
Ġr he
Ġr ite
Ġr ousing
Ġr Ã´
Ġex empt
Ġex hil
Ġex quisite
Ġqu aint
Ġcan ker
Ġab od
Ġab ack
Ġab uses
Ġab omin
ist ory
ĠG r
ĠG UT
ĠG regory
ĠO SR
Ġj ee
Ġj ug
Ġlook er
Ġle vy
are th
Ġgood man
ig s
ig ate
ĠD es
ĠD ost
Ġtim eless
Ġbl under
Ġbl asp
Ġbl ossom
Ġlo ins
Ġus ur
Ġus age
Ġus urer
Ġpr at
Ġpr im
nt ly
He art
Ġspe ll
Ġspe cially
ĠE ither
ĠE ach
ĠE ls
ci p
Ġpro cure
Ġar d
Ġar ch
Ġar row
Ġar rant
Ġar rog
-- _
Ġsp ed
Ġsp urn
Ġsp ared
Ġsp ices
Ġsp rang
Ġsp ontane
What e
Ġmad ly
Ġmad est
ĠB ar
ĠB ring
ĠB raken
Ġpl ent
Ġpl aint
Ġpl aints
Ġpl unged
oot hed
ath om
Ġro de
Ġro cks
ĠN ature
AN IEL
âĢĶ '
Ġhand writing
For th
For bear
itt ance
Ġaf oot
Ġfl aw
Ġfl ames
Ġfl inging
Ġhat s
Ġbeg ot
Ġch ronic
Ġch ival
Ġpo x
Ġpo ll
rie ve
ĠV al
op ing
Ġtw isted
Ġdis arm
Ġdis fig
ag ion
ag ain
ano ther
erv ation
Ġcl ay
Ġcl own
Ġper cent
ap s
ap ing
ap es
ap ly
ĠK arl
ĠK EAN
ĠK indly
Ġen act
Ġen raged
Ġen venom
ace ment
bl own
Ġheart less
Ġway ward
Ġcha l
Ġrem edies
Ġover throw
Ġover flow
Ġdes c
Ġdes erving
As s
Ġgra ft
Ġmar r
Ġmar iners
rov ided
Ġsc ri
Ġsc are
Ġsc ale
Ġsc once
Ġsc ape
Ġru b
Ġru ng
Ġru ff
Ġru bbed
ĠF oo
ĠF ather
ĠF riend
ĠF rants
ĠY us
Ġpart ners
Ġpre l
Ġpre cept
Ġpre ca
Ġpre rog
ĠT e
ĠT unis
Ġjust if
Ġsl im
Ġear l
Ġear ned
Ġear ldom
Ġask ance
cl oth
cl uding
cl othes
Ġcont ain
Ġcont aining
Ġcont racted
Ġlong est
Ġra ged
Ġra ges
Ġra iment
Ġra bble
Ġcons isted
Ġcons orted
Ġsm ear
Ġsm ack
Ġsm oothed
pl ed
pl ain
Ġcour te
Ġho arding
Ġsw ing
Ġsw im
Ġsw ine
In s
In fer
Ġgl imp
Ġgl ories
be ard
be arer
ren ched
io cy
per y
Ġco als
ens ky
oul t
IS T
Ġad apt
Ġhast ening
Ġpass ages
Ġimp ert
Ġimp rove
Ġimp ediment
ab our
iz el
Ġmen acing
Ġart ist
Ġart ific
Ġcomm er
Ġcomm une
ced ed
Ġres ent
Ġres ult
Ġres isted
Ġres idence
Ġres urrection
Ham let
Ġtalk ative
pect ing
Ġple beians
iss ing
So fya
Ġset tling
aw d
Ġcomp osed
ĠJ ames
ĠJ OHN
ĠJ esu
Ġent it
_, [
_, --
Ġrest less
Ġend ing
Ġend ow
Ġend ea
Ġstre ak
Ġstre ams
Ġconf ine
Ġconf ines
Ġconf ront
Ġconf irmed
Ġrep ug
Ġrep ossess
Ġrep roof
Ġpray s
Is n
sh ot
Ġwa iter
rem ember
Ġmin strel
Ġpers piration
Where fore
ult ed
Ġunderstand s
Ġinst igation
Ġyes ternight
Ġadd s
Ġadd ition
ĠCl own
Ġte aching
Ġte eming
Ġdist ant
Ġdist ract
Ġcle arer
Ġsweet s
Ġapp oint
Ġrec ourse
Ġque ens
Your self
Ġsister hood
Ġthrough ly
Ġthrough out
Ġsil ken
Ġatt orney
TH E
Ġbes eem
Ġwind ing
ĠSvidrigaÃ¯lov s
Ġche m
me ant
Ġsat yr
ĠIn formation
Ġnat ures
Ġnat urally
vers y
Ġsub mission
Ġmist aking
Ġhold er
tend ed
oun cing
Ġmer rily
Ġbed s
Ġbed stead
Ġret ain
Ġret ort
Ġtra ffic
eth on
Ġran ks
Ġran cour
Ġmeet ings
Ġvis ions
Ġgrace ful
Ġhum orous
Ġuse ful
Ġsupp osing
Ġsupp lic
Ġappe ll
Ġdream ed
Ġexp ense
ĠTo gether
Ġmis rep
Ġcar pet
Ġstra it
Ġhigh way
Ġdisc reet
Ġperson ages
Ġste als
Go es
Ġdoubt ed
Ġdoubt less
Ġdra wer
Ġdra gg
Ġdra ught
Ġdra gon
Un b
Ġir resist
Ġhard y
Ġhard er
Ġstr aining
Ġstr atage
Ġfort ress
Ġfort unate
Ġworth ily
Ġhor ribly
Ġexc ite
St ab
St anley
Ġri p
Ġri vers
Ġri bs
Ġri vals
Ġca ution
ĠTh ose
Ġac ute
Ġact ors
Ġinc ess
Ġinc est
Ġinc ense
rant ed
Ġsun k
ĠVI II
Ġcap ac
Ġcap arison
Ġref rain
Ġform ality
Ġdep ressed
Ġdep arted
Ġquick en
Ġstri ving
Ġstri kes
Ġdec ree
Ġsuff ice
og ue
itor ies
ices ter
Ġdan ces
Ġdan gers
Ġrel ap
Ġrel ished
Ġconfess ing
wh om
wh ose
Thy self
Ġstru mpet
Ġexpl osive
iv ine
iv ated
iv ative
Ġmut iny
Ġmut tering
Ġmut ton
Ġbra g
Ġbra ved
Ġbra wl
Ġbra wling
Ġind ust
Ġind irectly
Ġtre as
Ġdire ful
HAM LET
Ġshort en
Ġrespect fully
Ġfam ish
Ġcra ving
Ġcra fty
Ġext ent
Ġsens ual
Ġbit es
Ġfright ens
lect ed
Ġconv ention
Ex cept
Ġsing ers
Ġbea ver
Ġbea uties
Ġcontin ent
Ġfight s
Ġtrem bles
Ġdeep er
Ġfalse ly
Ġjud ged
Ġjud ges
Ġexpress ive
Ġexpress ions
Ġbo on
Ġbo iled
Ġcoun cil
Ġcoun cils
Ġjo king
Ġjo kes
Ġjo lly
Ġtrou bling
HOR ATIO
ple te
Ġweak er
Ġvill age
Ġvill any
Cl audio
Ġfore most
Ġfore see
Ġcousin s
Ġstruck en
Ġrepe ating
Ġrequ ite
Ġrequ ires
Ġrequ iem
Ġocc asions
Ġcur led
Ġcur ls
Ġcur ts
Ġnote book
Ġcommand ing
ac re
ĠSt reet
Ġexpect ation
vo ided
Ġdam es
Ġsin ful
Ġaff ably
Ġcut s
Ġpu ppet
Ġred uced
Ġred uce
Ġuncle an
Ġmo le
Ġmo ans
Ġmo bled
Ġdiffe rences
Ġfast ening
Ġcal f
gu es
Ġemb ass
Ġprep aration
Ġprep ossessing
Ġcir cles
Ġprof an
ĠPol es
Ġbound s
Ġorder ing
Ġaccount s
Ġaccount ed
Al one
cum ber
Ġfoul er
Ġforget s
Ġscar let
uff ling
Ġhot el
Ġimport une
Tw ice
she pherd
Ġwoe ful
Ġdin ing
10 0
10 1
10 2
10 3
10 4
10 5
10 6
10 7
10 8
10 9
Ġsur v
Ġsur ged
Ġsur vey
Ġsur feit
Ġclot he
Ġbar r
Ġbar ber
Ġpost erity
Ġentreat ed
Ġtender ly
vol ous
ĠAN Y
Ġlea pt
ĠĠĠĠĠĠĠĠĠĠĠĠ ĠĠ
Can st
Ġmod erate
Ġconcl usive
Ġadm itting
uc er
Ġund ressed
Ġstir s
Ġsuffer ance
Ġmed al
Ġdest ined
omp ass
Ġappro ve
Ġextrem est
11 1
11 2
11 3
11 4
11 5
11 7
11 8
11 9
Ġmor sel
Ġgall ed
Ġmeant ime
Ġdecl aration
ĠPl ace
Ġunw ill
Ġunw ashed
ĠU se
Ġfill s
Ġfill ing
entleman ly
Ġfet ters
Ġearn ings
Ġmurderer s
Ġpubl ishing
Ġboot less
Ġsuccess ive
Ġgener ations
con ce
Ġid iocy
Ġbrief ly
Ġdish onest
Ġthro ats
Ġliber ties
Ġinterrupt ing
12 1
12 2
12 3
12 4
12 5
12 8
Ġty pe
Ġpract ised
Ġpract ically
Ġopin ions
Ġdiv ines
Ġlow ered
Ġiss ues
Ġcompl iment
Ġcompl iance
Ġcompl aints
ĠGo ing
ĠGo vern
Ġarri ve
Ġcand lestick
ang led
Ġcounsel s
ĠEx plosive
Ġthri ft
Ġnerv ously
Ġtrib une
Ġpriest s
Ġble eds
Ġuns atis
Com mit
DIO N
com fort
Ġtear ing
Ġpun ch
Ġpun ct
Ġfors ake
Ġfors aken
Ġsol id
Ġsol ution
Ġunp ro
Ġunp rovided
ĠDid n
ĠKo zel
Ġimpress ively
Ġfig ures
Ġdign ified
Ġlim b
Ġlim itation
Ġlack s
Ġinj uries
Ġexplain ing
Ġmoon light
Ġver ity
Ġver sts
Ġver dict
Ġbot tles
Ġobey ed
Ġda wn
Ġbeast ly
Ġdefend ing
Ġfoolish ness
Re f
ex am
Ġbaw ling
Ġodd ly
Ġlift ing
Ġsuper fl
ĠWould n
Ġdesper ation
Ġdesper ately
ĠAr m
Ġproceed ing
Ġproceed ed
Ġearnest ness
Ġtrans form
Ġcre ep
Ġpill ows
Ġur gent
Ġpublic ly
Me rely
Me antime
Ġdu g
Ġelect ed
Ġvow ed
Ġunha pp
Ġenjoy ed
Ġimposs ibility
Ġexplan ations
Ġavoid ing
Ġbare foot
Ġkn it
Ġtriumph s
ĠChrist op
hold s
reg nant
rop ortion
Ġreb uke
Ġsuspect s
Ġvan ish
Ġvan ished
Ġpecul iarly
Ġchamber lain
Ġattempt ing
Ġcrack ed
Ar m
Ar ise
ub ject
Ġschool boy
Ġthunder bol
Ġga ol
Ġga oler
Ġdepend ed
Ġdepend ent
Ġchast isement
Ġundert aking
Ġgrey h
Ġbawd y
Ġpra ised
ĠWas n
Ġconceal ing
Ġconceal ment
27 761
Ġmag ic
Ġmag az
Ġseal ed
Ġsaf er
Ġblank ly
Ġgrand mother
Ġrestr ained
there fore
Ġchat tered
Ġchat tering
Ġlean ing
Ġarg os
Ġrecall ing
ĠĠĠĠĠĠĠĠĠĠĠĠĠĠĠĠĠĠĠĠ ĠĠĠĠĠ
Ġdirect ed
Ġconsequ ently
Ġconsequ ences
Ġexper iment
After wards
Ġer r
Ġpack ing
Ġmel ting
ĠMad onna
Ġconsum ed
Ġinterview s
Ġmotion less
Ġlust ful
Ġpick ing
Ġpsycholog ically
Ġshudd ering
Ġunl ocked
Ġremark ed
Ġobt aining
Ġabsurd ity
Bel ike
Ġaud ibly
ĠHa ving
Ġrepent ance
Ġdistin ct
Ġcapt ive
Ġmourn fully
Bet ween
Bet wixt
Ġdwell s
Ġpot ent
run es
Ġunple asing
ĠBl ood
Ġdouble t
Ġdefence less
Ġdisgust ing
aff ord
Ġder ivative
Ġpin ched
Ġpress ure
Ġgent leness
Ġgross ly
Ġsep aration
ĠAnt onio
ĠAnt iates
ĠMay be
Ġjealous ies
Ġlend s
Ġflo ors
Ġflo ating
Ġconfound ed
Ġmistrust ing
Ġskull s
Bl ood
Ġsn atch
Ġbond s
ĠPer iod
Ġunb orn
Ġgrat is
Ġdelic acy
Ġsupport ing
Ġexchan ged
Ġsumm oned
Ġstick s
Ġstick y
Ġblock head
Ġdiss ension
Ġpretend ed
Ġdisturb ance
Ġindiffe rence
hum our
Ġbru sh
Ġfrank ness
Ġheed less
Ġgle e
Ġmend ed
Ġshore s
Ġwrath fully
ĠĠĠĠĠĠĠĠĠĠĠĠĠĠĠĠĠĠĠĠĠĠĠĠĠĠĠĠ ĠĠ
Ġsolemn ly
Ġmudd y
Ġmudd le
Ġinfect ious
Ġgest ures
Ġstif led
Ġknight ly
Ġknight hood
Ġupset ting
ĠAd am
Ġrasc als
Ġrum m
Ġglow ed
Ġhelpless ly
Ġtend ing
Ġtend ency
Ġhunt ing
Ġhesit ated
Ġbal ance
Ġluck y
Ġshrie king
Ġris en
Ġplot ted
Ġovert ake
ĠFl ore
Ġdeliber ate
Ġinsist ently
Ġrapid ity
off ice
Ġing enious
Ġing ratitude
Ġdeb ase
Ġconne ction
Ġvouch saf
Ġung entlemanly
ĠCon fess
ĠCon found
ĠCould n
Heaven s
Ġresp onsible
Ġgenuine ly
Ap ollo
Ap othecary
Res c
Ġach ieve
Ġach ieved
Ġwid ower
Ġbri be
Ġhom icide
Ġpour ing
Ġbef al
Ġbef its
ĠCal ais
Ġdismiss ed
Ġens ue
Ġrail way
Ġrecover ing
Ġbreed er
Ġoblig ations
Ġtriumphant ly
Se ize
sha w
Ġfrequ ent
Ġinward ly
Ġinex perienced
Ġgather ing
Ġwhi pt
ĠDor icles
Ġcholer ic
Ġwrink les
Ġeverl astingly
Ġuncertain ty
Ġmalignant ly
Ġtransp ort
Ġtransp orted
Ġexception ally
Ġtransl ating
Ġdevelop ing
Sha me
Set ting
Ġtick et
Ġwol ves
Ġfu el
Ġling er
Ġling ering
Ġthorn y
Ġalter ation
ĠDe ath
Ġdisplay ing
Ġclasp ing
Ġhelm et
Ġapolog ise
Ġesc aped
Ġgarland s
mong st
yes terday
Ġwing ed
Ġfray ed
Ġcy press
Ġcy nic
Ġlaz ily
Ġhaz el
Ġmeas ures
Ġmeas uring
ĠThan k
Ġprompt ly
Ġmagn anim
Ġphysic ian
Ġinterpret ation
Acc ursed
Cons ider
Disp atch
ext raordinary
log g
Ġtro ph
Ġtink le
Ġwitt y
Ġwitt ily
Ġinn keeper
Ġinn umerable
Ġstates man
Ġresem blance
Ġconver t
Ġamuse ment
Ġunre ason
ĠGree ce
Ġblast s
Ġdissem ble
Ġperj ury
Ġscow ling
Ġglit tered
Ġobsequ ies
Ġrans ack
Ġfalcon ers
Ġrelig ion
Ġconvict s
Ġrequire ments
Ġhypo cr
Ġscrutin ising
UR REY
del iver
pre ceded
pit ched
Ġsar c
Ġwip ing
Ġrenew ed
ĠSc otland
Ġshy ness
Ġlect ure
Ġprodig al
Ġcontem pl
Ġcoin c
Ġintention ally
Ġsubd ue
Ġsubd ued
Ġprophe cy
Ġwelcom es
Among st
Ġfascin ated
Sm all
Te ach
somet hing
somet imes
Ġsna pped
Ġmum bled
Ġfres her
Ġinher it
Ġstray ed
Ġrev ive
Ġkick ing
Ġsul ph
Ġunfe igned
Ġcompe lled
iac s
Ġchur ches
Ġeyel ashes
Ġeyel ids
Ġfeat ures
Ġener gy
Ġener gies
Ġscan ning
Ġscan ned
ĠFin ally
Ġrepresent ation
Ġincon stant
Ġbenevol ence
Ġholid ay
Ġfrag ments
Ġinsinu ating
Ġincoherent ly
FOR M
shap ed
Ġtang le
Ġaut umn
Ġsand s
Ġcult ivated
Ġge ld
Ġash ore
Ġwhist le
Ġwhirl ing
Ġsem blance
Ġann ounced
Ġbutter fly
Ġconven ient
Ġconcent rated
ARL ES
Ġcomr ade
Ġjaunt y
ĠEm ilia
Ġcontri ve
Ġmurm ur
Ġterr itories
Ġsubstant ial
Ġdroop ing
Ġsuppli ant
Ġmiser ies
Ġstealth ily
Ġvictor ious
Ġgreed ily
Ġparas ol
Ġdivor ce
Ġderan gement
Ġaccompl ish
Ġschol ar
Chr is
Ever more
Eng land
wor ks
Ġtips y
Ġsoot he
Ġdally ing
Ġduc ats
Ġham m
Ġnast y
rav agant
Ġsucc or
ĠST ANLEY
Ġnegl igence
Ġexcl usively
Ġpermiss ible
Ġenigm atic
Ġcourty ard
Ġfoll ies
Ġsimplet on
RANCIS CO
Ġcramp ed
Ġik on
Ġcele br
Ġmedit ating
Ġpublisher s
Ġportra it
Ġadopt ed
Ġemphas is
Ġirrevoc ably
Ġsuprem e
Ġstupe faction
Ġcritic ism
ĠWelsh men
Af fection
follow ing
Ġton ight
Ġshat tered
Ġwreat h
Ġment al
Ġoce an
Ġfri volous
Ġcord ial
Ġdus k
Ġpup il
Ġpanc akes
asci vious
Ġgorge ous
lend ar
Ġeg gs
Ġejac ulated
Ġstagger ing
Ġwithd rew
ĠPha ethon
Ġvass al
Ġunaw ares
Ġalt itude
ĠOlymp us
ĠDar ya
Ġclim b
Ġguer re
Ġattrib uted
Ġbanqu et
Ġriot ous
Ġincongru ous
Ġcorp se
Ġtremend ously
Ġtroubl ous
Ġpuiss ant
confid ence
Ġunpardon able
ĠFlor izel
Ġbrill iant
Ġadvertis ed
Ġninet een
Ġsnig ger
Ġfundament al
Ġancest ors
BON A
EMI LIA
Grand am
IGH T
NATH ANIEL
Ren own
Ur ge
crant z
mak ers
prote ct
shin ing
Ġrom antic
Ġsom bre
Ġwrang ling
erwhel m
Ġfart hest
Ġcamb ric
Ġpard ons
Ġpia no
Ġnotwith standing
ithmet ic
ĠRosen crantz
ĠPRO JECT
ĠPatri cian
ENBER G
Ġfacul ty
Ġvine yard
Ġunthink able
ĠLod owick
ĠGUT ENBERG
Ġjee red
ĠEls inore
ĠBraken bury
Ġprerog ative
Ġartific ial
Ġrepug nance
Ġsuperfl uous
Ġthunderbol t
ĠPeriod ical
Ġvouchsaf ed
" âĢĶ
' "
' ...
' --
* ]
8 59
; _
? )
A nt
A ren
A ufidius
B ad
B ore
B est
B are
B reat
B ack
B rief
B ohemia
B anish
B eshrew
B LU
C ur
C han
C ast
C are
C rown
C ross
C itizen
D r
D u
D one
D ie
D ig
D ead
D arest
D estroy
E D
E ARL
F ar
F ly
F ort
F ine
F ound
F riar
F ellow
G ra
G old
G irl
G rumio
G reen
G ram
H ost
H oly
H onoured
I ll
I MI
J ul
J oe
J esu
L ess
L ear
L ater
L end
L ives
L oved
M ond
M ount
M oney
M erc
M ALO
N I
N i
N ear
N ine
N onsense
N aked
O O
O bey
O xford
P it
P ass
P oint
R E
R a
R est
R ich
R ec
R ichmond
S in
S ent
S ad
S us
S te
S oul
S orrow
S ister
S its
S emyon
S uff
S eal
T ong
T ears
T rem
T ime
T ullus
T FORM
U L
W he
W ent
Y onder
a ved
a ced
a che
a vy
a ired
b ion
b ot
b all
b ound
b ary
b ited
b raid
b read
b orough
b ric
b urning
c re
c ar
c as
c ad
c ter
c ore
c ond
c orn
c ab
c ross
c oun
c ony
c ustom
c orous
c ency
c ontent
c urg
d in
d id
d ro
d ri
d ra
d est
d ish
d ens
d iv
d oubt
d isc
d anger
e an
e ight
e ase
e rer
e ctions
e ked
f es
f ru
f ond
f irst
f ull
f its
f les
f und
f lu
f ront
f ellows
g no
g om
g her
g ins
g ments
g entleman
g ots
g reg
g rand
g eneral
h ip
i as
i very
i ation
i bit
i que
i hil
j our
j ourn
k i
k ly
k ish
l ay
l ant
l orn
l ied
l ars
m in
m or
m ust
m ight
m ast
m ine
m atter
m ix
m aking
m une
m arried
n ish
n ical
o a
o it
o il
o ise
p ur
p ore
p rom
p ence
p ass
p ies
p hen
p ated
p ower
p ool
p urse
p orter
p oof
p Ã©
p ipe
r ons
r ating
r ime
r ising
s k
s is
s ir
s ight
s orrow
s aw
s ister
s uff
s kin
s wear
s ric
s word
s imply
s ifted
t ish
t urn
t age
t aking
t rick
t aste
t rue
t sey
u ni
u ction
u cing
v is
v ir
v ill
v ited
v enty
w ake
w ark
w idow
w ench
w ounds
w rung
w ords
w arming
x y
x com
y od
y ally
y outh
z ine
z water
Ã ¤
Ã ª
Ã ł
Ġ -
Ġ 4
Ġ 5
Ġ {
Ġ Ã¦
Ġ ***
Ġt il
Ġt ough
Ġt ire
Ġt ides
Ġt ush
Ġt unes
Ġt ires
Ġt inct
he arse
Ġa u
Ġa st
Ġa ver
Ġa us
Ġa ust
Ġa ery
Ġa vail
Ġa uspicious
Ġa rose
in ol
in to
in ity
in ance
in ations
in ctly
in cial
in stru
Ġs out
Ġs ip
Ġs oothing
Ġw ou
Ġw ha
Ġw are
Ġw aken
Ġw aning
Ġw add
Ġw ittingly
re ct
re th
re ng
re ign
re hend
ha w
ha il
ha ni
ha ven
ha ving
ha ired
ha ppy
ha bited
Ġthe atre
nd a
nd ed
nd ers
Ġm it
Ġm ow
Ġm ic
Ġm all
Ġm ap
Ġm ud
Ġm ach
Ġm aw
Ġm use
Ġm ature
Ġb one
Ġb ind
Ġb au
Ġb ate
Ġb ide
Ġb ough
Ġb its
Ġb oun
Ġb rib
Ġb ats
Ġb ale
Ġb aked
Ġb ooth
Ġb oring
Ġb ourn
Ġo x
Ġo be
Ġo mitted
er th
er ry
er ia
er ness
it an
it ive
it ate
it less
is le
is ation
is ible
Ġf re
Ġf id
Ġf erv
Ġf ootnote
Ġf ash
Ġf iles
Ġf aded
Ġf ishes
Ġf owl
Ġf athom
Ġc ed
Ġc od
Ġc el
Ġc ash
Ġc ouch
Ġc ured
Ġc amp
Ġc rop
Ġc oup
en ched
en gers
or ick
on se
on ent
on ies
Ġd all
Ġd art
Ġd ast
Ġd ia
Ġd un
Ġd iz
Ġd ip
Ġd uteous
Ġto es
Ġto ys
Ġto kens
ed ed
Ġhe m
Ġhe ct
Ġhe arers
Ġh oot
Ġh ides
Ġh itting
Ġh oof
Ġh ips
Ġh ounds
Ġl one
Ġl ave
Ġl ass
Ġl ag
Ġl ull
Ġl ump
Ġl inks
Ġl ining
Ġl ane
Ġy elled
es pecially
ĠI nd
ĠI rish
Ġp ir
Ġp out
Ġp all
Ġp ry
Ġp ink
Ġp ile
Ġp atch
Ġp ool
Ġp ars
Ġp ins
Ġp iled
Ġp oof
Ġp hal
Ġp otion
Ġp oured
Ġp als
Ġp ines
Ġp onder
Ġp ortion
Ġp ensive
Ġp estering
Ġp runes
ar ce
ar med
ar ned
Ġof fender
as ha
as ium
an st
an el
an uary
om fort
Ġth ir
Ġth ra
Ġin e
Ġin hum
Ġin habit
at o
at um
at ical
at ically
at hani
Ġha ck
Ġha res
Ġha ps
Ġha pless
Ġbe am
Ġbe ards
Ġbe headed
Ġbe thought
Ġg n
Ġg ul
Ġg ard
Ġg ear
Ġg ild
Ġg ilt
Ġg aud
Ġg ames
Ġg erman
st ool
st aring
le arned
im able
im inary
im ois
ut o
ut er
ut ive
se a
se ver
se eming
et ing
et te
ly ss
Ġe ve
Ġe art
Ġe aster
Ġe cho
id ity
id els
oo ing
oo ch
oo sing
Ġu no
ch op
ch urch
ent ing
ent ive
ent ation
Ġfor ge
Ġfor ci
Ġfor ged
Ġfor med
Ġfor nic
Ġfor lorn
Ġst im
Ġst all
Ġst ink
Ġst ated
Ġst oup
Ġst eter
Ġme rest
ro lled
ri er
ri on
ri ft
ri cious
ri ety
ri ages
Ġre ly
Ġre ver
Ġre el
Ġre ject
Ġre vers
Ġre ins
Ġre vi
Ġwe lf
Ġwe ighed
ke mpt
al m
al ion
al ment
al ian
ill age
ill ets
ill usion
her tsey
ver ing
Ġas under
Ġn ill
Ġn ation
Ġn onc
Ġn ymph
Ġn uns
Ġn ihil
Ġher b
Ġher ds
Ġat one
Ġk ern
Ġk ennel
Ġk ettle
ur bs
am a
am ond
am med
Ġso ar
Ġso ap
Ġso aking
Ġso cks
Ġso bs
Ġso bbed
ain able
Ġli ars
Ġli br
Ġli cence
Ġwh imp
Ġse ats
Ġse venty
ĠR ather
ĠR oss
ĠR ec
ĠR ead
ĠR ago
ĠH u
ĠH ouse
ĠH igh
ĠH arl
ĠH allow
Ġan atomy
Ġall ay
Ġall usions
ra wn
ra ise
ra ign
ra ham
Ġde fe
Ġde ign
Ġsu es
Ġsu st
Ġsu ms
Ġsu lt
Ġsu cking
Ġsu icide
Ġdo l
Ġdo it
Ġbut ton
ĠS on
ĠS pe
ĠS ave
ĠS ilence
ĠS urely
ĠS EC
ĠS earch
ĠS URREY
pe al
ol n
ol our
ol ate
and s
ord ing
if ter
ov sky
Ġshe er
Ġshe dding
ru p
ru ct
ru ised
ru ss
ĠP il
ĠP ers
ĠP oss
ĠP ushkin
ĠP foo
ĠP ubl
est s
est ic
est ament
Ġ_ "
th w
th ren
th read
rom pt
Ġsh orter
Ġsh ift
Ġsh unn
us age
ĠW or
ĠW on
ĠW ife
ĠW ee
ic ing
ic le
il ent
Ġup h
ĠA E
ĠA ff
ĠA GRE
ĠA riel
Ġcon strained
Ġcon greg
Ġwhat e
qu a
qu in
qu er
qu ess
qu est
qu ish
qu aint
qu iet
Ġsha m
Ġsha med
Ġsha ring
ul ating
em b
em inate
em ois
ni b
Ġfa iling
Ġfa bric
ust ers
ust ious
red eem
red itary
ven ient
Ġv ous
Ġv ise
Ġv iz
Ġv ail
Ġv ices
Ġv ital
Ġv estal
Ġman ual
Ġman acles
Ġam id
Ġam ity
Ġam used
Ġam iable
te ress
te enth
all op
all ible
ight on
Ġwhe res
Ġgo est
Ġgo ats
Ġknow est
Ġun he
Ġun ity
Ġun ction
Ġun not
Ġun int
Ġun fit
Ġun thri
Ġun educated
Ġun kempt
Ġthere on
ĠM E
ĠM ight
ĠM ON
ĠM ab
Ġsa bles
Ġsa ils
Ġsa ucer
Ġsa usage
Th ither
Th inking
Th rong
ĠThe e
ĠL ent
ĠL amm
ĠL IMI
pp ings
pp ets
... ?"
od ity
Ġcom ical
Ġcom edy
au x
au gh
ĠC ha
ĠC han
ĠC atch
ĠC ousin
ĠC har
ĠC ob
ĠC heer
ĠC ros
ĠC hertsey
To ld
To gether
Ġr ut
Ġr ates
Ġr idd
Ġr asp
Ġr iddle
Ġex ert
Ġex pel
ers ha
own er
Ġqu art
Ġqu iver
Ġqu illets
Ġcan e
Ġcan can
Ġcan nib
Ġab ort
Ġab using
ist ry
ĠG og
ĠG ranted
Wh ite
Wh oop
ĠO ther
ĠO sric
US E
Ġj er
Ġj ig
Ġj og
Ġj elly
ink le
Ġle vied
Ġsay est
ort s
ort ing
are ll
ig ree
ĠD A
ĠD a
ĠD is
ĠD ion
ĠD own
ĠD ep
Ġtim orous
Ġbl ench
Ġbl ots
Ġbl aming
to ck
Ġwor ships
Ġlo an
Ġlo am
Ġlo gs
Ġlo af
Ġus er
Ġwho ever
pt uous
Ġspe ar
ĠE V
ĠE X
ĠE re
ĠE aster
ci pl
ci ated
ave l
Ġpro c
Ġpro ff
Ġpro ving
Ġpro blem
Ġar ithmetic
Ġhow l
Ġhow led
Ġsp r
Ġsp here
Ġsp rit
Ġsp awn
Ġsp attered
Ġsp acious
Ġmad emois
ĠB E
ĠB re
ĠB es
ĠB ro
ĠB oy
ĠB ret
ĠB end
ĠB ah
ĠB RA
ĠB rist
ĠB rand
ĠB ishop
ĠB ridge
Ġthan king
Ġlet har
Ġpl ume
Ġro d
Ġro pe
Ġro be
Ġro sy
Ġro lling
Ġro bbing
Ġro gues
Ġro yally
ĠN O
ĠN ext
ĠN OT
ĠN IGHT
For get
ough by
Ġaf ar
Ġaf resh
Ġoff ering
Ġfl ows
Ġfl iers
Ġhat ches
Ġbeg s
Ġch id
Ġch ides
Ġch oke
Ġch oosing
Ġpo king
Ġpo ppet
ĠV ater
ĠV illage
op led
Ġtw ist
Ġdis per
Ġdis appe
Ġdis illusion
Ġdis cipl
ass ed
ass ad
ag ab
ick ing
de ed
Ġpe ck
Ġbro ils
Ġey ed
erv ative
Ġfe ign
Ġfe ared
Ġfe ature
imp le
Ġbr ine
Ġbr ittle
Ġbr ooch
Ġcl ing
Ġcl out
Ġcl og
Ġcl inging
Ġcl ubs
az e
az z
az on
ber ing
ber ry
ber ries
ber cles
Ġtell us
Ġper ceived
Ġper used
Ġper fume
Ġdown wards
Ġen light
Ġen join
Ġen franch
ran ces
bl ind
ious ness
Ġcha ff
Ġcha sed
Ġcha fed
Ġrem ind
Ġunder gone
Ġover joy
Ġover ste
Ġover came
Ġdes k
Ġdes cription
As k
here nce
ign s
ign ific
Ġgra ver
Ġgra vest
un ction
Ġmar velled
Ġmar riages
Ġmar quess
Ġwhere ver
rov al
Ġsc ars
Ġsc aff
Ġsc outs
Ġsc uffling
Ġru na
Ġgreat coat
ĠF er
ĠF IR
ĠF reedom
ĠF ifth
ĠF RANCISCO
ĠF yod
Ġtru dge
ĠY e
ĠY orick
Ġown s
Ġpart ake
Ġseem eth
Ġdon ate
Ġdon ation
hen s
hen ce
Ġpre m
Ġpre cip
Ġhead long
Ġlast s
ĠT er
ĠT urn
ĠT rust
ĠT erm
ĠT estament
Ġjust ified
Ġsl u
Ġsl ide
cl ine
cl ass
Ġhear th
Ġcont ains
Ġcont orted
Ġcont agion
Ġlong s
No body
vid ence
Ġra w
Ġra z
Ġra rest
Ġra ze
Ġhea ved
Ġcons ort
Ġcons ume
Ġcons pir
Ġcons erves
Ġcons isting
Ġcons pirator
pl ing
pl ight
pl aces
Ġsw an
Ġsw ung
Ġsw ept
Ġsw ifter
In f
In ter
Ġright ly
Ġgl ister
Ġgl ove
be ha
be at
be fore
be hind
be got
ud gel
ON D
Ġmight ily
per or
per ly
per ion
per form
Ġstand ard
Ġtr ained
Ġco zen
Ġco xcom
ens ate
ens able
ens ible
Ġad jo
Ġad oring
Ġad heres
Ġhast en
Ġpres erving
Ġpres umption
Ġpres ervation
Ġimp osed
Ġnight ly
ab y
ab outs
Ġcomm itting
Ġcomm odity
aint ies
Ġob dur
Ġfo aming
How e
How ever
che st
ger y
ec a
ec ess
ret ty
ret ched
Ġgr oups
Ġfear less
ip ment
Ġwork shop
Ġdre gs
Ġcomp rom
Ġcomp ound
Ġcomp let
Ġcomp ressed
Ġcomp osition
Ġcomp lying
Ġcomp arison
Ġcomp osure
Ġcomp ensate
ĠJ ule
ĠJ anuary
Ġthr ashing
Ġrest ful
Ġrest eth
Ġrest lessness
ove reign
Ġend less
Ġstre aming
Ġconf ounds
Ġrep aid
Ġrep rodu
Ġrep rieve
Ġshow ered
Ġfair ies
fa ith
lov ing
lov es
Ġworld s
Ġhel ms
Ġdel icious
Ġdel ivery
ult s
ss a
Ġinst alment
Ġhour ly
Ġadd er
Ġadd itional
Ġap athy
Ġap othecary
Ġte acher
Ġdist raught
Ġgu ards
Ġcle ave
Ġcle verest
Ġbus ied
Ġsweet heart
Ġneed n
Ġneed y
Ġem bro
Ġem ulation
Ġfar things
Ġsister s
Ġass ay
Ġter rified
Ġbre ach
Ġbre aches
Ġbre thren
Ġthree fold
Ġlight er
Ġlight ing
Ġim me
Ġsil ently
up ov
Ġint im
Ġint rig
Ġint imate
Ġint ensity
Ġatt orne
Ġatt raction
Ġkind s
Ġkind le
led ged
Ġserv ing
Ġserv itude
Ġlie u
Ġsimp les
Ġsimp ler
Ġbes iege
Ġgot ten
let ails
Ġma im
Ġma il
Ġche at
Ġche ck
Ġche ers
Ġdru gs
Ġdru dge
When ce
me an
Ġsat in
Ġsat ir
ĠIn to
Ġvo id
Ġland owner
Ġta pped
Ġsub orn
Ġsub urbs
iet ies
Ġmist ook
Ġcount en
Ġkill s
Ġsoon est
tend om
Ġsent iments
Ġfool ing
Ġfool ery
Ġbusiness like
Ġlaw less
Ġcr ad
Ġcr inol
ati ate
Ġmeet s
ĠWe b
Ġvis or
Ġvis ion
Ġvis ible
Ġsupp le
Ġsupp ressed
Ġhusband ry
Ġexp ensive
Ġexp ounding
Ġins pired
Ġins ignific
Ġpol ished
Ġcar ved
Ġcar ters
Ġcar ouses
Ġcar bon
Ġless en
Ġide al
Ġbu ff
Ġbu bble
Ġhalf penny
Ġtong ueless
Ġcrown er
Ġnews paper
Ġdisc red
Ġdisc ours
Ġdisc ords
Ġwrong fully
ail ing
ĠFor rest
Ġpri cks
Ġfound ations
Ġfact ious
Ġchar ms
Ġchar ters
Ġspo iled
Ġspo ils
Ġgentleman ly
Ġban ging
Ġunc on
hes is
Ġdra p
Ġinter cept
Ġinter cess
Ġinter rog
Ġinter course
Un fold
Ġir ks
Ġir ony
Ġpleas eth
Ġhard est
Ġstr ide
xt on
ash y
ield y
Ġworth ier
Ġworth iest
Ġhor iz
Ġstate ly
Ġadv antages
ĠPro te
ĠPro ceed
ĠPro bably
Ġhar ms
Ġhar ping
St ir
St range
sp read
sp arrow
Ġri ve
Ġri pen
Ġmaster ly
Ġca lendar
Ġstraight forward
ĠTh ird
Ġact ivity
Ġinc ur
Ġes p
Ġfree ze
Ġbeh ove
ph os
Ġfan atic
ract ical
Ġsun s
Ġsun light
Ġlod ges
Ġreg ained
Ġreg ards
Ġreg reet
ĠVI I
Ġcap ricious
Ġref res
Ġref using
Ġref uge
ĠLe nd
ĠLe ft
ĠLe icester
Ġform ing
Ġform ally
Ġarm ies
Ġdep ri
Ġdep uties
Ġser geant
Ġfal ter
Ġfal tering
Ġsign ing
Ġsign ature
Ġsign ories
Ġshame faced
Ġgre ets
Ġdec rep
Ġdec rees
Ġwatch ful
Ġcomfort ing
Ġcomfort ably
Ġgrave ly
Ġune ven
Ġcold er
Ġinf l
Ġinf irm
Ġinf ancy
Ġinf idel
Ġinf idels
Ġinf allible
idd its
Ġrel ied
Sir s
Ġpolice men
Ġstep mother
Ġobs cure
Ġexpl oit
Ġspir ited
Ġdesp ise
Ġdrunk ards
Ġmut ter
Ġbra zen
Ġflat tered
Ġmet e
Ġdro pp
Ġind ist
Ġind isp
Ġtre ads
Ġdark er
Ġdark en
Ġdark est
Mar fa
Mar iner
Ġdisp ose
Ġdisp roportion
Ġsorrow ful
Ġext ravagant
Ġdet ain
Ġdet ained
Ġdet ected
Ġdet ested
Ġcountry man
Ġprop ose
Ġi bat
Ġconv ince
Ex p
Ex am
Ġthank ed
Ġsick ening
Ġstrong est
Ġpay ments
Ġcourt ship
Ġcourt iers
Ġexpress ing
Ġbo ard
Ġbo iling
Ġwel kin
ple ase
Ġcru elly
Ġcru shing
Ġvill ages
Ġgod less
ĠLet he
Ġproud ly
Cl ifford
vour s
Ġfore run
Ġfore father
Ġfore tell
Ġfore seen
Ġfore taste
Ġrepe l
Ġrequ ital
Ġhundred th
An gelo
Ġopp onent
Ġden ial
Ġden ote
Ġcur ly
Ġcur bs
ĠHer uv
ac key
bb ot
ĠSt afford
Ġoffic ially
Ġappear ances
vo ke
Ġdam ages
Ġsk ins
Ġpar le
Ġpar ch
Ġpar ley
Ġpar allel
Ġpar adise
ans ies
Ġdeal ings
Ġaff able
Ġcut ting
Ġpu zzled
Ġpu ppets
Ġsusp ense
Ġlead er
Ġfast en
Ġsecret ary
Ġspirit ual
uous ly
En force
Ġimag inary
end o
ĠWhere in
ĠWhere fore
Ġval ued
Ġval anced
Ġcler gy
Ġye w
with out
Ġed ict
Ġed ges
Ġed itions
Ġorder ly
Ġprev ails
gg ar
gg ard
Ġage nda
Ġscar f
MAR K
Would st
Ġbow ing
Ġtrust ed
Ġmove ables
Ġviol ate
Ġvillain y
Ġanx ieties
Ġconvers ations
but ton
Ġfit ter
Ġdef iled
Ġchange ling
ech o
Ġcol oured
Ġcol umb
ench ing
Ġimport unate
Her mione
she athe
Ġve he
Ġve al
PO LONIUS
Ġsur ly
bs erved
cul ate
Ġbar rel
Ġbar bar
Ġbold er
Ġfaint est
Ġpost erns
peak able
ĠWith in
Sh ort
Ġmock ed
Ġcreat ing
Ġpen ury
Ġpen cil
Ġallow ing
Ġallow ance
Ġprov incial
Ġsqu e
Ġsqu ab
Ġbene fic
Ġbene fits
Ġdri ves
ĠAN D
Ġunt ie
Ġunt ainted
Ġunt ouched
Ġplain ness
Ġwarrant s
Ġmod eration
Ġconcl usively
ccess ful
cri pt
ron ounce
Ġfr ames
Ġattend ance
Ġattend ants
Ġadm in
Ġadm iring
Ġharm ful
nat ure
Ġsle nder
Ġsle eve
Ġund es
Ġsatis factory
May or
May be
Ġmed d
Ġappro aches
Ġappro pri
Ġpluck ed
Ġmor ality
Ġgar ment
Ġgar lic
Ġgall ery
Ġdecl ining
ĠPl ashy
Bec ome
ĠU lyss
Ġfirm ament
Ġoffend ers
Ġagree ing
li est
und ers
Ġwild erness
Ġfet ched
Ġdress es
ĠMont gom
Ġpubl ish
Ġfresh ness
Ġthird ly
Ġsuccess fully
ĠSen ate
Ġgener osity
Pro du
Pro sper
Pro fess
con stable
Ġwed lock
Ġglo ating
Ġty pes
Ġfin ishing
Ġgro ve
Ġspeed ily
Ha ppily
Ġwoo ers
Ġwoo llen
iter ature
Ġdiv ide
Ġlow est
Ġinno cency
Ġeff eminate
Ġcompl ices
Ġarri ving
ĠWill oughby
Ġexec uting
gr ound
Ġdrown s
Ġnecess ities
Ġnecess aries
ĠEx cept
ĠEx cellent
Ġtort oise
Ġthri ving
Ġintend s
Ġkna very
Ġtrib ulation
Ġaccept ance
See ing
See king
Ġble w
Ġbase ly
Ġpur ged
Ġuns k
Ġuns haven
Ġuns peakable
ighb ours
Ġbrave ly
Ġincl in
Ġincl uded
Ġenc oun
Ġenc ompass
Ġcope ck
ĠGloucester shire
com es
Ġtear ful
Ġhealth y
Ġpun ished
Ġele vent
Ġfors ook
Ġsol ace
Ġconsent ing
Ġimpress ive
Ġdepart ing
Ġdepart ment
fit able
ib ble
Ġtor ches
Ġtor ments
Ġlim ited
Ġpal er
Ġpal ate
Ġpal ates
Ġfetch ing
Ġver ge
Ġda isy
ĠPar asha
Ġpawn ed
Ġlisten er
Ġlisten ers
Qu it
Qu ick
ex ec
Ġpurs es
Ġpurs ues
arl isle
Ġthreat ened
Ġsuper stit
Ġsuper cil
Ġbattle ments
eem er
Ġba it
Ġeld ers
ĠSu ppose
ĠAr t
Ġconscious ly
ĠEnglish man
Ġtemper ance
Ġtemper ately
Ġtrans g
Ġtrans formed
LORD S
house l
Ġsen is
Ġcre am
Ġpet tic
Ġpet itions
Ġdeg enerate
Ġord inance
Ġprotest ing
Ġaffect ation
Ġfeast ing
Ġconsul s
Ġoccasion ally
Me asure
Me aning
Ġtreat y
Ġtreat ing
Ġequ ally
Ġequ ality
Ġequ ipment
Ġenjoy s
Ġsli ppers
Ġyellow ish
Ġpat ches
Ġbew ray
Ġbend ed
Ġstart s
Ġkn ell
Ġkn itted
ĠAl though
Ġworship ful
Ġbrid le
Ġconvin cing
Ġinnocent s
Con f
bear ing
Ġlan tern
Ġeager ness
Ġvar ied
Ġvar iable
ĠGerman s
Ġjour nal
Ġrecogn ising
Ġcruel ty
Ġmiss y
Ġmiss ing
Ġmiss ion
Ġbod kin
Ġdull est
Ġlament ations
Ġdepend ing
Ġundert aken
Ġimm od
Ġimm inent
Ġwisdom s
Ġbirth s
Ġcred ent
Ġcred ulous
Ġline al
Ġline aments
Ġlab ours
Ġspring e
Ġpla us
Ġdesert s
Ġkneel ing
Pl uck
fall s
fall en
ien cy
wear y
Ġ1 859
Ġmag gots
Ġfant astical
Ġcustom ers
Ġdi vid
Ġdi vers
Ġdi amond
Ġstuff y
Ġstuff ed
Ġrepl acement
Ġspot less
Ġspot ted
Ġcontro versy
Ġcock ed
Ġcock le
Ġreply ing
po inted
Ġlot tery
Ġhabit ual
Ġstar ved
Ġnice ty
Ġalarm ing
Ġroot s
Ġlean ness
Ġprote ction
Ġprote ctors
Ġarg ue
Ġplan et
Ġcoll ar
Ġcoll ection
Ġkitchen s
Master s
cha rit
Ġtent h
Ġball ots
Ġball oon
Ġball ads
Ġstro de
Ġanno ying
Ġconvey ance
Ġexceed s
Ġheav iness
Ġpersu ading
ĠUn sifted
Ġsour ce
Ġbas er
Ġbas il
Ġbab ies
Ġpack ed
Ġstat us
ĠMerc iful
Ġeng ross
Ġobserv ing
Ġobserv ations
Ġcounter mand
Ġcounter po
Ġdisgrace ful
Ġembarrass ing
go ing
mn asium
rate ful
ug ging
Ġwet ted
Ġmotion ed
Ġpick ers
Ġhaught iness
Ġhaught ily
Ġorgan ised
Ġorgan isation
Ġremark able
Ġremark ably
Ġscandal ous
Ġcommend able
Ġsquee ze
Su ddenly
Ġpure ly
ĠHa ppy
Ġswift ly
Ġbelong ing
Ġtrad ition
Ġtrad itional
Ġincre asing
Ġembrace ments
Ġaston ishing
Ġsal ute
Ġcab man
Ġshepherd s
run ning
ĠBl ack
Ġobst inate
Ġrememb ers
Ġdiscuss ing
Ġfeverish ly
Ġmoral ities
acc ine
him self
vi are
val ued
Ġcent uries
Ġpress es
Ġhist orical
Ġbroad er
Ġclever ly
Ġdamn Ã¨d
Ġhospital ity
Bl ind
Bl ack
Ġsly ness
Ġfil m
Ġdumb found
ĠHim self
Ġshirt s
ĠAm azon
ĠAp ril
Ġvol upt
Ġflow ing
Ġclass es
Ġwanton ness
Ġcover ing
Ġgrat ify
Ġintrodu ction
Ġintrodu cing
Ġcorrupt ed
Ġsumm ers
AL L
act ive
Ġmat ches
Ġpier ced
sec ond
Ġrecei ves
ĠAb hors
ĠAb raham
Ġamb ush
Ġamb assad
Ġblock s
Ġdiss olute
Ġdiss olve
Ġsmart ly
Ġcompan ions
Ġattack s
Ġjoint ure
sc aped
Ġwand ered
Ġbru shed
Ġborrow ing
Ġfist s
Ġfret ful
Ġfret ted
keep ing
ĠAf ri
Ġlog ic
new s
Ġsmell s
Ġsmell ing
ĠĠĠĠĠĠĠĠĠĠĠĠĠĠĠĠĠĠĠĠĠĠĠĠĠĠĠĠ ĠĠĠ
Ġharsh ly
Ġsymp ath
Ġcompassion ately
Ġfish monger
Ġfrant ically
Ġhost ess
Ġhost ility
Ġneg ative
Ġsail ors
Ġarrange ment
Ġflood s
Ġrum our
Ġswallow ing
Ġswallow ed
Ġtend ers
Ġhunt ed
ĠĠĠĠĠĠĠĠĠĠĠĠĠĠĠĠĠĠĠĠĠĠĠĠ ĠĠĠĠĠ
Ġrelation ship
Ġcurrent s
Know s
br ain
ey e
Ġtou ches
Ġtou cheth
Ġapt ly
Ġmas qu
Ġmas tered
Ġbill s
Ġcher ished
Ġcook s
Ġport s
Ġhaunt s
Ġwealth y
Ġbutcher s
Ġshrie ks
Ġshrie ked
Ġgoss ips
Ġris ked
Ġqual ify
Ġovert aken
Ġdescend ing
Ġdescend ed
Ġarticul ate
Ġresist ance
Ġdeliber ating
Ġtail ors
Ġdiscover ies
Ġcurt ains
Ġcurt sy
Ġdares ay
Ġcigaret tes
Ad ieu
Show ing
oc ation
Ġmass acre
Ġband y
Ġcas u
Ġhook s
Ġreve al
Ġvig orously
Ġung entle
Ġung racious
Ġcomb at
Ġrust y
Ġcoff ers
Ġresp ond
Ġresp onse
Ġaccomp any
Ġrepul sive
Ġassoci ate
Ġmonument al
Ġpolit ic
Ġmisfort unes
Ġinfinite ly
Ġstrugg led
Ġstrugg ling
Ġparag on
Ġpurcha sed
Res olve
Sp oke
pr oud
Ġach ing
Ġsed uct
Ġsed uced
Ġwid est
Ġbri cks
Ġhom ic
Ġstamp ed
Ġrevere ntly
Ġprovo ke
ĠBer g
ĠBer lin
âĢĶâĢĶ ,
Ġregret ting
Ġsignific ant
Ġsignific antly
Ġbastard y
Ġessent ially
Ġward er
Ġwag on
Ġcot tage
Ġdom estic
Ġpear ls
Ġshoot ing
Ġamend ed
Ġunlike ly
ĠLud low
Ġclam orous
Ġcheap est
Ġdram atic
Ġesteem s
Rep ent
Rep air
TE D
Ġrig our
Ġtu bercles
Ġling ered
Ġpond ering
att ling
Ġgri pped
Ġalle ys
emper ance
Ġfawn ing
Ġexclaim s
Ġexclaim ing
Ġdisplay ed
Ġprejud ice
ĠTH OMAS
Ġhelm ets
Ġapolog ies
Ġrecord ed
Ġbestow ed
Ġbrand s
Ġbrand ed
Ġpractical ity
Ġfiend s
Ġparagraph s
Bear ing
Lu zhin
Per chance
Read s
pent er
Ġmus ical
Ġmus lin
ita e
Ġthirst y
Ġdefect s
ĠSund ays
Ġunjust ly
ĠNew ton
ĠThan ks
Ġimpl oring
Ġimpl ored
Ġaccom mod
Ġcomplex ions
Ġstrang est
Ġstrang led
Ġstrang eness
Ġtroubles ome
Ġinquisit ive
Ġphysic ians
Draw s
Im agine
Somet hing
log ue
maid s
than k
Ġtro d
Ġtro dden
Ġtum ult
Ġtum bling
Ġtink er
Ġwest ward
Ġbol t
Ġbol ted
Ġbul wark
Ġbag s
Ġbuck le
Ġbuck et
Ġfed eral
Ġfum es
Ġfum bled
Ġhill s
Ġnet tle
Ġnet tles
Ġdeject edly
Ġunre vere
ĠGree k
ĠGree ks
Ġblaz on
Ġdissem bling
Ġscow l
Ġscow led
Ġimpart ially
Ġresc ued
Ġindepend ent
Ġvivid ness
Ġsuffic iency
Ġflatte rer
Ġcontrad iction
Ġfierce ly
Every thing
aut us
mon strous
prop ortion
Ġcro pp
Ġcro aking
Ġlur k
Ġlur king
Ġpi kes
Ġpred omin
Ġink ling
Ġbeck on
Ġanim ated
Ġrad iant
istrib ution
Ġlect ures
Ġworm wood
Ġprodig y
Ġargu ing
Ġargu ed
Ġargu es
Ġspark ling
Ġbrut al
Ġbrut ish
Ġbrood ing
Ġenforce ment
LIS BURY
Ġcontem por
Ġswoon ing
Ġsubs cribe
Ġsubs cription
Ġawa ited
Ġawkward ly
Ġincred ible
Ġincred ibly
Ġdecis ions
Ġinfam ous
Ġprophe cies
Ġparce ls
Ġpatron ess
Ġrecollect ing
Bra ve
Gl ad
Gl oucester
Sm ile
bell ious
des ire
pers on
tra p
vail ing
war rant
Ġtur tle
Ġtur mo
Ġfres hest
Ġfount ains
Ġrev ulsion
Ġdegr ading
ĠSe bast
ĠPh ys
Ġorn ament
Ġunacc ustom
ĠLove l
Ġcompe ll
Ġprovid ence
Ġbegu ile
Ġbegu iled
Ġsland ers
ĠJu no
Ġappl ause
Ġappl ied
Ġstead ily
Ġrefer red
Ġdecor ated
Ġbenevol ent
ĠUnder stand
Ġidiot ic
Ġfrag rant
Ġapprehend s
Ġinsinu ate
Fall s
sl ate
shap en
Ġsne ering
Ġbull et
Ġfest ival
Ġcu ps
Ġcult ure
Ġdiver t
Ġdiver ted
Ġsear ched
Ġant ique
ĠPart y
Ġunin vited
Ġcomr ades
Ġabund ant
Ġabund ance
ĠGentle men
Ġpoet ry
ĠTur ks
Ġadul teress
Ġdistrust fully
Ġmurm ured
Ġterr ors
Ġtravel s
Ġmiser ably
Ġbuzz ard
Ġdepth s
ĠIsland s
Ġgreed iness
Ġindic ating
Ġindignant ly
Ġdetest able
Ġparas ite
Ġaffront ed
Ġdivor ced
Ġlengthen s
Ġderan ged
Ġestablish ments
ĠnaÃ¯ve ly
Aw aked
Ca ius
Wit ness
Wit hal
call ed
iqu ity
kn it
kn ife
spe ech
serv ice
tong ued
wit hal
Ġtren ches
Ġsess ion
Ġost entation
ĠIm agine
Ġpom atum
Ġpip es
Ġbeet le
Ġbeet les
Ġgam ut
Ġgam bler
stru ck
ĠRed eemer
ĠSix th
ĠWest min
Ġrhy mes
ĠOver done
Ġloc ated
Ġgrasp ed
Ġinstit ution
Ġcrut ch
Ġcrut ches
Ġmisunder stand
Ġmisunder standing
Ġincor por
Ġpromot ing
Ġpropos als
Ġmajest ical
Ġsurm ise
Ġadmon ition
Ġslipp ery
Ġbilli ard
Ġbilli ards
Ġdisinher it
Ġdisinher ited
Persu ade
Persu ades
ĠEgypt ian
Ġhypochondria c
Ac quaint
Br ought
Bene ath
Char ge
Er r
Ko ch
Kat harina
Purs uivant
bes eeming
mir ched
part icul
Ġ20 0
Ġsine ws
Ġmuff led
Ġom inous
Ġcuff s
Ġhilt s
Ġgy mnasium
Ġgru b
Ġgig g
Ġepit het
Ġsequ el
ĠRap hael
Ġdole ful
ĠPLA TFORM
Ġuna voided
Ġexh ibit
Ġexasper ated
ĠGonz ago
ĠDem ocratic
ĠDel phos
Ġprolong ed
Ġrobb ers
Ġflin ty
ĠValent ine
Ġdisl oyal
Ġtram ple
Ġresour ce
Ġconfed erate
Ġappar ition
Ġexpost ulate
Ġincomp ar
Ġinfring e
Ġobsc ured
Ġcondescend ing
Ġconvuls ively
Ġcruc ified
Ġparl ous
Ġsqueal ing
ĠChris tendom
Ġmagist rate
Ġunluck ily
Adv ance
Ġdisobed ient
Den y
ILI TY
Rev ol
Sen ators
Sland er
Us urp
ben on
creat ure
ige ia
virt ues
Ġav ouch
Ġming le
Ġhero ic
Ġthump ing
Ġinatt entive
Ġnom ination
Ġgna w
Ġstith y
Ġstamm ers
Ġaspir ing
Ġkil n
Ġannihil ated
ĠSA LISBURY
Ġnep hew
Ġmang led
Ġgos pel
Ġunatt ainable
Ġunnecess ary
ĠLy curg
ĠCH ARLES
ĠCle omenes
ĠCast le
Ġrhe um
ĠrÃ´ le
Ġexhil arated
ĠOSR IC
Ġarrog ance
Ġspontane ously
ĠBar bary
Forth with
Ġchival ry
ĠVal eria
Ġpercent age
Ġchal k
ĠFriend s
ĠFrants ovna
ĠYus upov
Ġpartners hip
Ġprel iminary
Ġprecept s
Ġpreca ution
Ġjustif iable
Ġcourte ously
Ġglimp se
Ġcommer cial
Ġminstrel s
Ġappell ant
Ġmisrep resent
Ġdragg letails
Ġstratage ms
Ġindust ri
Ġmole hill
Ġunwill ingly
ĠGovern ment
Ġpunct ually
Ġunpro fitable
Ġmagaz ine
Ġargos y
Ġglee fully
Ġrumm aging
Resc ue
logg ats
Ġtroph y
Ġsarc asm
Ġinherit ance
Ġsulph urous
Ġhamm ering
Ġcelebr ated
Ġwreath s
Ġsnigger ing
Renown ed
Breat he
BLU NT
Chan ge
Host ess
Jul iet
Mond ay
MALO NE
Point ing
Soul s
Tong ue
corn er
ĠÃ¦ st
Ġsout her
Ġmic ro
Ġmach ine
Ġbau ble
Ġboun teous
Ġbrib es
Ġfid get
Ġfash ions
Ġdast ard
Ġhect ic
Ġphal anst
Ġponder ous
Ġinhum an
athani el
Ġgaud y
Ġeart hen
Ġeaster n
Ġsteter at
Ġrevi ved
Ġwelf are
Ġnonc hal
Ġlibr ary
ĠRago zine
ĠHarl amov
ĠHallow mas
Ġsult ry
ĠSEC OND
ĠPoss ibly
ĠWee kly
ĠAGRE E
Ġgoats kin
Ġunnot iced
ĠLamm as
ĠLIMI TED
ĠChar les
ĠCob ham
ĠCros by
ĠGog ol
Ġproff er
Ġsprit es
Ġmademois elle
ĠBrist ol
ĠBrand on
Ġlethar gy
Ġdisper se
Ġdisappe ared
agab ond
Ġscaff old
ĠFIR ST
ĠFyod orovna
ĠTerm agant
Ġconspir acy
Ġobdur ate
Ġimme as
Ġattorne ys
Ġcrinol ine
Ġintercess ion
Ġfanatic ism
ractical ity
Ġdecrep it
Ġinfirm ity
Ġindisp ensable
ĠHeruv imov
ĠUlyss es
ĠMontgom ery
Ġelevent h
Ġpettic o
ĠAbhors on
Ġturmo il
ĠSebast ian
ĠWestmin ster
Ġphalanst ery
! ]
! ).
" !
" _
' ;
) (
) ;
, )
0 0
; âĢĶ
? ]
A G
A ha
A im
A do
A CH
A nointed
A dding
A riel
A bbot
B u
B ast
B oot
B ase
B UT
B ianca
B ishop
B ushy
B OO
B ILITY
C he
C ha
C or
C ull
C ARD
C oun
C amb
C aptain
C uts
C alm
D E
D i
D ou
D re
D or
D an
D ay
D ro
D ry
D ies
D ull
D eep
D rop
D enmark
D BURY
D ashes
D istrib
D ivine
D rawn
E ar
E st
E arl
E mb
E leven
F e
F an
F our
F am
F il
F ast
F are
F riend
F rench
F oundation
F RANCIS
F urther
G G
G ot
G one
G ave
G ross
G rief
G remio
G eneral
G rim
G allop
H y
H im
H us
H um
H ist
H ull
H EY
H over
H onour
H ope
H onest
H alf
H aply
I no
I nt
I ng
I TH
I ron
J ack
J oy
J ud
J ove
J ump
J ohn
K in
K arl
K illing
L ent
L ic
L ist
L ife
L ying
L aid
L ament
L ift
L iterary
L arded
L awful
L ascivious
L augh
M r
M as
M id
M atter
M iss
M ont
M ars
M aid
M ortal
N ew
N ature
N ymph
O ver
O pp
O ft
O urse
O SE
O USE
P o
P om
P ri
P our
P ur
P ast
P ig
P ity
P ress
P ier
P ages
P rick
P adua
P isa
P retty
P ronounce
Q ual
R ound
R age
R ise
R ouse
R ising
R ivers
R ob
R IST
S I
S N
S l
S or
S ed
S ith
S pe
S hed
S pl
S aint
S ham
S und
S ea
S cr
S ax
S iberia
S ilence
S imply
S death
S afe
S ubject
S imois
T y
T it
T or
T im
T ri
T ear
T US
T ick
T aking
T read
T RA
T roth
T aste
T ribunes
V P
V o
V en
V ile
V ater
V ince
V EL
V ID
V erona
V isit
W on
W ind
W ear
W ise
W ash
W ork
W rit
W rench
W ords
Y ER
Y ork
[ _
_ --
a cent
a ctly
a vour
a cheth
a ciated
b out
b one
b ig
b age
b rief
b eth
b bles
b ring
b ank
b ones
b reed
b esides
b ah
b rate
b ishop
b ridge
b awd
c ut
c ke
c ill
c and
c ard
c are
c ation
c row
c ass
c old
c ap
c ade
c over
c oll
c rows
c iful
c ote
c uni
d p
d ost
d ie
d ened
d ated
d ition
d ying
d ging
d ressed
d oes
d rum
d amn
d ares
d iot
d yed
e es
e ce
e ck
e ves
e king
e ys
e rers
f r
f at
f et
f our
f ant
f ear
f are
f urn
f ree
f ire
f air
f ool
f ix
f ices
f lect
f olks
f umed
f alse
f inger
f urther
f utable
g en
g ome
g ess
g ant
g od
g ate
g ence
g ier
g ling
g ars
g iver
g oose
g ays
g dp
h ome
h ot
h ic
h ide
h ose
h rew
h unt
h ours
h ib
h onest
h ttps
h onesty
i i
i om
i pl
i ents
j or
j ar
j urious
k ill
k na
k iness
k ily
k nock
k new
k fulness
k issing
l a
l en
l am
l ast
l ist
l op
l ies
l ace
l ittle
l ife
l ix
l uck
l iver
l asm
l igate
l borough
m a
m ith
m our
m out
m ous
m ind
m ally
m ates
m outh
m usic
m otion
m arry
m amm
m oves
m ois
m sey
m pled
n z
n ay
n ard
n ings
n ants
n ony
o an
o pp
o be
o ons
o ated
o kes
o lete
o ked
o ppy
o ppers
p Ä
p id
p ill
p ain
p ate
p ig
p ound
p able
p ite
p ap
p ile
p hin
p ock
p arted
p ortion
p rison
p rus
p gdp
r Ä
r is
r ad
r ame
r ather
r ise
r ors
r ates
r ative
r imony
r fume
s m
s om
s le
s ill
s ol
s now
s ound
s ign
s un
s che
s ense
s leep
s men
s uck
s oe
s urpr
s aid
s worn
s erves
s uit
s ilence
s urely
s ubject
s imple
t re
t ut
t all
t own
t ine
t reat
t ide
t alk
t rust
t rial
t ruly
t ino
t rad
u is
u ance
u ities
u asion
u nivers
u ption
u ccessful
v at
v ul
v ation
v ors
v ices
v illain
w a
w he
w in
w on
w es
w est
w ant
w all
w are
w ish
w right
w itch
w alk
w ilt
w rit
w arm
w ashed
w ives
w arn
w onder
w ooing
x es
x om
x ter
y l
y n
y ant
y ear
y right
y ears
y oke
z es
z umihin
z ied
¡ cter
Ã ³
Ã ¡cter
Ġ $
Ġ 2
Ġ 9
Ġ :
Ġ ]
Ġ Ċ
Ġ vers
Ġ ident
Ġ UT
Ġ iv
Ġ 13
Ġ ounce
Ġ icy
Ġ 41
Ġ 47
Ġ END
Ġ 90
Ġ ----
Ġ 27761
Ġt an
Ġt ir
Ġt al
Ġt out
Ġt esty
Ġt ub
Ġt allow
Ġt urb
Ġt aming
Ġt inge
Ġt abour
Ġt haw
Ġt ugging
he ir
he th
he nt
he less
he ars
he tic
Ġa ed
Ġa right
Ġa ug
Ġa qua
Ġa jar
in c
in ch
in us
in ine
in ue
in ently
in ning
in cess
in terest
in cluding
in utive
Ġs ou
Ġs ce
Ġs ill
Ġs ci
Ġs ally
Ġs akes
Ġs ways
Ġs inks
Ġs ang
Ġs andal
Ġs ipped
ou ries
Ġw i
Ġw ive
Ġw ince
Ġw ool
Ġw ield
Ġw ade
Ġw har
Ġw aded
Ġw ww
re ve
re now
re nder
re ft
re ments
re ceive
re lly
ha st
ha ble
ha ste
nd om
nd ent
Ġm im
Ġm ul
Ġm ice
Ġm oth
Ġm ire
Ġm ix
Ġm ason
Ġm oun
Ġm akest
Ġm oult
Ġb iss
Ġb ower
Ġb rig
Ġb ared
Ġb ars
Ġb ased
Ġb orough
Ġb order
Ġb aker
Ġb ias
Ġo o
Ġo men
er b
er an
er ver
er ick
er ates
er ately
er bear
er top
er cies
er ration
er past
er weigh
it ar
it ter
it ied
it ched
it zwater
is er
is an
is ome
is per
is tered
is ka
is ins
is ans
is sez
is heth
Ġf ay
Ġf oo
Ġf ust
Ġf itt
Ġf ert
Ġf aster
Ġf lex
Ġf rying
Ġf ade
Ġf idd
Ġf ined
Ġf reed
Ġf ume
Ġf ester
Ġf idel
Ġf ye
Ġf ero
Ġc ess
Ġc able
Ġc ack
Ġc ull
Ġc age
Ġc ater
Ġc oy
Ġc ip
Ġc akes
Ġc iv
Ġc ats
Ġc ures
Ġc rot
Ġc unn
Ġc inq
Ġc oven
en ment
en cing
en force
en cies
en counter
or a
or al
or ity
or able
or ied
or ged
ll o
ll ion
on st
on ly
on ation
on ement
on ours
Ġd ic
Ġd ul
Ġd ive
Ġd au
Ġd ough
Ġd ag
Ġd ial
Ġd ates
Ġd ump
Ġd aunt
Ġd omin
Ġd urance
Ġd arts
Ġd umps
Ġd yed
Ġd renched
Ġto ol
Ġto day
ing es
ing ling
Ġhe w
Ġhe nt
Ġhe wn
Ġhe ated
Ġhe reditary
Ġh ound
Ġh ue
Ġh ies
Ġh ild
Ġh ired
Ġh oop
Ġh inges
Ġl ure
Ġl imp
Ġl ud
Ġl ime
Ġl ined
Ġl ances
Ġl ashed
Ġl av
Ġl avish
Ġl ackey
es e
es nes
es ki
ĠI r
ĠI ni
ĠI nt
ĠI ND
ĠI diot
Ġp s
Ġp ly
Ġp am
Ġp ul
Ġp ence
Ġp ose
Ġp oth
Ġp ag
Ġp ies
Ġp ens
Ġp int
Ġp rig
Ġp alt
Ġp ump
Ġp ities
Ġp ortal
Ġp ane
Ġp yr
Ġp aws
Ġp oult
Ġp ansies
hat ing
hat ch
ar ve
ar ri
ar aÃ¯
ar ner
ar ling
ar ists
ar allel
ar iably
as el
as ps
as eth
an z
an es
an ill
an ter
an ge
an ous
an ni
an ched
an cial
an nel
om b
om ensky
om plete
Ġth ud
Ġth igh
Ġth imble
Ġin it
Ġin se
Ġin art
Ġin ky
Ġin forced
at a
at ible
at ten
at form
at ures
at oes
at rick
at ulate
at uation
Ġno st
Ġno vices
Ġha l
Ġha ms
Ġha ggard
Ġbe lf
Ġbe te
Ġbe que
Ġbe mo
ve x
ve ying
ve rer
Ġg un
Ġg ab
Ġg aw
Ġg ale
Ġg aining
Ġg illy
Ġg hast
Ġg eran
ĠĠ Ċ
st al
st ill
st ood
st ers
st ud
st ition
st ones
st range
st inct
st inate
st orm
st rue
st oried
le m
le on
le ave
le isure
im er
im on
im bly
im inate
im agine
ut ers
ut ors
ut tered
ut oly
ut tering
ce l
ce ase
ce mber
se ed
se ly
se au
se amed
se cr
se ems
ay nard
et ary
et heless
ow ls
ld st
Ġit ch
Ġe cl
Ġe ased
Ġe go
Ġe wes
id al
id able
id ated
id ently
Ġnot ched
Ġnot ches
ir a
ir ious
ir ited
ir ium
ir anda
Ġu gl
Ġu lter
ch ing
ch ion
ent ity
ent ire
ent ial
ent iously
Ġon ion
Ġfor k
Ġfor fend
Ġfor feits
Ġst able
Ġst ings
Ġst up
Ġst aid
Ġst ony
Ġst ages
Ġst udd
Ġst inted
Ġst ub
Ġst inging
Ġst aves
Ġst ables
Ġwith holds
Ġme hr
Ġme ats
Ġis ol
ro l
ro cious
ro ying
ro ses
Ġhis s
ri p
ri ot
ri ers
ri ff
ri king
ri ctions
ri etary
Ġwas ting
Ġre fe
Ġre dd
Ġre ek
Ġre lease
Ġre ference
Ġre version
Ġre lying
Ġre search
Ġre hearse
Ġre voke
Ġre eking
Ġwe an
Ġwe asel
ad ation
ad rang
ad ders
al o
al ty
al ways
al con
ill ery
ill ius
ver se
Ġas set
Ġas lant
Ġas yl
Ġn once
Ġn avy
Ġn avel
Ġn imbly
And rey
our aged
our teous
Ġher mit
Ġat onement
Ġat rocious
ter ms
ter natural
Ġk am
Ġk ni
ur ring
ur rah
ur lish
am y
am er
am our
am iliar
am bering
am illius
Ġso b
Ġso ps
Ġso ever
Ġso les
Ġso ars
Ġso fter
Ġli ver
Ġli able
Ġli bel
Ġli fet
Ġwh ine
Ġwh ined
Ġwh iff
ot es
ot us
ot ted
ot ism
out ham
Ġse w
Ġse in
Ġse ct
Ġse lect
Ġse als
Ġse eds
Ġse asons
Ġse lves
Ġse xton
ck en
ck ery
ĠR est
ĠR un
ĠR ob
ĠH o
ĠH ar
ĠH oo
ĠH ush
ĠH oll
ĠH ung
ĠH oly
ĠH yr
ĠH onest
ĠH aste
ĠH onoured
ĠH acket
ĠH istory
ĠH aply
ĠH OUSE
Ġan ec
Ġan vil
Ġan gered
Ġall y
Ġall ied
ra p
ra ble
ra ven
ra pp
ra ised
ra cks
ra ctions
ra vel
ra zumihin
Ġde em
Ġde ity
Ġde fa
Ġde ities
Ġde claim
Ġde formed
Ġde cked
Ġde faced
Ġde xter
Ġsu iting
Ġdo ers
Ġdo ff
ĠS at
ĠS us
ĠS ure
ĠS leep
ĠS econd
ĠS TA
ĠS ev
ĠS end
ĠS adov
ĠS eem
ĠS cr
ĠS ection
ĠS ax
ĠS TR
ĠS top
ĠS ilver
ĠS overeign
ĠS igeia
ĠS outham
pe er
pe cial
ol st
ol ution
ol ste
ol got
ol itan
ol omensky
and id
and ers
ord o
ord ered
ord inary
if s
if orovna
ov itch
ov Ã¨d
Ġshe ll
Ġshe lf
Ġshe lves
ru le
ru bber
ĠP G
ĠP R
ĠP en
ĠP ass
ĠP ap
ĠP ark
ĠP ale
ĠP unch
ĠP russ
ĠP rompt
ĠP eski
ĠP atrick
Ġwill st
est an
est ial
est abl
est imation
th ly
th ine
th irty
ge nders
Ġsh in
Ġsh oon
Ġsh ipp
Ġsh runk
us al
us ical
us pected
us cript
ĠW H
ĠW ood
ĠW AR
ĠW idow
ĠW ords
ĠW omen
ĠW Ã¤
ĠW ITH
ic a
ic her
ic ite
ic rous
ic hael
il ant
il ight
il ies
il iments
Ġup wards
Ġup holds
Ġup braid
ell ist
ell igent
ĠA pp
ĠA dd
ĠA ss
ĠA SC
ĠA wake
ĠA utoly
Ġcon y
Ġcon ni
Ġcon gr
Ġcon ceiving
Ġcon join
Ġcon secr
ant ed
qu is
qu ed
qu es
qu ity
qu ire
qu ality
Ġsha ved
Ġsha ping
EN T
EN TA
EN MARK
ak y
ak eth
ul ity
ul arly
ul ously
ul can
ul gence
ard el
em on
em pl
em bered
em aker
em pore
ni est
one ous
Ġfa ble
Ġfa red
Ġne cks
red erick
ven er
ven al
ven ience
res ented
res olved
res seth
Ġv all
Ġv oy
Ġv ary
Ġv ale
Ġv aunt
Ġv icious
Ġv ials
Ġv ouches
Ġv accine
Ġv itae
Ġv agabond
Ġman es
Ġman ors
Ġman sion
Ġman iac
Ġman uscript
Ġam ble
Ġam ber
Ġam pl
Ġam ple
Ġam bling
Ġam using
Ġam iably
Ġam assing
han g
han kfulness
._ --
te nder
te eth
te bank
art ing
Ġor ators
Ġor atory
Ġor ange
Ġgo bl
Ġthem es
ost ly
ast op
ast ically
ast rop
Ġun ion
Ġun imp
Ġun fa
Ġun ken
Ġun ited
Ġun sp
Ġun mit
Ġun king
Ġun well
Ġun gu
Ġun har
Ġun mer
Ġun app
Ġun people
Ġun govern
Ġun advised
Ġun spoken
Ġun anel
Ġun quiet
Ġun redeem
Ġun button
Ġun valued
Ġun knit
Ġun yoke
Ġthere withal
um bed
um mon
ĠM al
ĠM ort
ĠM OR
ĠM itt
ĠM uch
ĠM aking
ĠM ade
ĠM ethinks
ĠM iranda
ĠM amillius
ĠM ichael
Ġsa ge
Ġsa ble
Ġsa ves
Th rew
Th irty
Th rows
Th omas
Th ieves
ĠThe nce
ĠThe ss
ĠThe atre
ĠL ess
ĠL ight
ĠL ive
ĠL IC
ĠL ater
ĠL ON
ĠL uke
ĠL ib
ĠL ots
ĠL iterature
ind ers
ind eed
pp iness
... !"
od ils
Ġcom for
Ġcom eth
au cas
Ġal ab
Ġal tered
Ġal ters
ich ing
Ġout grown
Ġout weigh
Ġout live
Ġag it
Ġag ent
Ġag ue
ĠC ut
ĠC ain
ĠC are
ĠC reat
ĠC ond
ĠC ity
ĠC op
ĠC orn
ĠC ount
ĠC ON
ĠC rown
ĠC itizens
ĠC ertainly
ĠC athed
ĠC arlisle
ĠC otus
ĠC andid
," --
ry wig
ie v
fe w
fe iting
Ġr ar
Ġr out
Ġr ider
Ġr ayed
Ġex ting
Ġex ten
Ġex iled
Ġex alt
Ġex pend
Ġex isted
Ġex cels
Ġex tended
ers ing
ers ways
el ing
el ier
Ġqu ond
Ġqu aff
Ġqu oted
Ġqu ivered
Ġqu iddits
Ġqu ibble
Ġqu adrang
Ġcan cell
Ġab j
Ġab ound
Ġab ides
Ġab rid
Ġab roach
Ġab erration
ist ent
ist rative
ĠG I
ĠG re
ĠG all
ĠG reat
ĠG rig
ĠG race
ĠG arden
ĠG RA
ĠG racious
ĠG olgot
ĠO N
ĠO b
ĠO ld
ĠO rd
ĠO ssa
Ġj ay
Ġj ost
Ġj ars
Ġj ury
Ġj ades
Ġj aws
Ġj acket
Ġj ingling
Ġle v
Ġle ash
Ġle cher
Ġle chery
ort ions
ort ham
ig ger
ig ator
ĠD ag
ĠD ick
ĠD ark
ĠD aughter
ĠD AM
ĠD ev
ĠD ead
ĠD IR
ĠD eep
ĠD isp
ĠD irectly
ĠD IST
ĠD ivine
ĠD ighton
ĠD anes
ĠD ENMARK
Ġbl ed
Ġbl urs
Ġbl anks
Ġbl ushes
to ld
ound relly
Ġlo ft
Ġlo lling
Ġlo bby
Ġus est
na cy
Ġwho lly
Ġpr or
Ġpr one
Ġpr ank
Ġhere to
Ġhere of
Ġhere tic
pt on
He ld
He ir
Ġspe cies
ĠE th
ĠE arly
ĠE cst
ĠE Book
ĠE cho
ĠE BOO
ond rous
Ġpro spect
Ġpro str
Ġpro logue
Ġpro hib
Ġpro lix
Ġar ises
Ġar raign
dd le
Ġsp an
Ġsp at
Ġsp right
Ġsp ree
Ġsp ouse
Ġsp ray
Ġsp itting
Ġsp illing
Ġsp asm
Ġsp heres
What ever
Ġmad house
Ġmad woman
ĠB et
ĠB est
ĠB ear
ĠB ig
ĠB ack
ĠB other
ĠB ab
ĠB ible
ĠB alt
ĠB oulevard
ĠB RE
ĠB aynard
!" âĢĶ
ne as
ne ither
ne ys
Ġpl ight
Ġpl ough
Ġpl ag
Ġpl aster
Ġpl ates
Ġpl ank
Ġpl ots
Ġpl agues
Ġpl atform
.... '"
Ġro e
Ġro lled
ĠN one
ĠN umber
ĠN ares
ĠN ero
ĠN athaniel
AN S
Ġhand ing
Ġhand led
For ce
For ward
For ced
For bid
For bidden
For swear
itt y
ish ness
row ing
Ġaf ire
Ġoff ers
Ġfl out
Ġfl ick
Ġfl ap
Ġfl amed
Ġfl utter
Ġfl ashes
Ġfl ayed
Ġfl uttered
Ġhat es
Ġbeg na
hed ge
we ight
urn ed
nder ing
Ġch is
Ġch ir
Ġch un
Ġch uck
Ġch inks
Ġpo le
Ġpo em
Ġpo ked
Ġpo isons
ĠV ia
ĠV arri
ĠV anill
ĠV razumihin
ĠV ulcan
wn ess
ite ly
ite washed
op sa
Ġtw in
Ġtw os
Ġtw ink
Ġtw igs
Ġtw itched
Ġtw ilight
Ġdis bel
Ġdis arming
Ġdis ordered
ag s
ick en
Ġlove th
Ġlove lier
de ceiving
Ġpe ering
Ġpe opled
Ġpe bbles
Ġpe cuni
Ġpe ndent
Ġbro om
Ġbro il
Ġbro ach
Ġbro cade
right ed
Ġfe igned
imp art
Ġbr ay
Ġbr ats
Ġcl ad
Ġcl oy
Ġcl ip
Ġcl ime
Ġcl ang
Ġcl ub
Ġcl apping
Ġcl oven
Ġcl enched
Ġcl usters
Ġcl icking
Ġcl enching
az an
LO VEL
Ġper ch
Ġper use
Ġper fid
Ġper ceives
Ġper adventure
Ġper dition
Ġper fumed
ap ert
ap lasm
ap olitan
ĠK ill
ĠK rest
ĠK ates
ĠK ean
ĠK olomensky
ull ed
man y
man ner
Ġen cl
Ġen chan
Ġen cumber
Ġen rolled
Ġen seamed
Ġen genders
ild ly
ootno tes
Ġbet ake
Ġbet ting
Ġfather less
ĠIt s
ĠIt alian
ran ks
bl est
Ġevery day
ree ch
ire r
Ġcha os
Ġcha ired
Ġcha sing
Ġcha pter
Ġcha riest
Ġcha mois
Ġcha riot
Ġrem it
Ġrem nant
Ġrem inding
Ġrem ittance
Ġunder ground
Ġover ween
Ġover ta
Ġover do
Ġover board
Ġover wr
Ġover done
Ġdes cri
Ġdes iring
Ġdes olate
As cend
As say
orn ing
Ġgra zed
un ge
un to
un less
un ned
un ny
un cle
Ġmar ches
Ġwhere to
Ġwhere upon
Ġsc or
Ġsc ant
Ġsc rib
Ġsc off
Ġsc athe
Ġsc urvy
Ġsc apes
Ġsc oundrelly
Ġru g
Ġru l
Ġru ins
Ġru bs
Ġru gged
Ġeyes ight
LI AB
ĠF e
ĠF ed
ĠF ly
ĠF ell
ĠF ind
ĠF ull
ĠF ree
ĠF ool
ĠF ancy
ĠF OU
ĠF ye
ĠF UL
ĠF rame
ĠF itzwater
Ġtru ant
Ġtru dging
ĠY ours
Ġnothing s
Ġown ing
Ġlife less
ert ina
ert ainties
Ġwom bs
Ġpart i
Ġpart ition
Ġpart isans
Ġmean est
Ġstill ness
hen ish
Ġpre f
Ġpre ach
Ġpre nz
Ġlast ly
ĠT O
ĠT r
ĠT y
ĠT en
ĠT oo
ĠT ri
ĠT ry
ĠT alk
ĠT ears
ĠT oul
ĠT aking
ĠT ues
ĠT iber
ĠT ere
ĠT sar
ĠT foo
ĠT ouching
ĠT urning
Ġjust ices
Ġjust ification
Ġsl ut
Ġsl ower
Ġsl umber
Ġsl ug
Ġsl oping
Ġsl oppy
Ġwant ons
KE LEY
Ġear ls
cl out
cl og
cl ined
cl asp
cl ida
cl uded
Ġhear ken
Ġhear kens
TIO NS
Ġcont est
Ġcont ained
Ġcont ention
Ġcont raction
vid ently
Ġra v
Ġra pt
Ġra bb
Ġra pping
Ġra zed
Ġra cking
Ġra ndom
ty ing
ff ily
ff led
ff odils
oss ed
oss ary
oss ible
Ġnever the
Ġtwo fold
Ġhea ving
Ġcons ents
Ġcons cient
Ġcons ists
Ġcons ervative
Ġsm il
Ġsm ock
Ġsm itten
Ġsm ote
Ġafter ward
pl us
pl ish
Ġho ll
Ġho vering
Ġfriend liness
Ġsw itch
Ġsw arm
Ġsw inging
Ġsw arming
Ġsw oons
In cl
In stead
In jurious
In quire
Ġcame l
Ġcame ls
Ġgl ut
be it
be gu
be ards
be aut
be cause
Ġbel t
ount iful
Ġblood s
ons h
ons ive
Ġmight ier
Ġmight iest
per ial
per mission
atter ing
Ġstand ers
Ġstand ards
Ġtr ident
Ġco b
Ġco g
Ġco herence
Ġco cke
ens ions
Ġgentle women
Ġad ore
Ġad age
Ġad ject
Ġback ing
Ġback ed
Ġback wards
Ġpres cribe
Ġpres cription
Ġpass ado
Ġpass engers
Ġimp ute
Ġimp osition
Ġimp osing
Ġimp reg
Ġimp oned
ab iding
LA ERTES
LA CE
Ġmen ace
Ġart s
Ġart fully
Ġart isan
We ep
We igh
We eping
Ġcomm its
Ġfo g
Ġfo em
Ġfo pp
Ġfo ison
ened icite
Ġres ide
Ġres umed
ople xy
Ġhonour ably
che on
che ss
che ts
che eked
che quer
Ġop ens
Ġbetter s
Ġwar p
Ġwar ms
Ġwar ned
ret s
ret urn
Ġacc ents
Ġacc ented
Ġacc urst
iss ions
So on
Ġgr ating
Ġgr ains
Ġgr ants
ĠWh ite
ĠWh ither
ĠWh iles
Ġset ter
ĠMar ia
ĠMar quis
ip odes
Ġdre ary
Ġcomp ounded
Ġcomp uters
Ġbelie ves
AU GH
Ġent ers
Ġent ity
Ġent ail
Ġent rust
_, .
Ġthr ash
Ġrest rictions
Ġstre wn
Ġstre amed
Ġconf isc
Ġconf idently
Ġrep uted
Ġrep rehend
Ġrep resented
Ġpa il
Ġpa cing
Ġinde x
Ġinde bt
Ġinde corous
Ġfair y
Ġpray ing
fa ces
fa ctors
lov ed
Ġever more
Ġnor mally
Ġlive th
Ġlive liest
Ġwa res
Ġwa ft
rem embered
Ġmin im
Ġpers Ã©
Where by
Ġbelieve th
Ġdel ivers
ult ure
.) ;
.) --
Be g
Be en
Ġhome wards
She riff
Ġadd ers
Ġadd itions
Ġap es
Ġap ish
Ġap oplexy
Ġte am
Ġte ase
Ġte xt
Ġte asing
Ġdist ill
Ġdist aff
Ġdist aste
Ġdist empered
Ġdist illed
Ġgu ide
Ġgu ile
Ġgu ides
Ġgu iding
Ġgu itar
Ġcle aring
Ġcle ans
ks op
estion able
Ġsweet en
Ġsweet ing
Ġsweet me
There in
There on
There of
Ġapp le
Ġapp all
Ġrec urring
Your s
Ġem ail
Ġem aciated
Ġem issions
Ġfar ce
Ġfar mer
ĠSo on
Ġtri be
Ġtri but
Ġtri llion
Ġchan ts
Ġchan nel
Ġass ign
Ġass umes
Ġass uming
Ġbre w
Ġlight est
Ġlight ens
fect s
Ġim be
Ġim itation
ian ced
Ġint onation
Ġatt ic
Ġatt ached
Ġatt ractions
Ġkind er
Ġkind est
Ġserv ile
Ġserv itor
TH ER
Ġsimp lest
Ġbes p
Ġbes ought
Ġbes peak
Ġbes eeming
Ġbes hrew
let ter
ont ed
ont ory
ont roll
Ġche ques
Ġdru g
Ġhu gg
Ġhu gged
Ġhu ffily
me eting
ĠZ arn
ĠZ araÃ¯
its yn
Ġcare lessness
Ġsat ire
Ġlau nd
land ers
ĠIn c
ĠIn stead
Ġvo cation
Ġnat ivity
MEN T
Ġland lord
Not ice
Ġhus ky
Ġhus sy
Ġta ils
Ġgi b
Ġsub side
Ġmist a
men cy
Ġcount s
Ġcount ries
Ġdou bly
Ġdou bled
Let ters
uck le
tend ing
Ġplay er
Ġplay thing
Ġplay fellow
Ġsent in
Ġsent entiously
ĠLu cy
Ġhope fully
fort une
Ġaw aking
Ġaw aked
Ġaw ait
Ġmer its
Ġmer ited
Ġmon olog
Ġmon uments
Ġdr ay
Ġdr ain
Ġbed clothes
Ġret ained
Ġret ail
Ġret orted
Ġret iring
Ġbest ir
Ġbest rew
Ġbest rid
Ġbest ride
Who ever
Ġtra il
Ġtra pped
Ġtra velling
Ġopen ings
eth od
RAN TY
RAN TI
Ġcr ants
Ġcr ouched
ati ves
ĠWe eping
ĠWe yant
Ġgrace less
Ġhum bled
Ġsupp ress
Ġsupp orter
Ġsupp orted
Ġsupp oses
Ġappe ach
Ġappe aring
Ġpresent ment
Ġread able
Ġread iest
Ġdream iness
Ġsort ed
Ġexp ose
Ġexp osed
Ġins ur
Ġins ensible
Ġins atiate
Ġmis g
Ġmis led
Ġmis lead
Ġmis adventure
Ġmis doubt
Ġmis deed
Ġcar ver
Ġcar penter
Ġcar cass
irl ing
Ġide als
Ġround s
Ġbu g
Ġbu xom
by ev
Ġwit less
Ġwit hered
INA L
Ġnews pap
Ġdisc ern
Ġdisc omfort
Ġdisc ourteous
Ġste w
Ġste er
Ġwrong doing
ĠFor ward
Ġlay s
Ġpri zed
Ġforg es
Go ing
Go vern
Ġrun n
Ġfound ed
Ġfact or
Ġchar ter
Ġchar Ã¡cter
Ġdrink ers
wick ed
Ġban ns
Ġlist less
Ġlist lessly
Ġunc rown
Ġunc outh
Ġunc ontroll
Ġinter r
Ġinter ven
Ġinter ior
Ġinter fered
Un se
Un worthy
Un happy
Un sheathe
Ġir resp
Ġhard en
Ġhard ships
Ġstr ut
Ġstr ains
ĠAlexand r
Ġfort itude
Ġfort unately
ĠAn na
ĠAn gel
Ġhor rified
ner able
Ġhur ting
Ġhur ric
ĠPro du
ĠPro sper
Ġfur longs
Ġsure ty
Ġexc iting
Ġexc used
Ġside ways
Ġhar p
Ġhar row
Ġhar ness
Ġhar rows
Ġvi per
St ates
sp irited
Ġri ft
Ġri cher
Ġri val
Ġri chest
hard s
Ġmaster y
Ġca vil
Ġca val
ĠTh ings
ĠTh ought
Ġsound ing
Ġinc it
Ġinc ont
Ġinc aged
Ġinc aut
Ġinc omplete
Ġlaugh s
Ġes pecial
Ġbeh oves
Do ing
Do gs
Ġfan ciful
ract s
Ġsun ken
Ġlod ger
Ġreg ent
Ġreg aining
Ġreg istered
Ġreg ularly
Ġcap it
Ġpurp osed
cei v
Ġref ers
Ġref resh
Ġang ular
ĠLe ad
ĠDo ctor
All a
Ġform ats
Ġarm hole
dot es
mit ies
ceed ing
Ġdep osing
Ġten or
Ġfal chion
Ġpos y
Ġtruth s
Ġsign ifies
Ġsign atures
Ġsecond ed
Ġsecond ary
Ġstri ped
Ġstri fes
Ġstri pling
Ġstri cken
Ġdec ently
Ġdec reed
Ġdec anter
Ġsuff ers
Ġune qual
RI BUT
Ġinf ix
Ġinf requ
Ġinf atuation
ident ally
Ġrel ent
Ġrel ate
Ġrel ies
Ġprom ising
Ġprom inent
Ġprom ontory
Ġhang ers
Ġhang ings
Ġhang men
mp ets
Ġobs olete
Ġair s
Ġdesp atch
Ġdesp ises
Ġdesp otism
iv or
iv alent
Ġmut ine
Ġmut ually
Ġmut inies
Ġbra ke
Ġbra ving
Ġbra cket
Ġbra wls
Ġflat ly
ĠYork shire
Ġmet re
Ġmet tle
Ġmet aph
Ġind el
Ġind ict
Ġind oor
Ġind irect
Ġind ulgence
Ġabs cess
erved ly
At t
Ġcond u
Ġcond ole
Ġdire st
Ġdark ening
Mar garet
Mar lborough
Ġshort ens
WAR RANTI
Ġrespect ing
Ġrespect ability
Ġfam ed
Ġfam ine
Ġfam ously
Ġfam ilies
Ġsubject ed
ins ulted
Ġcor al
Ġcor por
Ġcor mor
Ġcra cks
Ġcra zed
Ġcra bbed
Ġcra fts
Ġcra vat
ĠMAR CIUS
Ġext ir
Ġext ol
Ġground lings
Ġdet er
Ġdet ect
Ġsens it
Ġbit terest
ĠAs k
ĠAs ia
Ġprop osing
Ġprop ounds
Ġprop ensity
Ġprop riety
Ġprop ortions
Ġi vy
Ġfright ful
Ġcorn s
Ġpardon ing
Ġconv ented
Ex eter
Ex actly
Ġsing er
Ġsing led
Ġdare n
any thing
Ġthank ings
Ġthank less
Ġcontin uing
Ġcontin uance
mal ice
Ġhither ward
ENS E
Ġcommon ly
Ġinv ent
Ġinv iting
Ġinv isible
Ġinv ariably
Ġfaith fully
ĠNi hil
Ġfour score
Ġcrow bar
Ġjud icious
Ġjud gments
Ġfeeling ly
Ġbo om
Ġbo ats
Ġbo atswain
Ġjo bs
alt ies
Ġprove th
ple asure
Ġcru de
Ġcru pper
Ġcru mpled
vour ing
Ġfore know
Ġfore go
Ġfore boding
Ġfore saw
Ġfore told
cket s
Ġrequ isite
Ġwhis pers
An swer
Ġopp ressed
Ġopp osition
Ġopp osing
Ġden ies
Ġden ier
Ġcur b
Ġcur ing
Ġcur ds
Ġcur rish
Ġcur few
Ġnote worthy
Ġreven ues
ĠHer od
ĠHer ald
ĠHer bert
Ġnear ness
ac cept
ac ulate
ac ulous
ac beth
Ġsoft ness
ĠSt reng
ĠSt arner
ĠSt riking
Ġexpect s
Ġexpect ancy
Ġbook ish
Ġbook sell
Ġdam age
Ġdam ask
bro ad
bro ther
bro ken
ict ed
Ġsk ies
Ġsk ipping
Ġsk ipped
Ġsin ner
Ġsin ned
Ġsin ners
Ġbur ying
Ġbur dens
Ġbur gome
Ġpar ish
Ġpar aly
Ġpar ox
Ġaff ianced
Ġdanger ously
bur then
Ġpu dding
Ġpu ddle
Ġred oubt
Ġred istrib
Ġlead ers
Ġbreak fast
so on
ys m
Ġmo or
Ġmo aning
Ġfast s
Ġfast est
Ġlad der
Prov ided
En s
En joy
En forced
En vir
gu ised
Ġwin es
Ġwin ning
Ġwin ner
har ge
har ged
oof reading
Ġemb ark
Ġimag ines
Ġimag ining
end s
Ġpie ced
ĠWhere on
ĠWhere ver
ĠGood ness
Ġprep osterous
Ġcrowd ing
xe unt
Ġcir cul
Ġprof ligate
Ġconsider ate
Ġconsider ably
More over
mer ston
Ġcry stal
herd s
ĠPol ish
ĠOn line
Ġwonder fully
Did n
over ty
with in
with draw
Ġed ition
Ġed ging
Ġbound less
Ġsum ptuous
Ġblack er
Ġblack ened
Ġblack guard
gg est
Ġbeseech ing
Ġsad dle
Ġforget ful
ĠDon ations
Ġscar r
Ġhorse man
Ġfun k
Ġfun niest
Ġhair s
Ġquiet us
Ġquiet ness
Ġtrust s
Ġstrength s
Ġmove able
Ġhonest ly
Ġviol ation
Ġviol ates
!' "
ĠMur der
but t
Ġfit ly
Ġfit ness
Ġdef in
Ġreport s
Ġreport ing
Ġdespair ingly
Look s
Look ing
chan ging
Ġimport uned
Her self
Her ald
Tw elve
she ll
she et
she ep
Ġve in
Ġdin ners
Ġinqu est
Ġsur feits
Ġsur render
Ġsur cease
Ġsur plus
Ġhide ously
Ġpull s
Ġtea ches
Ġest imable
Ġbar n
Ġbar ter
Ġbar ge
Ġbar ne
Ġbar ric
Ġbar riers
Ġbar racks
Ġpost ure
Ġpost ern
Ġsmall er
Ġentreat s
Ġentreat ing
POMP HEY
oll ected
Ġmock s
Ġprov ision
Ġprov isions
_; [
_; --
Ġsqu ire
Ġsqu ared
Ġbat t
Ġbat he
Ġbat hing
Ġbat hed
Ġbat ten
Ġbene ath
Ġdri ly
Ġdri ver
Ġfavour ites
Ġunt ried
Ġunt aught
Ġunt hankfulness
ffect ual
Ġwear isome
Ġglass y
Ġglass ful
Ġtraitor ous
Ġmod e
Ġforward ness
Ġconcl uding
Ġconcl udes
Ġspecial ty
Ġfever ous
ron ically
ham ber
Ġfing ering
Ġattend s
Ġadm its
uc ination
uc alion
Ġsle eves
Ġmal ady
Ġmal ign
Ġmal content
Ġmal msey
Ġmal apert
Ġloss es
Ġund id
Ġund isc
Ġstir r
Ġstir rup
Ġdisg racious
Ġacqu it
Ġacqu ire
Ġacqu ired
Ġacqu iring
Ġmed lar
Ġdest inies
Ġdest roying
Ġdev out
Ġdev ised
Ġdev ices
Ġcontr ar
Ġappro xim
Ġliege men
Ġextrem ities
Ġpluck ing
Ġtit he
Ġtit ular
erc rows
erc harged
Ġgar ter
Ġgar ish
Ġdecl aring
Ġdecl ined
Ġdecl ines
Ġdecl ension
ĠPl uck
ĠPl autus
Ġunw ise
Ġunw arily
Ġunw ittingly
Ġunw ieldy
Ġunw onted
Ġleg ion
Ġpoison er
Ġpoison ed
Ġrich ly
Bec ame
ĠU nd
ĠU gh
ĠU ne
Ġfirm ness
Ġoffend s
Ġoffend ing
Ġoffend endo
Ġrid ges
Had n
ium s
li ves
hap en
Ġfet ter
Ġdress maker
ific ations
ĠBe en
ĠBe ing
ĠBe hold
ĠBe ggar
ĠNot e
Ġpossess ions
Ġpubl ished
Ġboot y
Ġsuccess es
ĠSen eca
Ġprob ing
Ġprob ation
Ġpriv ily
Pro dig
Pro cure
Pro fan
Pro portion
con f
con ceived
con fess
Ġid ol
Ġid leness
Ġdish onours
Ġliber ality
Ġliber tine
Ġempt ied
12 6
12 7
12 9
Ġsy mb
Ġsy nony
Ġsor rel
Ġfin est
Ġfin ery
Ġfin ancial
Ġcast ing
Ġgro ats
Ġspeed s
Ġassist ing
Ġassist ed
Ġassist ants
Ġwoo er
Ġcop est
Ġcop ying
Ġdiv ined
Ġdiv inity
Ġeff usions
Ġiss uing
Ġcompl ots
ĠGl ossary
medi ately
Ġlearn s
Ġbright er
Ġbright ness
Ġcand les
Ġcand idly
Ġview s
Ġview ing
Ġthanks giving
Ġremain der
Ġguess ing
Ġbehold ers
gr inder
gr inders
Ġgrie ving
Ġeas iest
Ġsucceed ing
Ġsucceed ers
ume ly
Ġexam ination
Ġfixed ly
Ġven uto
Ġtort ures
Ġfield s
Ġthri ves
Ġkna ck
Ġkna vish
Ġtrib es
hand s
hand le
Ġble ared
Ġble nded
Ġcup ola
Ġcup bearer
Ġtop mast
Ġpur g
Ġpur ples
Ġpur gation
Ġpur blind
Ġthin ner
Ġuns c
Ġuns way
Ġuns afe
Ġuns mirched
Ġuns uccessful
Ġuns uspected
ighb our
Com inius
OP HER
OP HELIA
Ġpaint ings
Ġincl ine
Ġincl ining
Ġincl udes
str ains
raw l
Ġamaz e
Ġamaz ing
Ġenc amp
Ġenc ouraged
Ġquarrel s
Ġquarrel some
com b
com er
com ing
com ers
com pl
com mand
com mune
Ġtear fully
hem eral
Ġpun k
Ġpun y
Ġele gant
Ġfors wore
Ġrevol ution
Ġrevol ted
ĠSir rah
Ġshar per
ĠHeaven s
Ġunp re
Ġunp regnant
Ġunp itied
Ġunp arallel
Ġimpress ions
:-- "
Ġow est
Ġfig ured
Ġfine ly
Ġfashion ably
Ġlim ed
Ġpal ms
Ġpal pable
Ġgarden ers
Ġjest s
Ġbrain ish
Ġver b
Ġver ily
Ġver ified
Ġver iest
Ġmour ner
Ġbot tled
Ġfle cked
Ġfle ece
Ġda is
Ġda ffodils
Ġthick est
Ġdefend ed
Ġfoolish ly
Re ven
Re ward
Re ceive
Re lease
Serv es
ex plosive
ex cellent
your self
Ġpurs uivant
Ġsuper fic
Ġsuper flu
Ġsuper stition
Ġvent ages
Ġvict ors
Ġsharp est
co ff
Ġba its
Ġba ited
Ġba ffled
ĠSome where
ĠAr gier
Ġmanner ly
Ġproceed s
Ġkingdom s
Ġmeaning less
Ġchest s
Ġinsult s
ĠEnglish men
cr ammed
Ġcre eping
Ġlar ger
Ġlar gess
Ġpet t
Ġpet als
stant ly
Ġconc ub
Ġconc ertina
Ġord ain
Ġord ained
Ġord nance
Ġaffect s
Stay s
Me as
Me et
Ġtreat s
Ġdu pp
Ġdu gs
Ġdu ellist
Ġelect ronically
Ġstor my
ĠPr inci
ĠPr incess
ĠPr oofreading
Ġunha llow
Ġunha ppily
Ġcho pped
Ġcho king
Ġenjoy ing
ignor ance
Ġscorn ful
Ġscorn fully
ĠFrench man
Ġwrit ers
13 0
13 1
13 2
13 3
13 4
13 5
13 6
13 7
13 8
13 9
AS UR
Ġbare headed
Ġpat tered
Ġpat rimony
Ġbew itch
Ġbew ept
Ġkn itting
ĠAl ack
ĠAl bion
Ġenv ying
Ġguard ed
Ġintellig ible
ĠChrist mas
Con found
Con ceiving
Con ceit
Con cluding
Con venient
hold er
hold ing
reg ia
Ġmid day
Ġcost ume
rop ically
Ġshop men
Ġvar iety
Ġvan ities
Ġvan quish
Ġunf urn
Ġunf air
Ġunf amiliar
Ġjour neys
Ġclean ing
Ġclean liness
Ġoppos er
Ġoppos ers
Ġcolour less
Ar ms
Ġbod iless
Ġdull ards
Ġlament ing
Ġlament ed
Ġpit ched
Ġga vest
sem ble
Ġweigh s
Ġdemand ed
Ġshad es
ĠVols ce
Ġbetray s
Ġchast ise
Ġundert ook
Ġcove t
Ġsteal ers
DI ES
DI GG
Hold ing
Le gal
oard ed
Ġet iqu
rep ort
rep utation
Ġbirth right
Ġcred itor
Ġlab oured
ĠSee k
Ġshut s
Ġloath som
Ġspring ing
Ġdesert ing
Ġadvantage ous
Ġwedd ings
De f
De cline
Pl ays
Tru mpet
Tru mpets
fall ing
pir ators
wear ied
Ġ1 50
Ġ1 58
Ġfren zied
Ġcustom ary
Ġdi ction
Ġstuff ing
Ġreign ing
Ġreign ed
Ġrepl en
Ġrepl ies
Ġblank ness
Ġspot ty
Ġfee bly
Ġcontro lling
Ġcock atri
Ġrestr aining
Ġinterv al
Ab ate
there a
there in
Ġmild er
Ġmild ew
Ġcart s
Ġcart lo
Ġforbid s
Ġrain y
Ġpron ouncing
Ġarg al
Ġplan ning
Ġplan ned
cha in
cha ins
Ã© mean
Ã© rfume
Ġfro ck
arn ished
Ġnumber ing
Ġconvey ances
Ġleisure ly
ĠTell us
Ġpersu asion
Ġbuild ings
Ġbuild eth
Ġdishonour able
Ġlangu ish
Ġlangu ages
Gu ess
Gu ard
Ġer ring
Ġer uption
ĠUn mix
Ġtempt ation
Ġsour ly
Ġsaint ed
Ġbas is
Ġbas est
Ġhy per
Ġpack thread
Ġstat ute
ĠCan st
Ġproclaim s
Ġproclaim ed
Ġeng ine
Ġeng aging
Ġconsum m
Ġrecoll ections
Ġiron ically
Ġobserv es
ĠNik iforovna
Ġoccup y
Ġjourney man
Ġmill stones
Ġlust s
Ġlust re
Ġpick s
Ġorgan ism
Ġunl o
Ġunl atched
Ġprocess ion
Ġprosper ously
Ġabsurd ly
Ġofficial s
;-- _
Bel ow
Su ggest
fl own
fl ies
fl owers
fl ayed
more land
Ġaud it
Ġfate ful
Ġcou ched
Ġcou ghed
Ġpure st
ature ly
ĠCa pel
Ġbelong ings
Ġdistin ction
Ġdistin ctions
Ġguilt iness
Ġlands cape
Ġinterp re
Ġinterp ose
Ġcapt ure
Ġcapt ives
Ġincre aseth
Ġtorture r
app ro
app arell
Ġsal ve
Ġsal utation
Ġswe eping
Ġwra pt
Ġcab bage
Ġdwell est
Ġpot ency
Ġpot atoes
ĠRuss ians
Ġshr inking
Ġsport ful
ĠBl anc
Ġcommiss ions
Ġobst ruct
Ġrememb rances
Ġemploy ed
Ġemploy ees
Ġdouble ts
Ġrank le
Ġregular ity
Ġconduct ing
Ġconduct ed
Ġdisposition s
Ġprofess or
Ġdisgust ed
Ġdisgust ingly
Ġmoral ize
Ġfra ught
Ġfra ilty
Ġder ive
Ġsep ulture
Ġconqu ered
Ġsacri fices
Ġexha les
Ġjealous y
Ġdise ased
Ġprec ision
Ġdelay ed
Ġmistrust ful
Ġexcit es
Ġpropert ies
Ġdamn ation
Ġcerem onies
Ġhideous ness
** ***
Bl iss
Bl ush
after noon
Ġsn are
Ġsn ub
Ġsn ug
Ġcens ured
Ġcens ures
Ġdim m
Ġdim inutive
Ġpite ously
thy self
ĠAp peal
Ġvol umes
Ġunb u
Ġunb el
Ġunb ated
Ġunb ounded
Ġunb ruised
Ġunm arried
Ġunm ask
ĠMi hail
Ġspect acles
Ġrock y
Ġgrat ified
Ġgrat ulate
Ġdelic ately
Ġexchan ging
CH RIST
Ne g
Ne ighbours
av ius
long eth
het ically
requ est
Ġmat ron
Ġmat tock
Ġmir aculous
Ġcat astrop
Ġcat aplasm
Ġcivil ian
Ġthorough fare
Ġstick ing
ĠRe ally
ĠRe ason
ĠRe aching
ĠRe quite
ĠRe bellious
ĠRe flect
Ġconj ur
Ġconj ured
Ġconj uring
Ġconj unction
Ġflight s
Ġdiss olved
Ġdiss enter
Ġdiss entious
Ġdiss olution
Ġchildish ness
Ġcompan ies
ĠPlay ers
Ġgroan ed
Ġess ence
Ġtedious ness
Ġwither s
Ġwont ed
Ġmeth oughts
Ġbru ise
Ġbru ised
Ġbru ising
Ġborrow ed
Ġthread s
Ġgle an
Ġstout ly
Ġstout ness
Ġmend ing
keep ers
Ġshock s
ĠAf ric
Ġalar um
Ġalar ums
Ġlog ger
Ġlog ically
Ġdisd ained
Ġdisd ains
Ġdescrib es
Ġwrath ful
Ġaccus ers
Ġrepro ached
Ġdisting u
ĠĠĠĠĠĠĠĠĠĠĠĠĠĠĠĠĠĠĠĠĠĠĠĠĠĠĠĠ ĠĠĠĠĠ
ollo a
Des ire
Des erve
Des ires
Des erves
Hear ing
Ġbark ing
Ġcell ar
Ġpath s
Ġgest icul
Ġgown s
Ġecst atic
Ġstif le
Ġknight s
ĠAd ri
ĠAd mit
ĠAd rian
Ġsail or
Ġrash ly
Ġrash ness
Ġprodu ction
ĠBarn et
ĠNev sky
Ġflood ed
Ġpeep ing
Ġperil ous
Ġchamp ions
Ġsecure ly
Ġhunt smen
ĠĠĠĠĠĠĠĠĠĠĠĠĠĠĠĠĠĠĠĠĠĠĠĠ ĠĠĠ
Ġforeign er
Ġforeign ers
Ġperplex ities
Ġhesit ate
14 0
14 1
14 2
Know ing
Tut or
ey es
Ġtest ify
Ġscept ical
Ġwre ak
Ġmas ks
Ġmil ksop
Ġbal cony
Ġcher ub
Ġcher ishing
Ġdig g
Ġdig ging
Ġport ly
Ġparent age
Ġparent hesis
asm uch
Ġmyster ies
Ġmyster iously
Ġwealth ily
ĠHad st
Ġdew s
Ġsullen ly
Ġwilling ness
ili ation
ĠMusic ians
Ġqual ified
Ġprogress ives
Ġdescend s
ĠFl avius
Ġtrun cheon
Ġcourage ous
Ġarticul ating
Ġdeliber ation
Ġemp ire
Ġinsist ence
Ġirre futable
Ġsurround ing
Ġsurround ed
Ġperpet ration
Ġperpet uity
Ġmaterial s
Hence forth
Hence forward
Ret ire
Turn s
Turn ing
Unt imely
jud ged
oc ated
Ġing red
Ġing rateful
Ġmass es
Ġmass ive
Ġcas ual
Ġcas que
Ġcool ness
Ġhind ered
Ġhint s
Ġnois ome
Ġnois ily
Ġmechan ics
raph y
Ġdeb ates
Ġshri lly
Ġconne cted
Ġvig ilant
Ġcomb ine
Ġcomb ined
ĠCon j
Ġexagger ating
ĠDr ink
ĠEn ter
ĠEn ters
Ġspl inter
Ġspl uttering
Ġplant ation
Ġbrook s
Ġsmooth ly
Ġresp ite
Ġrepul se
Ġinstruct ed
Ġmorbid ly
Ġunwilling ness
Ġvenom ous
Ġpurcha sing
Ch ide
Ch oose
Long er
Res ign
Res olved
Right s
Sp ur
Sp read
foot ed
law fully
Ġz est
Ġsed ition
Ġsed ges
Ġmirth ful
Ġbri ers
Ġbef ell
Ġbef riend
Ġrede cor
ĠSic ils
Ġsav ings
Ġsav ouries
ĠCal m
Ġblunt ed
Ġblunt ly
Ġprovo king
âĢĶâĢĶ .
Ġclo ister
Ġens ign
Ġens uing
Ġprefer ment
ĠTrump ets
Ġgrad es
Ġgrad ual
Ġstraw s
Ġregret ted
ĠArch bishop
Ġsplend idly
Ġoblig ation
Ġcompanion ship
Ġneglect ing
Pr oof
Pr inces
Pr askovya
Se lf
Se ason
sha pe
sha ven
sha lt
wing ed
Ġwag ging
Ġbud s
Ġcot ed
Ġheap s
Ġlent en
Ġinex orable
Ġknot s
Ġknot ted
Ġwhi pping
ĠPri est
Ġvague ly
Ġamend ment
Ġje well
Ġchallen ging
Ġwrink le
Ġwax ed
Ġbeaut ified
Ġcrimson ed
Ġprivile ged
Ġprincess es
Ġphilosop hers
Ġunfold ing
ĠNapole ons
Ġconquer ors
Ġagonising ly
Ġdevelop ed
Hel en
Sc arce
Sha ke
cor rupt
ilf ully
ser ious
wr itten
Ġtu ft
Ġtut ors
Ġtick ets
Ġtap estry
Ġped lars
Ġped igree
Ġhab iliments
Ġgri pe
Ġgri zzled
Ġisland s
Ġrejo icing
Ġconst ruction
Ġconst ancy
Ġfawn s
Ġunst ain
Ġunst ead
ĠCons ider
ĠCons pirators
ĠDe fend
ĠDe cember
ĠDe ucalion
Ġprint s
Ġspread ing
ĠTH AT
Ġimper fect
ĠJust ice
Ġapolog y
Ġapolog ised
Ġrecord ers
Ġesc aping
Ġbrand ished
Ġcalcul ations
Ġestabl ished
Ġestabl ishment
Ġmodest ly
Ġmodest ies
Ġgallop s
Ġsolic itude
Ġshroud ing
Ġvulgar ity
Keep s
Per use
Per form
col our
occ asion
Ġmus ick
Ġmult it
Ġmult ip
Ġbon net
Ġcy nical
Ġlu nacy
Ġpan gs
Ġpage ant
Ġthirst ing
Ġmeas ured
Ġwhore s
ĠRos cius
ĠAmeric an
Ġabhor red
Ġleap ing
Ġleap ed
Ġproject s
ĠBel ie
ĠTw ice
Ġcoarse ly
Ġadvers ary
Ġimpl ore
Ġimpl ied
Ġimpud ence
Ġimpud ently
Soft ly
Ġgrim y
Ġconfirm ation
Ġdistracted ly
Ġgenius es
Ġreluct ant
Ġreluct ance
Ġprompt s
Ġprompt ing
Ġcoron er
Ġtowns people
Ġcalam ities
Ġadmir al
Ġadmir able
Ġsyll ables
Ġrebell ious
Ġprotect ing
Supp osing
Supp orting
Ġcorrect ed
Ġhesitating ly
Ġanticip ated
Ġanticip ating
Acc ount
Disp ose
Fl ower
Fl ourish
Pre fix
Somet imes
cons ider
certain ty
pro test
Ġtum ble
Ġtum bled
heart s
Ġsouth ward
Ġwander ings
Ġbol ster
Ġbuck ler
Ġfem inine
Ġfum ing
Ġfum bling
Ġlam ps
etch y
Ġeag les
Ġforbear ance
Ġmelt ed
Ġresem ble
Ġresem bles
ĠPal merston
ĠProv ost
Ġconver se
Ġconver ted
Ġconver ts
Ġunre al
Ġabst ain
Ġabst inence
Ġblast ed
Ġdisin terest
Ġdisin clined
Ġdissem bler
Ġrud est
ĠFort unately
Ġswell s
Ġimpart ial
Ġresc uing
Ġindepend ently
should er
Ġreconc iliation
Ġattract ing
Ġmerchan ts
Ġretire ment
Ġinsin uation
Ġmischief s
Stri ve
ĠThink est
Ġprophet ess
Ġpenet rate
Ġpenet ration
Ġpenet rated
Ġpenet rating
Ġpenet rable
Ġprett ily
Ġvictim s
Ġhyster ics
Ġstabb ing
ĠAfanasy vitch
Ġdeceit ful
Return ing
Ġinvalid ated
Dis miss
Men enius
Wr ong
Wr ath
del ivered
del irium
even s
oqu ent
pre vailing
prop het
Ġcro ckery
Ġded uct
Ġded icate
Ġded uction
Ġhorn s
Ġlur ched
Ġpi que
Ġpi geon
Ġpred ecess
Ġbefall en
Ġstag gers
Ġstag gered
Ġstiff ly
Ġherald s
Ġsober ly
ĠSc ene
ĠSp anish
Ġshield s
Ġneat ly
Ġmanif ested
Ġamount s
ĠCh ief
Ġrad ish
Ġrad ical
Ġrad iance
Ġlect urer
Ġprodig ality
Ġspark s
Ġchill ed
ĠVen us
Ġbrut ality
Ġclos eness
Ġattain der
Ġexcess ively
Ġincred ulous
Ġbrace let
Ġinvest igation
Ġwelcom ing
Ġwelcom ed
Ġprofane ly
Ġtempor al
humoured ly
Ġshrewd ly
ĠGuild hall
Bra vo
Cond ition
Te ndering
Tra vel
Tra ppings
bon net
bod ied
bel ieve
ere cted
eel ing
lock s
pers uasion
shar p
tra ged
Ġacknow led
Ġmould ed
Ġbash fulness
Ġfard els
Ġfount ain
Ġlat ched
Ġpoo h
Ġpest ilent
Ġpomp ous
Ġprud ent
Ġbere aved
Ġgap ing
Ġgap es
Ġstomach s
Ġmeek ly
Ġmeek ness
Ġdegr aded
Ġdegr adation
Ġsul ky
Ġsul kiness
ĠSe ason
ĠPut ting
ĠPot pan
Ġshun s
Ġgover ning
Ġunfe lt
Ġuncerem onious
Ġprovid ing
Ġprovid ential
ĠBER KELEY
Ġflour ishing
Ġflour ishes
Ġbeget ting
Ġchur l
Ġfeat ly
Ġclum s
ĠFin nish
ĠTar quin
Ġsland erer
Ġconsp ire
ĠJu ly
ĠJu venal
Ġthrong s
Ġthrong ing
Ġsubstit utes
Ġsentiment ality
Ġmonarch y
Ġcrit ical
Ġpolite ly
Ġincon venience
Ġrefer ring
Ġdecor um
Ġdecor ation
Ġpuff ing
Ġcharacterist ics
Ġexact ness
Ġfleet ing
Ġholid ame
Ġholid ays
Ġpictures que
Ġprofession al
Ġmathem atical
Ġemphat ic
Ġclutch ing
Ġsolicit ings
Ġlux urious
Bre aking
FOR E
Six th
TI VE
TI TUS
Talk ed
sl aughter
Ġtig ers
Ġtack le
Ġtack led
Ġtang ible
Ġaut hent
Ġsne e
Ġsamov ars
Ġmort ar
Ġmort als
Ġfen cing
Ġfen nel
Ġfest ive
Ġfest ivity
Ġcu cumber
Ġdot ing
Ġdot ard
Ġdot age
Ġphe asant
Ġpor ch
Ġpor cup
Ġhall ucination
Ġge ese
Ġreass ure
Ġnin ety
Ġliqu id
Ġwhirl wind
ĠHy perion
ĠHy pÄ
Ġanch ors
Ġdem i
Ġdem esnes
Ġdevour ing
Ġshru g
Ġshru gged
Ġconven iently
Ġconcent ration
Ġvio let
Ġunin habited
Ġunlook ed
ĠEm peror
ĠNe ither
ĠNe apolitan
Ġhatch ing
Ġhatch ment
Ġscru p
Ġscru ple
Ġcontri ved
Ġcontrib ute
Ġrighteous ness
ĠIvan itch
Ġtrim m
Ġtrim med
Ġadul terate
ĠJud as
ĠJud ge
Ġinstinct ively
them selves
Ġeloqu ent
Ġrecre ation
Ġrecom fort
Ġimpe lled
Ġsubstant ive
Ġretreat ed
Ġcrook ed
Ġsuppli ance
Ġindic ated
Ġafflict ed
Ġstrengthen ed
Ġembra ces
Ġcircl ed
Ġdestit ution
conom ic
Ġpalm ers
Ġsuperior ity
point s
Ġobliv ious
Ġsacrific ed
Ġcovert ure
Ġsummon ing
ĠPriam i
Ġaccompl ished
Ġcontradict s
Ġschol astic
Ġcateg ories
Aw ake
Ca esar
Chr ist
Eng age
False ly
Name ly
Rel ent
VE DIGG
cop ying
gentle men
gentle woman
par ag
pret ty
pray ers
serv ant
tong ues
Ġtren cher
Ġsess ions
Ġsoot hed
Ġost rich
Ġdaint ier
Ġduc at
Ġlour ing
Ġyawn ing
Ġpom aded
Ġpark s
Ġpip ing
Ġham mer
Ġgains ay
Ġassem bly
Ġassem bled
Ġnast iness
ĠRE M
ĠST ART
thri ft
ĠWest moreland
Ġnegl igent
ĠLong er
ĠCy therea
Ġrhy me
Ġju ice
Ġjar gon
Ġloc ations
Ġspec im
Ġspec ific
Ġspec ified
Ġarbit rate
Ġflock s
Ġdisclaim er
Ġpert inent
Ġpert urbed
Ġpersec uting
Ġenlar ge
Ġconsult ation
Ġcourty ards
Intend s
Intend ed
Ġfoll ower
Ġinstit utions
Ġsimplet ons
Ġmonoman ia
Ġmonoman iac
Ġmonoman iacs
Ġcram ps
Ġsteward ship
Ġinterchange ably
Ġincor rect
Ġformal ities
Ġstriking ly
Ġpromot ions
Ġpropos er
Ġik ons
Any way
Ġskirt s
Ġmajest ies
Ġcele brate
Ġsurm ises
Ġtransgress ion
Ġtrades men
Ġsweep s
Desp ite
Desp ised
Ġportra iture
Ġirrevoc able
Ġsuprem acy
Ġstupe fied
Ġinvestig ations
ĠWelsh man
Ac cept
Add ress
Br utus
Cle ar
Del ay
End ured
bu ilt
disp osed
mir ation
pres ently
pres erved
post ed
post ulate
prov iding
su pp
sent enced
tail ors
Ġire ful
Ġtatter s
Ġaven ue
Ġsine w
Ġmart ial
Ġmuff le
Ġfring e
Ġfring ed
Ġtoss ed
Ġlit ter
Ġlit tered
Ġthw ack
Ġnovel s
Ġgy ves
Ġgust s
Ġgrum bling
Ġgrud ge
cels a
Ġeconom y
Ġeconom ic
Ġster ner
Ġster ling
Ġstam ps
Ġstam mer
Ġascend ing
Ġnick name
Ġnaught y
Ġhern shaw
ĠRo ger
ĠRo bert
ĠRoyal ty
Ġanaly sed
Ġanaly sis
ĠPLA YER
Ġvap our
Ġvap ours
Ġorb Ã¨d
Ġunh ur
Ġunh oly
Ġunman ly
Ġunman ner
Ġunrest rained
Ġsavour s
Ġsavour y
Ġexasper ation
ĠGonz alo
ĠDu kes
ĠDu clida
ĠExt on
ĠExt orted
ĠNear ly
Ġdiscl os
Ġdisapp ointed
Ġdisapp roval
Ġpeer less
Ġpercept ible
Ġpercept ibly
appe aring
Ġundergo ing
Ġscra ped
Ġslavish ly
Ġcoars er
Ġcoars est
Ġadorn ed
Ġcommun ic
Ġcommun ication
Ġresour ces
Ġcompre hens
Ġconfed erates
Ġappar itions
Ġrecount ed
Ġassail ant
Ġexpi ate
Ġexpi ating
Ġmisc arried
Ġbuz zed
Ġcaus er
Ġcaus Ã©
Ġincomp atible
Ġcondescend ed
Ġparl our
Ġaffright ed
Ġpenal ty
Ġsqueal ed
Ġundoubt ed
Ġundoubt edly
Ġencourage ment
Plain ly
Ġmagist rates
Ġdooms day
Ġengage ment
Ġunluck y
Ġfilth iness
Ġmerciless ly
Ġmaidenhead s
Condem n
Ġphenomen on
ĠRemember ing
Ġdisobed ience
Ġrecommend ation
Ġcuckold s
Ġcorrespond ent
Ġcorrespond ence
Aff liction
Bold ly
Comp are
Night ly
Pe ople
Sic ilia
Sic inius
Sleep ing
Tran slate
count ry
count enance
counter feit
pin ion
pol ice
pier ced
sw oln
Ġtar get
hero ds
inter pret
Ġwan n
rend ing
rend ered
reason able
Ġmoust aches
Ġmoust ache
Ġbree ches
Ġoper ant
Ġoper ation
Ġfel ic
Ġfuss ily
Ġcri pp
Ġcush ion
Ġcush ions
orie vitch
Ġdat a
Ġdat eless
Ġdens er
Ġdiet ed
Ġpas seth
Ġpel ting
Ġgird le
Ġgamb ols
Ġep hemeral
Ġstalk s
Ġnurs ing
Ġwhos oever
Ġbutche red
Ġbutche ries
ĠSte phen
ĠSte evens
ĠSuff olk
ican or
ĠAcc ording
Ġconge al
Ġconge aled
Ġconstit utes
Ġvil er
Ġvil eness
Ġvac ant
._" ]
Ġunwh olesome
Ġunwh itewashed
Ġunchild ish
Ġaltern atives
Ġoutst retched
Ġabod e
Ġabomin able
Ġabomin ably
Ġblasp he
Ġblasp hem
Ġblossom s
Ġblossom ing
Ġusur ps
Ġusur per
Ġprat est
Ġprat tle
Ġard ent
Ġard our
Ġplent eous
Ġplaint ive
Ġchronic le
Ġdisfig ure
Ġdisfig ured
Ġoverflow ing
Ġdesc ant
Ġdesc ried
Ass ist
Ġgraft ed
Ġscri pture
Ġruff ian
ĠTe am
Ġsmear ing
Ins ult
Ġadapt ed
Ġadapt able
Ġimpert inent
Ġimpert inence
Ġimprove ment
Ġentit led
Ġendea vours
Ġstreak s
Ġconfront ed
ĠClown s
Ġappoint ment
Ġchem ist
Ġchem ise
Ġsupplic ation
Ġstrait ly
Ġdiscreet ly
Ġirresist ible
Ġirresist ibly
Stab b
Ġrip est
Ġincess ant
Ġincess antly
Ġincest uous
Ġcapac ity
Ġcapac ities
Ġrelap sed
Ġbrag ging
Ġtreas ures
Ġtreas ury
Ġconvention al
Ġforesee ing
Ġcurts ied
Ġcurts ying
Ġunclean ness
Ġunclean liness
Ġembass age
Ġprofan ation
Ġsurv ive
Ġsurv ivor
Ġunsatis fied
Ġunsatis factory
comfort able
Ġunhapp ier
ĠChristop her
ĠChristop hero
Ġschoolboy s
Ġgreyh ound
Ġgreyh ounds
Blood y
ĠFlore nt
ĠFlore nce
Ġmagnanim ous
Ġmagnanim ity
Ġunreason ably
Ġhypocr ite
Ġhypocr isy
Ġcontempl ation
Ġcoinc idence
Best ride
Crown s
Fort une
Gold en
Gram ercies
Lear n
Merc utio
Ni kolay
Pit chers
Sad dle
Ste p
Suff er
Trem ble
cab in
din and
div isions
danger ous
fru its
front s
might y
pass ion
pÃ© rion
sight ed
skin ned
turn s
vill e
Ãª te
Ġtil th
Ġau gment
Ġast ounded
Ġaver age
Ġaust erity
Ġavail able
Ġwha le
Ġwadd ed
Ġmit igation
Ġmall echo
Ġbough s
Ġbale ful
Ġbooth s
erth rown
Ġced ar
Ġcod piece
Ġcel estial
Ġcoup lets
Ġdiz zy
Ġhoof s
Ġlave nder
Ġlag ging
Ġlull aby
ĠInd ia
Ġpir ate
Ġpall or
Ġpals ied
Ġthir teen
Ġthra ll
Ġine quality
Ġgard ens
Ġgild ed
Ġecho ed
Ġuno bserved
Ġforci bly
Ġfornic ation
Ġstall s
Ġherds men
Ġkern els
Ġwhimp ering
ĠRec alling
ĠHu gh
Ġdefe ated
Ġsust ain
Ġdol our
ĠPil ate
ĠPubl ic
thw ack
ĠWor cester
Ġsham est
Ġviz ard
Ġmanual s
Ġwheres oe
Ġunint ention
Ġunthri fty
ĠME ASUR
ĠMON TAGUE
aux hall
ĠChan son
ĠCheer ly
Ġridd les
Ġrasp berry
Ġexert ions
ersha des
Ġcannib als
Ġabort ive
ĠDA LY
ĠDa vid
ĠEV ANS
ĠBE FORE
ĠBre ak
ĠBes eech
ĠBro ther
ĠBret on
ĠBend ing
ĠBRA DBURY
Ġdisillusion ed
Ġdiscipl ine
Ġenlight enment
Ġoverjoy ed
Ġoverste pped
Ġruna gate
ĠFer dinand
Ġprem aturely
Ġprecip itation
ĠTer ms
Ġglister ing
begot ten
perform ing
Ġcoxcom bs
Ġadjo ining
Ġcomplet ed
Ġintim idated
Ġsatir ical
Ġcounten ances
Ġcrad le
Ġinsignific ant
Ġbuff oon
Ġdiscours es
Ġuncon stant
Ġirks ome
Ġhoriz on
ĠProte ct
Stir r
Ġrive ted
Ġesp ials
Ġrefres hing
Ġdepri ved
Ġindist inctly
Exam ine
Ġparch ment
Ġclergy men
Ġcolumb ines
Ġvehe ment
Ġbarbar ism
Ġsque ak
Ġsquab bling
Ġbenefic ial
Ġadmin istrative
Ġmedd ling
Ġappropri ate
Produ ced
Prosper ity
Ġunsk ilful
Ġencoun ters
exec ution
Ġsuperstit iously
Ġsupercil iously
Ġtransg ressed
Ġimmod erate
Ġplaus ible
Ġdiamond s
Ġbasil isk
Ġcounterpo ised
Ġdumbfound ed
ĠAmazon ian
Ġvolupt uous
Ġambassad or
ĠAfri can
Ġsympath ise
Ġmasqu ers
Ġcasu istry
Ġseduct ive
Ġhomic idal
Ġwagon er
Ġaccommod ating
Ġtumult uous
Ġunrevere nt
Ġpredomin ant
Ġcontempor aries
Ġincorpor ate
Err oneous
particul ar
Ġgigg le
Ġincompar ably
ĠLycurg us
Ġindustri ous
ĠÃ¦st hetic
Ġsouther n
Ġmicro bes
Ġearthen ware
Ġnonchal ance
Ġimmeas urable
Ġpettico at
AG ES
Ado pt
Boot less
Cull ing
CARD INAL
Coun sel
Camb io
Dou bly
Dor set
Distrib uted
Ear th
FRANCIS CA
Hus band
Ino culate
Lic ense
Mas ks
Mont ague
Mars hal
Ourse lves
Po ison
Pom pey
Rob ustious
Sor ry
Ven om
Vince tino
breed ing
cand le
coll ection
free ly
kill er
mout hed
mamm y
pill ars
pain ter
pock et
trad emark
vul nerable
Ġiv ory
Ġturb an
Ġaed iles
Ġsce pter
Ġwhar f
Ġmoun tebank
Ġbiss on
Ġfidel ity
Ġfero cious
Ġcess pool
Ġcack led
Ġcater pillars
Ġcip her
Ġciv illy
Ġcrot chets
Ġcunn ings
Ġdag gers
Ġdomin ions
Ġlud icrous
Ġlav ished
ĠIni quity
ĠInt ense
Ġpul ing
Ġpoth ouse
Ġpalt ry
Ġpyr am
Ġpoult ice
anni bal
Ġinse ct
Ġbelf ry
Ġbete em
Ġgilly vors
Ġghast ly
Ġgeran iums
Ġego ist
Ġulter ior
entire ly
Ġstup ider
Ġstudd ed
Ġrefe rences
Ġredd ish
Ġlifet ime
ĠRob in
ĠHyr can
Ġanec dotes
Ġdexter ity
ĠSus an
ĠSev astop
ĠSadov y
ĠScr oop
ĠPruss ian
ĠWAR RANTY
ĠWÃ¤ sche
ĠASC II
ĠAutoly cus
Ġcongr atulate
Ġconsecr ated
Ġvoy age
Ġunimp aired
Ġunfa iling
Ġunken nel
Ġunmit ig
Ġungu arded
Ġunredeem ed
Ġunbutton ed
ĠMort imer
ĠMade ira
ĠThess aly
ĠLIC ENSE
ĠLON DON
ĠLib ya
Ġcomfor ter
Ġalab aster
ĠCreat or
ĠCorn ers
ĠCathed ral
Ġexting uished
Ġexten u
Ġquond am
Ġabrid gment
ĠGrig orievitch
ĠGRA VEDIGG
ĠGolgot ha
Ġlecher ous
ortham pton
ĠDag estan
ĠDAM AGES
ĠDIST RIBUT
Ġloft ily
ĠEcst asy
ĠEBOO K
Ġprostr ate
Ġprohib ition
ĠBab ushkin
ĠBRE ACH
Ġflick ering
ĠVarri us
ĠVanill a
Ġpecuni ary
ĠKrest ovsky
Ġoverween ing
Ġoverwr ought
Ġdescri ptive
ĠFUL L
Ġpartition ed
Ġprenz ie
ĠToul on
ĠTues day
ĠTere byev
Ġneverthe less
begu ile
beaut ified
Ġcocke rel
Ġadject ive
Ġimpreg nable
AUGH AN
Ġentrust ed
Ġindebt ed
ĠpersÃ© ver
Ġdistaste ful
Ġtribut ary
ĠZarn itsyn
Ġmonolog ues
Ġsupporter s
Ġnewspap ers
Ġirresp onsible
Ġhurric ane
ĠProdu ce
ĠProsper o
Ġcaval ry
Ġmetaph ys
Ġindict ment
Ġcondole ment
WARRANTI ES
Ġcormor ant
Ġforeknow ing
Ġburgome ister
Ġredoubt ed
Envir oned
Ġapproxim ately
Prodig ious
Ġsymb ol
Ġsynony mous
Ġsuperflu ity
Ġconcub ine
Ġetiqu ette
Ġloathsom eness
Ġcockatri ce
Ġcartlo ad
CHRIST OPHER
Ġcatastrop he
Ġredecor ated
Ġdisinterest edly
Ġpredecess ors
Ġauthent ic
Ġporcup ine
Ġcomprehens ible
ĠMEASUR E
ĠSevastop ol
ĠGRAVEDIGG ER
ĠTerebyev a
