{"<s>":0,"<pad>":1,"</s>":2,"<unk>":3,"<mask>":4,"!":5,"\"":6,"#":7,"$":8,"%":9,"&":10,"'":11,"(":12,")":13,"*":14,"+":15,",":16,"-":17,".":18,"/":19,"0":20,"1":21,"2":22,"3":23,"4":24,"5":25,"6":26,"7":27,"8":28,"9":29,":":30,";":31,"<":32,"=":33,">":34,"?":35,"@":36,"A":37,"B":38,"C":39,"D":40,"E":41,"F":42,"G":43,"H":44,"I":45,"J":46,"K":47,"L":48,"M":49,"N":50,"O":51,"P":52,"Q":53,"R":54,"S":55,"T":56,"U":57,"V":58,"W":59,"X":60,"Y":61,"Z":62,"[":63,"\\":64,"]":65,"^":66,"_":67,"`":68,"a":69,"b":70,"c":71,"d":72,"e":73,"f":74,"g":75,"h":76,"i":77,"j":78,"k":79,"l":80,"m":81,"n":82,"o":83,"p":84,"q":85,"r":86,"s":87,"t":88,"u":89,"v":90,"w":91,"x":92,"y":93,"z":94,"{":95,"|":96,"}":97,"~":98,"¡":99,"¢":100,"£":101,"¤":102,"¥":103,"¦":104,"§":105,"¨":106,"©":107,"ª":108,"«":109,"¬":110,"®":111,"¯":112,"°":113,"±":114,"²":115,"³":116,"´":117,"µ":118,"¶":119,"·":120,"¸":121,"¹":122,"º":123,"»":124,"¼":125,"½":126,"¾":127,"¿":128,"À":129,"Á":130,"Â":131,"Ã":132,"Ä":133,"Å":134,"Æ":135,"Ç":136,"È":137,"É":138,"Ê":139,"Ë":140,"Ì":141,"Í":142,"Î":143,"Ï":144,"Ð":145,"Ñ":146,"Ò":147,"Ó":148,"Ô":149,"Õ":150,"Ö":151,"×":152,"Ø":153,"Ù":154,"Ú":155,"Û":156,"Ü":157,"Ý":158,"Þ":159,"ß":160,"à":161,"á":162,"â":163,"ã":164,"ä":165,"å":166,"æ":167,"ç":168,"è":169,"é":170,"ê":171,"ë":172,"ì":173,"í":174,"î":175,"ï":176,"ð":177,"ñ":178,"ò":179,"ó":180,"ô":181,"õ":182,"ö":183,"÷":184,"ø":185,"ù":186,"ú":187,"û":188,"ü":189,"ý":190,"þ":191,"ÿ":192,"Ā":193,"ā":194,"Ă":195,"ă":196,"Ą":197,"ą":198,"Ć":199,"ć":200,"Ĉ":201,"ĉ":202,"Ċ":203,"ċ":204,"Č":205,"č":206,"Ď":207,"ď":208,"Đ":209,"đ":210,"Ē":211,"ē":212,"Ĕ":213,"ĕ":214,"Ė":215,"ė":216,"Ę":217,"ę":218,"Ě":219,"ě":220,"Ĝ":221,"ĝ":222,"Ğ":223,"ğ":224,"Ġ":225,"ġ":226,"Ģ":227,"ģ":228,"Ĥ":229,"ĥ":230,"Ħ":231,"ħ":232,"Ĩ":233,"ĩ":234,"Ī":235,"ī":236,"Ĭ":237,"ĭ":238,"Į":239,"į":240,"İ":241,"ı":242,"Ĳ":243,"ĳ":244,"Ĵ":245,"ĵ":246,"Ķ":247,"ķ":248,"ĸ":249,"Ĺ":250,"ĺ":251,"Ļ":252,"ļ":253,"Ľ":254,"ľ":255,"Ŀ":256,"ŀ":257,"Ł":258,"ł":259,"Ń":260,"Ġt":261,"he":262,"Ġa":263,"in":264,"Ġs":265,"ou":266,"Ġw":267,"re":268,"ha":269,"Ġthe":270,"nd":271,"Ġm":272,"Ġb":273,"Ġo":274,"er":275,"it":276,"is":277,"Ġf":278,"Ġc":279,"en":280,"or":281,"ll":282,"on":283,"Ġd":284,"Ġto":285,"ing":286,"ed":287,"Ġhe":288,"Ġh":289,"Ġl":290,"Ġy":291,"Ġand":292,"no":293,"es":294,"ĠI":295,"Ġp":296,"hat":297,"Ġyou":298,"ar":299,"Ġof":300,"as":301,"an":302,"om":303,"Ġth":304,"Ġin":305,"at":306,"Ġno":307,"Ġha":308,"Ġbe":309,"ve":310,"Ġg":311,"ĠĠ":312,"st":313,"le":314,"im":315,"ut":316,"ce":317,"se":318,"ay":319,"et":320,"Ġthat":321,"ly":322,"ow":323,"ld":324,"Ġit":325,"gh":326,"Ġe":327,"id":328,"Ġnot":329,"ith":330,"oo":331,"ir":332,"Ġu":333,"ch":334,"..":335,"ent":336,"Ġon":337,"Ġmy":338,"'s":339,"Ġfor":340,"Ġst":341,"Ġwith":342,"Ġme":343,"Ġis":344,"ro":345,"Ġhis":346,"ri":347,"Ġwas":348,"Ġre":349,"Ġwe":350,"ke":351,"Ġhim":352,"ad":353,"ght":354,"al":355,"ill":356,"her":357,"ver":358,"Ġas":359,"ion":360,"Ġn":361,"And":362,"ome":363,"our":364,"Ġher":365,"Ġat":366,"The":367,"ter":368,"Ġk":369,"ur":370,"ould":371,"am":372,"Ġyour":373,"Ġhave":374,"Ġso":375,"ain":376,"Ġli":377,"Ġthou":378,"Ġwh":379,"ot":380,"out":381,"Ġse":382,"ck":383,"ĠR":384,"ĠH":385,"ct":386,"Ġan":387,"Ġall":388,"ore":389,"ra":390,"Ġde":391,"Ġsu":392,"Ġdo":393,"ess":394,"Ġbut":395,"Ġthis":396,"ĠS":397,"pe":398,"ol":399,"and":400,"Ġhad":401,"ood":402,"ord":403,"if":404,"ov":405,"Ġshe":406,"ru":407,"ĠP":408,"'d":409,"Ġare":410,"ĠĠĠ":411,"Ġwill":412,"est":413,"Ġ_":414,"th":415,"rom":416,"ge":417,"Ġsh":418,"us":419,"ĠW":420,"lf":421,"ic":422,"il":423,"Ġup":424,"ell":425,"ĠA":426,"Ġcon":427,"Ġwhat":428,"ant":429,"qu":430,"Ġsha":431,"EN":432,"ous":433,"'t":434,"ak":435,"ul":436,"ble":437,"ard":438,"ake":439,"Ġby":440,"ĠĠĠĠ":441,"em":442,"ni":443,"one":444,"Ġfa":445,"But":446,"ust":447,"Ġne":448,"IN":449,"ther":450,"red":451,"Ġfrom":452,"ven":453,"self":454,"res":455,"now":456,"IO":457,"ook":458,"Ġv":459,"Ġman":460,"Ġam":461,"han":462,"._":463,"te":464,"all":465,"ight":466,"Ġwhe":467,"art":468,"Ġ\"":469,"Ġor":470,"ĠHe":471,"Ġgo":472,"Ġthem":473,"very":474,"ost":475,"Ġknow":476,"ast":477,"Ġun":478,"AR":479,"Ġthere":480,"ive":481,"um":482,"ĠM":483,"Ġsa":484,"Th":485,"ĠThe":486,"ĠL":487,"ind":488,"Ġwould":489,"pp":490,"Ġwere":491,"...":492,"Ġthy":493,"od":494,"Ġthey":495,"ear":496,"Ġcom":497,"au":498,"Ġal":499,"ich":500,"Ġout":501,"ong":502,"Ġnow":503,"Ġag":504,"ĠC":505,",\"":506,"ame":507,"ry":508,"ie":509,"Ġtoo":510,"Ġshall":511,"To":512,"You":513,"fe":514,"Ġr":515,"Ġex":516,"ers":517,"Ġmore":518,"?\"":519,"own":520,"el":521,"Ġqu":522,"Ġone":523,"Ġ'":524,"Ġcan":525,"Ġab":526,"ist":527,"That":528,"Ġif":529,"os":530,"Ġour":531,"ĠG":532,"Wh":533,"ĠO":534,"ep":535,"US":536,"Ġj":537,"ate":538,"Ġlook":539,"'ll":540,"ink":541,"Ġle":542,"Ġdid":543,"hing":544,"Ġsay":545,".\"":546,"ort":547,"are":548,"Ġgood":549,"ig":550,"kov":551,"Ġlike":552,"ine":553,"Ġcome":554,"kol":555,"ĠD":556,"Ġtim":557,"Ġbl":558,"ation":559,"nikov":560,"to":561,"ound":562,"Ġsome":563,"Ġwor":564,"Ġlo":565,"ice":566,"Ġus":567,"na":568,"reat":569,"Ġsee":570,"Ġthen":571,"Ġwho":572,"Ġthee":573,"Ġpr":574,"Ġhere":575,"Ġbeen":576,"Ġagain":577,"ure":578,"fore":579,"nt":580,"pt":581,"askol":582,"askolnikov":583,"He":584,"Ġspe":585,"ĠE":586,"way":587,"ond":588,"ci":589,"Ġlord":590,"ave":591,"Ġpro":592,"Ġar":593,"ER":594,"Ġhow":595,"ĠAnd":596,"ide":597,"ather":598,"ING":599,"UC":600,"Ġtheir":601,"--":602,"ity":603,"dd":604,"Ġsp":605,"ence":606,"Ġmust":607,"What":608,"Ġmad":609,"ĠB":610,"OR":611,"!\"":612,"ng":613,"Ġthan":614,"Ġlet":615,"Ġtime":616,"ne":617,"Ġpl":618,"oot":619,"Ġmay":620,"....":621,"Ġwhen":622,"Ġwhich":623,"ath":624,"Ġro":625,"ET":626,"ĠN":627,"AN":628,"âĢ":629,"âĢĶ":630,"ES":631,"Ġhand":632,"For":633,"ĠBut":634,"itt":635,"Ġ[":636,"Ġvery":637,"Ġcould":638,"ish":639,"row":640,"Ġshould":641,"ose":642,"ough":643,"ĠRaskolnikov":644,"Ġany":645,"Ġsaid":646,"able":647,"irst":648,"Ġabout":649,"Ġaf":650,"vna":651,"Ġoff":652,"ia":653,"Ġfl":654,"Ġhat":655,"Ġbeg":656,"hed":657,"we":658,"urn":659,"ress":660,"ance":661,"nder":662,"Ġch":663,"Ġmake":664,"Ġsir":665,"Ġpo":666,"rie":667,"ĠV":668,"wn":669,"Ġwell":670,"KING":671,"oth":672,"ite":673,"op":674,"ack":675,"Ġsuch":676,"Ġtw":677,"Ġdis":678,"ness":679,"ass":680,"old":681,"ful":682,"Ġday":683,"Ġthink":684,"ag":685,"ick":686,"Ġlove":687,"de":688,"ĠĠĠĠĠĠĠĠ":689,".]":690,"ried":691,"ings":692,"Ġpe":693,"ue":694,"ano":695,"Ġbro":696,"Ġspeak":697,"Ġey":698,"right":699,"erv":700,"itch":701,"ady":702,"Ġfe":703,"imp":704,"Ġbr":705,"Ġcl":706,"Ġthough":707,"Ġinto":708,"IC":709,"az":710,"ber":711,"Ġtell":712,"LO":713,"ies":714,"Ġbefore":715,"Ġupon":716,"Ġper":717,"alk":718,"ap":719,"Ġword":720,"Ġdown":721,"Ġonly":722,"ĠK":723,"Ġthought":724,"IUS":725,"ull":726,"man":727,"uch":728,"ĠII":729,"ile":730,"Ġen":731,"ward":732,"ĠYou":733,"ild":734,"ootno":735,"Ġhas":736,"ootnote":737,"hin":738,"Footnote":739,"Ġking":740,"ace":741,"ase":742,"Ġbet":743,"ARD":744,"ment":745,"cc":746,"Ġfather":747,"ally":748,"Ġhimself":749,"omet":750,"Ġmade":751,"ps":752,"ĠIt":753,"ĠPet":754,"ran":755,"bl":756,"My":757,"Ġheart":758,"Ġevery":759,"age":760,"ree":761,"Ġway":762,"Ġonce":763,"Ġeven":764,"ire":765,"ious":766,"Ġcha":767,"Ġrem":768,"Ġunder":769,"Ġover":770,"ise":771,"Ġdes":772,"As":773,"here":774,"ittle":775,"orn":776,"ft":777,"Ġother":778,"other":779,"ign":780,"ya":781,"Ġgra":782,"Ġsomet":783,"Ġtake":784,"Ġaway":785,"ater":786,"un":787,"Ġlittle":788,"anovna":789,"ves":790,"Ġmar":791,"Ġmuch":792,"Ġwhere":793,"rov":794,"Ġsc":795,"Ġhath":796,"Ġru":797,"Ġgreat":798,"Ġeyes":799,"LI":800,"Ġ(":801,"ĠF":802,"ĠWhat":803,"Ġtru":804,"ĠY":805,"onia":806,"Ġnothing":807,"Ġown":808,"entle":809,"Ġlife":810,"ert":811,"This":812,"Ġmost":813,"Ġyet":814,"Ġke":815,"Ġwom":816,"Ġhon":817,"Ġpart":818,"Ġmean":819,"Ġseem":820,"Ġstill":821,"ction":822,"ince":823,"Ġthese":824,"Ġdon":825,"hen":826,"Ġpre":827,"Ġhead":828,"Ġlast":829,"ĠT":830,"Ġmother":831,"Ġgive":832,"Ġjust":833,"Ġold":834,"dden":835,"Ġsl":836,"Ġwant":837,"Ġdeath":838,"KE":839,"Ġear":840,"Ġbrother":841,"Ġask":842,"ĠShe":843,"ause":844,"cl":845,"Ġhear":846,"TIO":847,"Ġcont":848,"Ġface":849,"Ġwent":850,"Ġlong":851,"Ġturn":852,"No":853,"vid":854,"Why":855,"oy":856,"Ġra":857,"riend":858,"ty":859,"aught":860,"ff":861,"oss":862,"Ġnever":863,"Ġtwo":864,"Ġfirst":865,"Ġhea":866,"Ġcons":867,"Ġsm":868,"umi":869,"Ġafter":870,"Ġsudden":871,"thing":872,"umihin":873,"pl":874,"azumihin":875,"ving":876,"Ġcour":877,"Ġho":878,"Ġput":879,"ĠSonia":880,"Ġfriend":881,"ears":882,"Ġsw":883,"In":884,"ect":885,"Ġright":886,"Ġcame":887,"Ġgl":888,"be":889,"ud":890,"Ġbel":891,"RO":892,"ouse":893,"ount":894,"ren":895,"ĠRazumihin":896,"ved":897,"Ġget":898,"Ġblood":899,"io":900,"Ġsomething":901,"ON":902,"ons":903,"ĠIv":904,"Ġnew":905,"Ġroom":906,"Ġchild":907,"Ġmight":908,"nia":909,"per":910,"ounia":911,"atter":912,"Ġstand":913,"ither":914,"Ġtr":915,"Ġco":916,"ens":917,"not":918,"Ġmyself":919,"day":920,"rown":921,"If":922,"Ġwr":923,"Ġmine":924,"Ġgentle":925,"ces":926,"It":927,"oul":928,"IS":929,"Ġad":930,"less":931,"Ġhast":932,"Ġbec":933,"Ġback":934,"Ġpres":935,"Ġpass":936,"ĠGod":937,"Ġimp":938,"With":939,"air":940,"ĠIvanovna":941,"Ġnight":942,"ab":943,"ought":944,"int":945,"Ġlooked":946,"iz":947,"LA":948,"EL":949,"Ġwhy":950,"ĠIII":951,"rovitch":952,"Ġmen":953,"Ġdoor":954,"Ġart":955,"We":956,"ary":957,"Ġcomm":958,"ĠDounia":959,"Ġwithout":960,"aint":961,"ICH":962,"OL":963,"Ġob":964,"ject":965,"Ġfo":966,"ened":967,"ark":968,"Ġwoman":969,"How":970,"ced":971,"Ġcall":972,"nother":973,"'ve":974,"DU":975,"Ġres":976,"DUKE":977,"igh":978,"iness":979,"ach":980,"ily":981,"ĠPetrovitch":982,"Ham":983,"Ġtalk":984,"most":985,"ated":986,"ople":987,"Ġhonour":988,"che":989,"ied":990,"CA":991,"ute":992,"atch":993,"pect":994,"Which":995,"ger":996,"ICHARD":997,"Ġop":998,"Ġdone":999,"Ġans":1000,"ENTIO":1001,"Ġbetter":1002,"ec":1003,"Ġwar":1004,"Ġkne":1005,"Ġbeing":1006,"orrow":1007,"Ġple":1008,"Ġbegan":1009,"Ġanother":1010,"ret":1011,"Ġmind":1012,"Ġthing":1013,"Ġsuddenly":1014,"UE":1015,"INC":1016,"aughter":1017,"Ġacc":1018,"iss":1019,"Ġpeople":1020,"So":1021,"Ġgr":1022,"ĠWh":1023,"Ġhands":1024,"ina":1025,"Ġset":1026,"aw":1027,"Ġfear":1028,"ĠMar":1029,"ip":1030,"Ġboth":1031,"rd":1032,"Ġson":1033,"Ġcried":1034,"Ġwork":1035,"Ġdre":1036,"Ġcomp":1037,"TER":1038,"ĠJ":1039,"Ġbelie":1040,"AU":1041,"Ġent":1042,"ower":1043,"Ġheard":1044,"Ġhapp":1045,"AB":1046,"Ġyoung":1047,"Of":1048,"nce":1049,"rig":1050,"Ġunderst":1051,"_,":1052,"ister":1053,"Ġtrue":1054,"First":1055,"tis":1056,"llow":1057,"for":1058,"Ġkeep":1059,"Ġhouse":1060,"Ġthr":1061,"Ġrest":1062,"ove":1063,"Ġstran":1064,"oud":1065,"orf":1066,"Ġheaven":1067,"Ġend":1068,"QUE":1069,"Ġfell":1070,"aster":1071,"Ġstre":1072,"Thou":1073,"QUEEN":1074,"Ġconf":1075,"Ġrep":1076,"ool":1077,"Ġname":1078,"get":1079,"Ġshow":1080,"Ġcannot":1081,"ertain":1082,"Ġpa":1083,"Ġalmost":1084,"Ġthose":1085,"Ġinde":1086,"ife":1087,"urp":1088,"ĠRICHARD":1089,"Ġfair":1090,"weet":1091,"ock":1092,"Ġfind":1093,"Ġdead":1094,"ĠOF":1095,"Ġpray":1096,"UCH":1097,"fa":1098,"ms":1099,"Ġleave":1100,"Ġmom":1101,"Ġmoment":1102,"ition":1103,"ĠRom":1104,"Ġremem":1105,"Ġsame":1106,"haps":1107,"GLO":1108,"cy":1109,"ged":1110,"lov":1111,"Ġsoul":1112,"UCES":1113,"GLOUCES":1114,"GLOUCESTER":1115,"Is":1116,"sh":1117,"Ġever":1118,"Ġnor":1119,"Ġlive":1120,",--":1121,"Ġworld":1122,"ĠThat":1123,"Ġwa":1124,"rem":1125,"Ġhel":1126,"Ġmin":1127,"ix":1128,"Ġsaw":1129,"RY":1130,"aÃ":1131,"Ġpers":1132,"iry":1133,"Where":1134,"Ġbelieve":1135,"aÃ¯":1136,"ched":1137,"ory":1138,"Ġdel":1139,"ised":1140,"urse":1141,"Ġsec":1142,"ult":1143,"Ġfeel":1144,".)":1145,"Ġgone":1146,"Ġunderstand":1147,"Ġindeed":1148,"Be":1149,"ss":1150,"ense":1151,"Ġinst":1152,"the":1153,"Ġhome":1154,"aterina":1155,"Ġcourse":1156,"INCENTIO":1157,"Ġmany":1158,"ĠThere":1159,"Ġyes":1160,"Ġwords":1161,"Ġhour":1162,"She":1163,"Ġadd":1164,"LAN":1165,"UM":1166,"Ġap":1167,"ĠCl":1168,"vidrig":1169,"aÃ¯lov":1170,"vidrigaÃ¯lov":1171,"Ġpoor":1172,"Ġte":1173,"ĠRod":1174,"Ġdist":1175,"Ġgu":1176,"Ġgoing":1177,"Ġcle":1178,"sel":1179,"Ġdear":1180,"orfiry":1181,"LE":1182,"Ġbear":1183,"Ġtook":1184,"Ġlooking":1185,"ks":1186,"Ġbus":1187,"estion":1188,"Ġagainst":1189,"Ġplace":1190,"Ġsweet":1191,"Ġmatter":1192,"rovna":1193,"There":1194,"Ġstrange":1195,"Ġel":1196,"Ġapp":1197,"ison":1198,"Ġrec":1199,"ENRY":1200,"oney":1201,"Ġneed":1202,"Ġque":1203,"Your":1204,"ting":1205,"Come":1206,"Now":1207,"Ġnoble":1208,"Ġem":1209,"Ġstood":1210,"cious":1211,"bt":1212,"der":1213,"ible":1214,"Ġwalk":1215,"Ġfar":1216,"ently":1217,"Then":1218,"Ġyourself":1219,"ĠSo":1220,"Ġtri":1221,"Ġsister":1222,"Ġmur":1223,"ĠKaterina":1224,"Ġwife":1225,"ĠRome":1226,"Ġchan":1227,"Ġass":1228,"Ġthrough":1229,"EO":1230,"Well":1231,"ared":1232,"aking":1233,"elt":1234,"Ġleft":1235,"ĠVINCENTIO":1236,"Ġter":1237,"Ġbre":1238,"Ġthree":1239,"Ġlight":1240,"fect":1241,"Ġasked":1242,"uke":1243,"Ġill":1244,"Ġdaughter":1245,"Ġim":1246,"Ġstay":1247,"Ġsil":1248,"ORK":1249,"Or":1250,"ors":1251,"Ġtold":1252,"Ġdoes":1253,"ier":1254,"ian":1255,"up":1256,"Ġmoney":1257,"Ġint":1258,"Ġatt":1259,"Ġkind":1260,"ĠPorfiry":1261,"ee":1262,"led":1263,"Ġserv":1264,"Ġlie":1265,"Ġquite":1266,"Ġquestion":1267,"Ġseemed":1268,"TH":1269,"ĠIf":1270,"._]":1271,"Ġhelp":1272,"Ġsimp":1273,"Ġbes":1274,"Ġdoth":1275,"Ġgot":1276,"INIUS":1277,"Ġwind":1278,"let":1279,"leep":1280,"ĠSvidrigaÃ¯lov":1281,"ully":1282,"Ġfollow":1283,"ning":1284,"Ġma":1285,"ont":1286,"Yes":1287,"wer":1288,"Ġtill":1289,"Ġche":1290,"Ġdru":1291,"Ġhu":1292,"ĠIV":1293,"Ġseen":1294,"Ġturned":1295,"When":1296,"me":1297,"ĠZ":1298,"its":1299,"Ġcare":1300,"ross":1301,"ĠWhy":1302,"Ġqueen":1303,"AM":1304,"Ġsat":1305,"Ġfelt":1306,"uth":1307,"DW":1308,"_]":1309,"Ġlau":1310,"akes":1311,"DWARD":1312,"ken":1313,"land":1314,"ĠIn":1315,"Ġthus":1316,"Ġvo":1317,"Ġthings":1318,"Ġnat":1319,"MEN":1320,"Ġsince":1321,"Ġbreat":1322,"Ġcertain":1323,"PET":1324,"TES":1325,"yot":1326,"Ġland":1327,"yotr":1328,"LUC":1329,"Not":1330,"rest":1331,"ĠThey":1332,"med":1333,"Ġhus":1334,"Ay":1335,"Ġta":1336,"Ġgi":1337,"vers":1338,"Ġwhile":1339,"Ġperhaps":1340,"Ġknew":1341,"Ġfellow":1342,"Ġsub":1343,"ĠLord":1344,"Ġpoint":1345,"iet":1346,"Ġmist":1347,"ways":1348,"Ġchildren":1349,"Ġbecause":1350,"Ġelse":1351,"By":1352,"men":1353,"Ġcount":1354,"Ġdou":1355,"Ġcomes":1356,"Ġfriends":1357,"Ġhold":1358,"Let":1359,"OM":1360,"Than":1361,"uck":1362,"Ġdie":1363,"Ġyears":1364,"ason":1365,"lex":1366,"Ġkill":1367,"Ġsoon":1368,"tend":1369,"Ġplay":1370,"dward":1371,"Ġsent":1372,"ĠLu":1373,"Ġhope":1374,"MEO":1375,"fort":1376,"Ġaw":1377,"oun":1378,"Ġmer":1379,"Ġmon":1380,"Ġdr":1381,"Ġbring":1382,"ROMEO":1383,"ike":1384,"Ġbed":1385,"Ġret":1386,"ENIUS":1387,"Ġremember":1388,"MENENIUS":1389,"Ġbest":1390,"Ġfool":1391,"rief":1392,"Ġbusiness":1393,"Ġlaw":1394,"Who":1395,"uty":1396,"Ġeverything":1397,"RUCH":1398,"band":1399,"Ġtra":1400,"emy":1401,"pped":1402,"Ġopen":1403,"PETRUCH":1404,"PETRUCHIO":1405,"eth":1406,"Ġran":1407,"RAN":1408,"use":1409,"rew":1410,"Ġcr":1411,"ati":1412,"Ġmeet":1413,"ĠWe":1414,"Ġvis":1415,"Ġgrace":1416,"GR":1417,"fully":1418,"Ġlady":1419,"Ġanswer":1420,"gether":1421,"Ġfull":1422,"Ġhum":1423,"Ġuse":1424,"Ġsupp":1425,"ilt":1426,"Ġrather":1427,"Ġappe":1428,"Ġhusband":1429,"ird":1430,"Ġwhom":1431,"Ġalways":1432,"bles":1433,"Ġearth":1434,"Ġpresent":1435,"ial":1436,"une":1437,"ĠThis":1438,"Ġlov":1439,"Ġgen":1440,"Ġread":1441,"Ġdream":1442,"Tis":1443,"Ġsort":1444,"ating":1445,"ĠPyotr":1446,"Ġexp":1447,"econd":1448,"ying":1449,"Ġgave":1450,"Ġherself":1451,"IOLAN":1452,"ORIOLAN":1453,"ORIOLANUS":1454,"CORIOLANUS":1455,"His":1456,"Second":1457,"oe":1458,"sand":1459,"Ġwon":1460,"itiz":1461,"Ġins":1462,"...\"":1463,"ĠEdward":1464,"Ġanything":1465,"ĠTo":1466,"Ġpol":1467,"Ġposs":1468,"Ġpower":1469,"Ġthousand":1470,".'":1471,"Ġtears":1472,"Ġmis":1473,"ited":1474,"Ġcar":1475,"Ġless":1476,"irl":1477,"Ġ[_":1478,"ĠĠĠĠĠĠĠĠĠĠĠĠĠĠĠĠ":1479,"Ġide":1480,"Ġround":1481,"Ġwhole":1482,"BA":1483,"Raskolnikov":1484,"come":1485,"Ġbu":1486,"Ġhalf":1487,"cept":1488,"Ġstra":1489,"Ġalone":1490,"Ġbegin":1491,"Ġdrun":1492,"ray":1493,"Ġtong":1494,"Ġhigh":1495,"ĠHow":1496,"Ġmeans":1497,"by":1498,"Ġwit":1499,"Ġcrown":1500,"ained":1501,"INA":1502,"ĠEDWARD":1503,"Ġnews":1504,",'":1505,"urs":1506,"ENC":1507,"aken":1508,"ering":1509,"ime":1510,"ody":1511,"Ġdisc":1512,"Ġperson":1513,"ten":1514,"ery":1515,"Ġste":1516,"terday":1517,"wards":1518,"Ġwrong":1519,"ail":1520,"ĠFor":1521,"Ġtable":1522,"Ġlay":1523,"Ġpri":1524,"ows":1525,"Ġforg":1526,"They":1527,"tered":1528,"_,]":1529,"Go":1530,"Here":1531,"Ġrun":1532,"Ġdoubt":1533,"rer":1534,"hall":1535,"Ġfound":1536,"Ġfact":1537,"Ġchar":1538,"airs":1539,"Ġdrink":1540,"ford":1541,"wick":1542,"ready":1543,"irt":1544,"rying":1545,"Ġspo":1546,"Ġgentleman":1547,"Ġban":1548,"Ġlist":1549,"ates":1550,"Ġgirl":1551,"ides":1552,"Ġunc":1553,"Ġenough":1554,",[":1555,"vil":1556,"hes":1557,"ions":1558,"._,":1559,"Ġalready":1560,"selves":1561,"Ġdra":1562,"arwick":1563,"Ġinter":1564,"Ġdays":1565,"Good":1566,"LET":1567,"Un":1568,"Ġir":1569,"Ġcause":1570,"ĠAlex":1571,"Ġfall":1572,"Ġtherefore":1573,"Ġpeace":1574,"Ġpleas":1575,"Ġhard":1576,"Ġstr":1577,"Ġshout":1578,"Ġstreet":1579,"ĠAlexand":1580,"ius":1581,"xt":1582,"Ġboy":1583,"eral":1584,"ash":1585,"Ġreally":1586,"ĠYORK":1587,"ever":1588,"Ġsit":1589,"Ġlate":1590,"Ġfort":1591,"ria":1592,"ĠAn":1593,"ield":1594,"Ġworth":1595,"ISAB":1596,"ELLA":1597,"Ġyesterday":1598,"Ġsimply":1599,"ISABELLA":1600,"Ġhor":1601,"arly":1602,"Ġstate":1603,"Ġletter":1604,"Ġadv":1605,"cent":1606,"ging":1607,"morrow":1608,"ner":1609,"Ġsleep":1610,"Ġhur":1611,"ĠPro":1612,"ardon":1613,"Ġprince":1614,"Ġfur":1615,"Ġlost":1616,"Ġsure":1617,"Ġexc":1618,"Ġminute":1619,"Have":1620,"JU":1621,"TA":1622,"Ġside":1623,"ork":1624,"Ġhar":1625,"ĠWarwick":1626,"Ġvi":1627,"LIET":1628,"ONTES":1629,"LEONTES":1630,"JULIET":1631,"St":1632,"sp":1633,"Ġri":1634,"hard":1635,"Ġmaster":1636,"Ġca":1637,"empt":1638,"Ġstraight":1639,"Ġtongue":1640,"DY":1641,"ling":1642,"ĠTh":1643,"Ġac":1644,"Ġact":1645,"Ġsound":1646,"Ġinc":1647,"ulche":1648,"ressed":1649,"Ġbrought":1650,"Ġlaugh":1651,"ĠAlexandrovna":1652,"ulcheria":1653,"Ġes":1654,"Ġfree":1655,"Ġbeh":1656,"Ġforth":1657,"ĠWell":1658,"Ġvoice":1659,"ENCE":1660,"Do":1661,"ST":1662,"VOL":1663,"ph":1664,"rant":1665,"iting":1666,"Ġfan":1667,"ract":1668,"Ġsun":1669,"osed":1670,"LADY":1671,"BR":1672,"Ġlod":1673,"Ġreg":1674,"ĠVI":1675,"Ġplease":1676,"Ġcap":1677,"Ġtogether":1678,"Ġpurp":1679,"cei":1680,"Ġref":1681,"Ġang":1682,"Ġunto":1683,"ĠLe":1684,"Ġcoming":1685,"Ġjoy":1686,"ĠDo":1687,"All":1688,"Ġdif":1689,"Ġhence":1690,"Ġform":1691,"ĠAt":1692,"Ġtimes":1693,"Ġarm":1694,"SIC":1695,"dot":1696,"mit":1697,"ceed":1698,"enty":1699,"Ġweep":1700,"Ġdep":1701,"Ġwhose":1702,"ĠRodya":1703,"SICINIUS":1704,"les":1705,"Ġwond":1706,"Ġcase":1707,"ĠIs":1708,"Ġrou":1709,"Ġsays":1710,"ations":1711,"that":1712,"vdot":1713,"Ġten":1714,"Ġser":1715,"Ġmakes":1716,"Ġfal":1717,"Ġpos":1718,"Ġthine":1719,"imes":1720,"Ġprison":1721,"ĠNo":1722,"wered":1723,"Ġtruth":1724,"ĠRomanovna":1725,"vdotya":1726,"IL":1727,"Nay":1728,"Ġsign":1729,"Ġreason":1730,"ĠPulcheria":1731,"esty":1732,"icul":1733,"Ġshame":1734,"Ġquick":1735,"Ġanswered":1736,"Ġpale":1737,"zhin":1738,"Ġgre":1739,"Ġkiss":1740,"derer":1741,"Ġsecond":1742,"vy":1743,"ouch":1744,"Ġstri":1745,"Ġdec":1746,"Ġsuff":1747,"ical":1748,"Ġleast":1749,"Ġreturn":1750,".[":1751,"of":1752,"og":1753,"yal":1754,"Ġwatch":1755,"itor":1756,"rib":1757,"ĠHis":1758,"ĠHere":1759,"Ġcomfort":1760,"ween":1761,"Ġgrave":1762,"Ġnature":1763,"LUCIO":1764,"king":1765,"Ġeach":1766,"ade":1767,"ices":1768,"ichard":1769,"Ġune":1770,"ĠCome":1771,"RI":1772,"lt":1773,"Ġcold":1774,"Ġdan":1775,"Ġinf":1776,"idd":1777,"ident":1778,"Ġrel":1779,"ches":1780,"Ġconfess":1781,"ĠLuzhin":1782,"Sir":1783,"vitch":1784,"Ġut":1785,"Ġmorn":1786,"Ġprom":1787,"Ġhang":1788,"uten":1789,"ĠAvdotya":1790,"Ġused":1791,"Ġarms":1792,"emyon":1793,"Ġpolice":1794,"UT":1795,"mp":1796,"wh":1797,"enry":1798,"vere":1799,"ĠĠĠĠĠ":1800,"Ġstep":1801,"Thy":1802,"Ġobs":1803,"Ġbreath":1804,"itizen":1805,"From":1806,"gs":1807,"ured":1808,"Ġair":1809,"Ġbody":1810,"ars":1811,"asy":1812,"Ġgrief":1813,"Ġstru":1814,"vern":1815,"Ġsend":1816,"ousin":1817,"ief":1818,"Ġexpl":1819,"Ġspir":1820,"Ġeye":1821,"Ġdesp":1822,"Ġdrunk":1823,"ZAB":1824,"iv":1825,"Ġmut":1826,"Ġbra":1827,"ern":1828,"ene":1829,"Ġnone":1830,"ĠSemyon":1831,"ĠELI":1832,"....\"":1833,"ETH":1834,"Ġflat":1835,"ĠYork":1836,"ZABETH":1837,"ĠELIZABETH":1838,"GE":1839,"ka":1840,"Ġmet":1841,"Ġdro":1842,"Ġind":1843,"Ġready":1844,"ains":1845,"ctly":1846,"ively":1847,"ĠMr":1848,"Ġabs":1849,"anovitch":1850,"erved":1851,"ĠRomeo":1852,"Ġgiven":1853,"Ġidea":1854,"At":1855,"Ġtre":1856,"ished":1857,"Ġcond":1858,"Ġdire":1859,"Ġdark":1860,"Ġpati":1861,"ĠMy":1862,"ĠEng":1863,"Ġbetween":1864,"Ġhaste":1865,"ship":1866,"Ġwalked":1867,"HENRY":1868,"HAM":1869,"Mar":1870,"Up":1871,"rance":1872,"Ġbid":1873,"Ġinte":1874,"gel":1875,"Ġshort":1876,"Ġdisp":1877,"ably":1878,"Ġmurder":1879,"Ġpurpose":1880,"WAR":1881,"rit":1882,"ĠHenry":1883,"Ġstanding":1884,"Ġrespect":1885,"form":1886,"cing":1887,"ror":1888,"Ġfam":1889,"Ġduke":1890,"ĠHam":1891,"raid":1892,"Ġnext":1893,"ICK":1894,"Ġsmile":1895,"Ġsubject":1896,"Shall":1897,"WICK":1898,"ins":1899,"Ġsorrow":1900,"Ġcor":1901,"Ġcra":1902,"ĠMAR":1903,"Ġhate":1904,"WARWICK":1905,"Ġtaken":1906,"Ġwater":1907,"Ġwithin":1908,"ĠHENRY":1909,"Ġdoing":1910,"Ġext":1911,"Ġground":1912,"Nurse":1913,"Oh":1914,"iver":1915,"Ġmov":1916,"Ġdet":1917,"ĠThen":1918,"Ġcountry":1919,"Ġmorning":1920,"ĠHamlet":1921,"IAN":1922,"PU":1923,"Will":1924,"ual":1925,"Ġsens":1926,"Ġbit":1927,"ider":1928,"ĠAs":1929,"Ġlords":1930,"Ġprop":1931,"Ġroyal":1932,"ĠSemyonov":1933,"ca":1934,"ring":1935,"Ġi":1936,"rent":1937,"Ġfright":1938,"Ġcorn":1939,"Ġpardon":1940,"lect":1941,"ĠRichard":1942,"rupt":1943,"Ġconv":1944,"Ġknows":1945,"ĠCitizen":1946,"iously":1947,"Ġwanted":1948,"Ġroubles":1949,"Ġinterest":1950,"PULET":1951,"EY":1952,"Ex":1953,"Yet":1954,"cess":1955,"gain":1956,"well":1957,"Ġsing":1958,"Ġcross":1959,"Ġdare":1960,"any":1961,"Ġbea":1962,"Ġstud":1963,"fend":1964,"Ġthank":1965,"itting":1966,"Ġafraid":1967,"berg":1968,"Ġcontin":1969,"Ġhappy":1970,"Ah":1971,"MIO":1972,"mal":1973,"unt":1974,"Ġsick":1975,"Ġfight":1976,"Ġhither":1977,"aring":1978,"Ġere":1979,"Ġlips":1980,"iled":1981,"ENS":1982,"night":1983,"Ġwhether":1984,"ĠNow":1985,"ESS":1986,"Ġcommon":1987,"Ġstrong":1988,"On":1989,"you":1990,"Ġtrem":1991,"ined":1992,"Ġpay":1993,"ents":1994,"cks":1995,"Ġtwenty":1996,"ĠKing":1997,"Ġkept":1998,"Ġadded":1999,"ĠRodion":2000,"Upon":2001,"bly":2002,"ered":2003,"Ġwall":2004,"Ġlear":2005,"Ġinv":2006,"Ġhaving":2007,"riage":2008,"Ġdeep":2009,"Ġfaith":2010,"UCKING":2011,"ĠNi":2012,"Ġmaid":2013,"BRUT":2014,"Ġfalse":2015,"UCKINGHAM":2016,"BRUTUS":2017,"BRO":2018,"BUCKINGHAM":2019,"LUS":2020,"TRAN":2021,"Ġfour":2022,"Ġcrow":2023,"asya":2024,"imov":2025,"etov":2026,"ametov":2027,"Ġdeed":2028,"ush":2029,"Ġjud":2030,"INGBRO":2031,"ĠBOL":2032,"Ġcourt":2033,"Ġfeeling":2034,"Ġexpress":2035,"TRANIO":2036,"INGBROKE":2037,"ĠBOLINGBROKE":2038,"NE":2039,"Ġsight":2040,"rel":2041,"Ġbo":2042,"Ġcoun":2043,"Ġsto":2044,"ĠWhen":2045,"astasya":2046,"Ġalong":2047,"Ġquar":2048,"Ġjo":2049,"ments":2050,"Ġmark":2051,"Ġshouted":2052,"utenberg":2053,"ATH":2054,"PER":2055,"TIS":2056,"Ġwel":2057,"alt":2058,"Ġdidn":2059,"Ġprove":2060,"Ġclose":2061,"Ġtrou":2062,"Ġtalking":2063,"Ġmonth":2064,"Ġfortune":2065,"HOR":2066,"LAR":2067,"ired":2068,"ple":2069,"ndred":2070,"Ġcru":2071,"Ġevid":2072,"Ġnotic":2073,"ention":2074,"Ġweak":2075,"Ġvill":2076,"Ġgod":2077,"ĠLet":2078,"ately":2079,"Ġproud":2080,"ossimov":2081,"Cl":2082,"GAR":2083,"Nor":2084,"vour":2085,"Ġfore":2086,"Ġcousin":2087,"Ġpast":2088,"cket":2089,"Ġvirt":2090,"Ġthinking":2091,"ĠRomanovitch":2092,"GRE":2093,"Ġstruck":2094,"ĠMARGAR":2095,"ĠMARGARET":2096,"King":2097,"iat":2098,"tw":2099,"ank":2100,"Ġits":2101,"Ġreal":2102,"Ġrepe":2103,"Ġrequ":2104,"Ġwhis":2105,"ĠServ":2106,"Ġgracious":2107,"ctions":2108,"Ġhundred":2109,"ceived":2110,"An":2111,"ned":2112,"Ġopp":2113,"Ġocc":2114,"Ġden":2115,"Ġtown":2116,"Ġpity":2117,"Ġbeat":2118,"ceive":2119,"Ġfault":2120,"ORD":2121,"urpr":2122,"Ġservice":2123,"ĠZametov":2124,"'re":2125,"Our":2126,"kes":2127,"Ġwret":2128,"Ġbad":2129,"Ġcur":2130,"Ġnote":2131,"Ġreven":2132,"ĠHer":2133,"rac":2134,"Ġnear":2135,"ANGE":2136,"ague":2137,"Ġsword":2138,"Ġcommand":2139,"ANGELO":2140,"CU":2141,"ac":2142,"aid":2143,"bb":2144,"uri":2145,"Ġsurpr":2146,"Ġfoot":2147,"Ġfire":2148,"Ġsoft":2149,"Ġlies":2150,"ĠSt":2151,"used":2152,"ARINA":2153,"Ġago":2154,"Ġexpect":2155,"arence":2156,"cial":2157,"cius":2158,"Ġoffic":2159,"Ġchair":2160,"eech":2161,"Ġappear":2162,"God":2163,"KATH":2164,"hr":2165,"vo":2166,"Ġbook":2167,"ising":2168,"Ġdam":2169,"ution":2170,"ĠAll":2171,"Ġoffice":2172,"aper":2173,"Ġswear":2174,"KATHARINA":2175,"Lord":2176,"bro":2177,"ict":2178,"Ġsk":2179,"Ġsin":2180,"Ġwilt":2181,"Ġbur":2182,"Ġpar":2183,"ans":2184,"Ġsold":2185,"Ġdeal":2186,"Ġdost":2187,"ement":2188,"Ġaff":2189,"Ġglad":2190,"Ġresol":2191,"Ġsilence":2192,"ĠZossimov":2193,"ILLO":2194,"Ġdanger":2195,"Are":2196,"bur":2197,"shed":2198,"Ġsense":2199,"Ġwish":2200,"Ġcut":2201,"Ġpu":2202,"Ġstairs":2203,"Ġred":2204,"Ġyours":2205,"outh":2206,"ĠNastasya":2207,"Ġpocket":2208,"ĠPetrovna":2209,"Ġdesire":2210,"Ġuncle":2211,"ening":2212,"Ġduty":2213,"Ġgrow":2214,"Ġgaz":2215,"Ġsusp":2216,"Ġlead":2217,"ESCA":2218,"Ġsometimes":2219,"Ġbecome":2220,"Ġpassed":2221,"Ġbreak":2222,"Ġwindow":2223,"ESCALUS":2224,"Hor":2225,"Hath":2226,"Pol":2227,"how":2228,"so":2229,"ys":2230,"Ġmo":2231,"orter":2232,"Ġeither":2233,"Ġsofa":2234,"Ġknown":2235,"Ġthoughts":2236,"Ġmarriage":2237,"Ġmaj":2238,"Ġdiffe":2239,"fya":2240,"like":2241,"ziat":2242,"Ġfast":2243,"Ġcal":2244,"Ġlad":2245,"ament":2246,"Ġlives":2247,"ĠDuke":2248,"Ġanyone":2249,"Ġfew":2250,"bling":2251,"Ġwomen":2252,"beziat":2253,"Ġsecret":2254,"Ġgeneral":2255,"Ġspirit":2256,"Ġwelcome":2257,"beziatnikov":2258,"DUCH":2259,"Prov":2260,"Que":2261,"aim":2262,"uous":2263,"ually":2264,"lete":2265,"Ġlooks":2266,"Ġbless":2267,"Ġmadam":2268,"ĠMarfa":2269,"Ġclear":2270,"Ġvisit":2271,"Ġsuspic":2272,"DUCHESS":2273,"En":2274,"IA":2275,"ev":2276,"gu":2277,"lady":2278,"where":2279,"Ġwin":2280,"har":2281,"utes":2282,"Ġitself":2283,"oof":2284,"Ġliving":2285,"Ġsea":2286,"Ġgold":2287,"iew":2288,"bled":2289,"Ġheavy":2290,"Ġstreng":2291,"Ġinstant":2292,"Ġemb":2293,"Ġimag":2294,"Queen":2295,"end":2296,"host":2297,"Ġtouch":2298,"Ġsake":2299,"Ġfive":2300,"Ġlying":2301,"Ġpie":2302,"Ġoften":2303,"vel":2304,"Ġsovere":2305,"ctor":2306,"ĠWhere":2307,"Ġval":2308,"ĠGood":2309,"arent":2310,"Ġcler":2311,"Ġseems":2312,"Ġprep":2313,"ĠMarcius":2314,"Ġforgot":2315,"ĠProject":2316,"Ġbehind":2317,"Ġangry":2318,"gelo":2319,"Ġcrowd":2320,"MILLO":2321,"fter":2322,"xe":2323,"Ġtem":2324,"Ġcir":2325,"ingly":2326,"ator":2327,"Ġlose":2328,"Ġprof":2329,"Ġconsider":2330,"onsense":2331,"CAMILLO":2332,"Ġcomplete":2333,"Ġheavens":2334,"ĠClarence":2335,"ĠSofya":2336,"Ġdraw":2337,"Ġquickly":2338,"Even":2339,"More":2340,"mer":2341,"tle":2342,"hal":2343,"Ġcry":2344,"Ġye":2345,"alth":2346,"herd":2347,"ural":2348,"Ġdevil":2349,"rust":2350,"ĠPol":2351,"arted":2352,"ĠOf":2353,"ĠOn":2354,"Ġpossible":2355,"Ġwonder":2356,"ĠSemyonovna":2357,"Did":2358,"FRI":2359,"TENS":2360,"oor":2361,"over":2362,"ta":2363,"ted":2364,"with":2365,"Ġed":2366,"Ġwound":2367,"Ġbound":2368,"ats":2369,"Ġsum":2370,"Ġorder":2371,"ump":2372,"Ġblack":2373,"ressing":2374,"Ġprev":2375,"Ġcertainly":2376,"Ġlandlady":2377,"ĠAngelo":2378,"Ġcorner":2379,"HORTENS":2380,"FRIAR":2381,"gg":2382,"ures":2383,"Ġage":2384,"Ġaxe":2385,"Ġmaking":2386,"Ġheld":2387,"Ġporter":2388,"irty":2389,"cially":2390,"Ġspeaking":2391,"Ġmarried":2392,"Ġholy":2393,"Ġopened":2394,"Ġaccount":2395,"Ġbeseech":2396,"Ġbanish":2397,"Ġfurther":2398,"ĠLebeziatnikov":2399,"Ġutter":2400,"Provost":2401,"HORTENSIO":2402,"Al":2403,"PTIS":2404,"aven":2405,"cum":2406,"ked":2407,"pherd":2408,"Ġought":2409,"Ġsad":2410,"Ġsix":2411,"Ġoath":2412,"ities":2413,"Ġfoul":2414,"Ġce":2415,"Ġpain":2416,"idow":2417,"Ġforget":2418,"Ġnonsense":2419,"Ġshalt":2420,"ĠDon":2421,"Ġmarry":2422,"Ġscar":2423,"Ġgetting":2424,"BAPTIS":2425,"Ġirrit":2426,"Ġhorse":2427,"Ġmuttered":2428,"ĠEngland":2429,"malia":2430,"Ġnoticed":2431,"BAPTISTA":2432,"'m":2433,"CUS":2434,"COM":2435,"MAR":2436,"TOL":2437,"Would":2438,"YCUS":2439,"dom":2440,"Ġbow":2441,"Ġfun":2442,"Ġthrow":2443,"Ġhair":2444,"ards":2445,"Ġquiet":2446,"ĠGutenberg":2447,"Ġspite":2448,"Ġtrust":2449,"Ġparticul":2450,"AUTOL":2451,"Ġhappened":2452,"Ġfancy":2453,"Ġstrength":2454,"COMINIUS":2455,"AUTOLYCUS":2456,"uff":2457,"Ġmove":2458,"Ġyear":2459,"set":2460,"irm":2461,"Ġstory":2462,"rible":2463,"Ġsave":2464,"Third":2465,"Ġbroke":2466,"Ġhonest":2467,"Ġviol":2468,"LARENCE":2469,"Ġvillain":2470,"racter":2471,"Ġmajesty":2472,"!'":2473,"CLARENCE":2474,"MER":2475,"ets":2476,"Ġanx":2477,"pecially":2478,"Ġconvers":2479,"ants":2480,"ĠMur":2481,"kolay":2482,"Ġcharacter":2483,"ĠYes":2484,"Ġwarm":2485,"upid":2486,"Ġmistress":2487,"Ġspoke":2488,"Ġlaughing":2489,"BEN":2490,"NOR":2491,"PRO":2492,"but":2493,"ues":2494,"what":2495,"Ġfit":2496,"Ġlater":2497,"ster":2498,"ided":2499,"riar":2500,"Ġdef":2501,"usic":2502,"Ġperfect":2503,"Ġothers":2504,"Ġobject":2505,"Ġreport":2506,"Ġhours":2507,"Ġchange":2508,"Ġmercy":2509,"VOLIO":2510,"Ġdespair":2511,"gainst":2512,"Clown":2513,"Ġsovereign":2514,"BENVOLIO":2515,"!...":2516,"Look":2517,"SPER":2518,"chan":2519,"ech":2520,"ued":2521,"Ġfly":2522,"Ġcol":2523,"Ġcity":2524,"ench":2525,"Ġhot":2526,"Ġthemselves":2527,"Ġimport":2528,"UMIO":2529,"GRUMIO":2530,"Ġbeauty":2531,"ĠNikolay":2532,"PROSPER":2533,"PROSPERO":2534,"AST":2535,"Her":2536,"One":2537,"Tw":2538,"she":2539,"Ġve":2540,"Ġtried":2541,"inal":2542,"Ġsitting":2543,"Ġwoe":2544,"enger":2545,"Ġdin":2546,"Ġtowards":2547,"Ġyield":2548,"Ġinqu":2549,"ety":2550,"ented":2551,"ours":2552,"race":2553,"though":2554,"ĠAmalia":2555,"resh":2556,"Ġsaying":2557,"Ġears":2558,"Were":2559,"CUTIO":2560,"MERCUTIO":2561,"ĠMurderer":2562,".--":2563,"10":2564,"PO":2565,"Take":2566,"iar":2567,"Ġsur":2568,"Ġhide":2569,"Ġpull":2570,"Ġyouth":2571,"Ġnotice":2572,"essenger":2573,"ically":2574,"pping":2575,"itted":2576,"were":2577,"Ġclot":2578,"ĠKate":2579,"Ġminutes":2580,"Ġtea":2581,"LUCENTIO":2582,"Ġespecially":2583,"Ġbitter":2584,"Ġgods":2585,"Give":2586,"POM":2587,"ale":2588,"bs":2589,"cul":2590,"ek":2591,"ew":2592,"ges":2593,"Ġest":2594,"Ġmouth":2595,"Ġbar":2596,"Ġbold":2597,"Ġfaint":2598,"Ġpost":2599,"peak":2600,"usion":2601,"ĠWith":2602,"aveta":2603,"Ġsmall":2604,"izaveta":2605,"Ġentreat":2606,"LAND":2607,"Ġtender":2608,"Ġconversation":2609,"POMP":2610,"BER":2611,"LINA":2612,"PAU":2613,"Sh":2614,"Was":2615,"oll":2616,"vol":2617,"Ġmock":2618,"Ġcreat":2619,"nock":2620,"Ġpen":2621,"asure":2622,"oose":2623,"Ġstupid":2624,"Ġallow":2625,"Though":2626,"Ġprov":2627,"Ġeveryone":2628,"Ġbloody":2629,"Ġposition":2630,"Ġladies":2631,"Ġscarce":2632,"PAULINA":2633,"YORK":2634,"_;":2635,"ught":2636,"ung":2637,"yb":2638,"Ġsqu":2639,"Ġwis":2640,"Ġbat":2641,"Ġbene":2642,"erve":2643,"Ġfif":2644,"Ġfix":2645,"orth":2646,"Ġdri":2647,"Ġpaper":2648,"Ġwhite":2649,"otion":2650,"ĠAN":2651,"Ġfarew":2652,"Ġfavour":2653,"Ġunt":2654,"umber":2655,"ĠOh":2656,"Ġsomeone":2657,"cience":2658,"ANT":2659,"Ġpret":2660,"Ġgentlemen":2661,"Ġcalled":2662,"Ġdread":2663,"Ġcompany":2664,"Ġwaiting":2665,"Ġpleasure":2666,"GREMIO":2667,"Ġdifferent":2668,"Ġclerk":2669,"POMPEY":2670,"Ġfarewell":2671,"NIA":2672,"Say":2673,"XEN":2674,"ffect":2675,"tm":2676,"ude":2677,"Ġable":2678,"ony":2679,"ones":2680,"Ġlaid":2681,"oop":2682,"Ġwear":2683,"Ġsuit":2684,"ously":2685,"Ġlea":2686,"arewell":2687,"Ġplain":2688,"ĠĠĠĠĠĠĠĠĠĠĠĠ":2689,"Ġevening":2690,"LIXEN":2691,"Ġglass":2692,"Ġwarrant":2693,"UMNIA":2694,"Ġtraitor":2695,"Ġcharge":2696,"Ġhardly":2697,"VOLUMNIA":2698,"Ġobserved":2699,"Ġmoved":2700,"Ġfrightened":2701,"POLIXEN":2702,"ybalt":2703,"POLIXENES":2704,"Can":2705,"GON":2706,"Sonia":2707,"bed":2708,"ead":2709,"Ġmod":2710,"ital":2711,"ingman":2712,"cell":2713,"Ġforward":2714,"ility":2715,"Ġconcl":2716,"teen":2717,"Ġspecial":2718,"Ġspeech":2719,"INGS":2720,"Ġfever":2721,"ccess":2722,"Ġjustice":2723,"Ġpresence":2724,"Ġdelir":2725,"centio":2726,"Ġsteps":2727,"ĠServingman":2728,"Ġrevenge":2729,"ASTINGS":2730,"HASTINGS":2731,"ID":2732,"RENCE":2733,"cri":2734,"iol":2735,"ron":2736,"hel":2737,"head":2738,"ham":2739,"Ġfr":2740,"Ġfing":2741,"Ġfrown":2742,"Ġattend":2743,"ift":2744,"ĠLAU":2745,"els":2746,"Ġseeing":2747,"Ġbroken":2748,"unes":2749,"Ġturning":2750,"rence":2751,"Ġadm":2752,"Ġfearful":2753,"Ġinstru":2754,"Ġterror":2755,"Ġsilent":2756,"bye":2757,"Ġharm":2758,"broke":2759,"Ġclothes":2760,"ĠLAURENCE":2761,"BY":2762,"PR":2763,"nat":2764,"uc":2765,"inary":2766,"Ġsle":2767,"Ġmal":2768,"Ġbig":2769,"Ġfat":2770,"Ġdied":2771,"Ġloss":2772,"Ġeffect":2773,"Ġund":2774,"Ġstir":2775,"Ġsever":2776,"ĠLizaveta":2777,"Ġworse":2778,"Ġlock":2779,"Ġdisg":2780,"Ġslow":2781,"clock":2782,"claim":2783,"Ġcontempt":2784,"ĠJul":2785,"Ġenter":2786,"Ġsatis":2787,"Ġloved":2788,"Ġacqu":2789,"Ġsuffer":2790,"Ġrepeated":2791,"CLI":2792,"FF":2793,"May":2794,"Tell":2795,"hood":2796,"Ġtaking":2797,"oured":2798,"Ġmed":2799,"Ġbos":2800,"erhaps":2801,"Ġdest":2802,"Ġhell":2803,"omp":2804,"iden":2805,"Ġreck":2806,"Ġself":2807,"Ġseven":2808,"Ġdev":2809,"Ġamong":2810,"Ġthyself":2811,"Ġabove":2812,"Ġcontr":2813,"Ġafterwards":2814,"Ġgrant":2815,"UMBER":2816,"Ġappro":2817,"Ġchance":2818,"Ġliege":2819,"THUMBER":2820,"Ġbeside":2821,"Ġextrem":2822,"Ġtrouble":2823,"Ġcircum":2824,"NORTHUMBER":2825,"CLIFF":2826,"Ġbosom":2827,"NORTHUMBERLAND":2828,"11":2829,"apt":2830,"oes":2831,"Ġwood":2832,"read":2833,"Ġloud":2834,"Ġbell":2835,"adam":2836,"als":2837,"uss":2838,"iling":2839,"ĠAh":2840,"Ġconce":2841,"aked":2842,"ersbur":2843,"ĠOne":2844,"Ġpluck":2845,"rows":2846,"Ġstands":2847,"INCE":2848,"Ġterrible":2849,"Ġposit":2850,"ersburg":2851,"ached":2852,"bit":2853,"ghed":2854,"mel":2855,"Ġtit":2856,"Ġtrying":2857,"Ġwidow":2858,"Ġmor":2859,"Ġborn":2860,"erc":2861,"Ġfut":2862,"Ġhop":2863,"Ġgar":2864,"Ġgall":2865,"lya":2866,"Ġstone":2867,"Ġmeant":2868,"Ġknock":2869,"Ġdecl":2870,"ĠPl":2871,"iles":2872,"Ġunw":2873,"aud":2874,"inks":2875,"Ġleg":2876,"igni":2877,"Ġpoison":2878,"ĠPetersburg":2879,"ĠFrance":2880,"Ġwitness":2881,"Ġworthy":2882,"Ġrich":2883,"cape":2884,"ĠANNE":2885,"PRINCE":2886,"Ġfuture":2887,"ALO":2888,"Bec":2889,"La":2890,"Like":2891,"Some":2892,"miss":2893,"ĠU":2894,"ĠKING":2895,"erm":2896,"Ġfill":2897,"Ġfirm":2898,"Ġoffend":2899,"ased":2900,"owers":2901,"amed":2902,"oling":2903,"ifford":2904,"umb":2905,"Ġagree":2906,"Ġrid":2907,"Whose":2908,"cient":2909,"ĠBiden":2910,"Ġcloud":2911,"ĠYour":2912,"entleman":2913,"Ġslain":2914,"bered":2915,"Ġcoat":2916,"CAPULET":2917,"Ġcrime":2918,"Ġhurried":2919,"Ġstopped":2920,"Ġpiece":2921,"Ġdinner":2922,"ignior":2923,"?'":2924,"Had":2925,"ium":2926,"ience":2927,"li":2928,"ny":2929,"und":2930,"under":2931,"Ġtry":2932,"Ġwild":2933,"hap":2934,"Ġfet":2935,"oriol":2936,"Ġdress":2937,"Ġheir":2938,"ters":2939,"uring":2940,"pered":2941,"ific":2942,"ilty":2943,"Ġgoes":2944,"ĠMont":2945,"aunt":2946,"ĠBe":2947,"ĠNot":2948,"ager":2949,"Ġrushed":2950,"Ġearn":2951,"Ġapparent":2952,"Ġmurderer":2953,"Ġlaughed":2954,"Ġkilled":2955,"Ġcrim":2956,"Ġhuman":2957,"Ġpossess":2958,"Ġlodg":2959,"mitri":2960,"Ġstrike":2961,"Ġpatience":2962,"Ġpubl":2963,"Enter":2964,"Should":2965,"Ġcircumst":2966,"olingbroke":2967,"SE":2968,"Ġtran":2969,"Ġboot":2970,"Ġfond":2971,"Ġfresh":2972,"eness":2973,"asp":2974,"Ġthird":2975,"Ġmem":2976,"Ġreceived":2977,"Ġasleep":2978,"Ġsuccess":2979,"ĠSen":2980,"pend":2981,"Ġexcept":2982,"osition":2983,"ĠDmitri":2984,"Ġseek":2985,"Ġprob":2986,"ĠBolingbroke":2987,"Ġenemy":2988,"Ġcontent":2989,"Ġvoices":2990,"Ġtale":2991,"Ġgener":2992,"Ġpriv":2993,"Ġfamily":2994,"Ġrequest":2995,"Oph":2996,"Pro":2997,"con":2998,"know":2999,"Ġid":3000,"ines":3001,"Ġwed":3002,"reed":3003,"Ġburn":3004,"Ġbrief":3005,"itude":3006,"Ġdish":3007,"arm":3008,"ances":3009,"Ġthro":3010,"Ġnurse":3011,"Ġliber":3012,"Ġseiz":3013,"ils":3014,"arden":3015,"Ġgovern":3016,"aret":3017,"Ġflatter":3018,"Ġbegg":3019,"Ġconscience":3020,"Ġglo":3021,"Ġremembered":3022,"Ġdelight":3023,"ĠClifford":3024,"Ġempt":3025,"Ġinterrupt":3026,"Ġweeping":3027,"iddle":3028,"Ġexpression":3029,"ĠJuliet":3030,"Laer":3031,"12":3032,"VER":3033,"bid":3034,"du":3035,"iers":3036,"Ġty":3037,"hee":3038,"Ġauth":3039,"Ġavo":3040,"Ġsy":3041,"Ġsor":3042,"Ġsank":3043,"rey":3044,"Ġfin":3045,"Ġfriar":3046,"Ġcast":3047,"ona":3048,"Ġpract":3049,"Ġgro":3050,"iment":3051,"Ġones":3052,"Ġlived":3053,"antage":3054,"ular":3055,"ustom":3056,"Ġalso":3057,"Ġcanst":3058,"Ġblame":3059,"Ġprin":3060,"Ġspeed":3061,"Ġtwice":3062,"ages":3063,"Ġhearts":3064,"Ġopin":3065,"ĠWho":3066,"Ġassist":3067,"Ġvirtue":3068,"APULET":3069,"FL":3070,"FID":3071,"Ha":3072,"IZ":3073,"ND":3074,"spect":3075,"udd":3076,"ĠThou":3077,"Ġaction":3078,"Ġwoo":3079,"hamed":3080,"iter":3081,"Ġcop":3082,"Ġcaught":3083,"Ġcurs":3084,"enka":3085,"Ġdiv":3086,"Ġlow":3087,"ases":3088,"ashed":3089,"Ġinno":3090,"Ġgate":3091,"Ġeat":3092,"Ġeff":3093,"irth":3094,"Ġiss":3095,"These":3096,"Ġseat":3097,"ellow":3098,"Ġcompl":3099,"ĠCAPULET":3100,"ĠGl":3101,"ĠGo":3102,"ortal":3103,"Ġarri":3104,"ORIZ":3105,"icked":3106,"LIA":3107,"cester":3108,"Ġartic":3109,"Ġknees":3110,"AUFID":3111,"medi":3112,"Ġtavern":3113,"Ġloves":3114,"ashion":3115,"Ġtrembling":3116,"Ġlearn":3117,"Ġgazed":3118,"Ġscarcely":3119,"Ġpretty":3120,"FLORIZ":3121,"AUFIDIUS":3122,"FLORIZEL":3123,"),":3124,"Part":3125,"eks":3126,"iant":3127,"ination":3128,"Ġbright":3129,"Ġcand":3130,"esides":3131,"asant":3132,"anc":3133,"ang":3134,"ries":3135,"adov":3136,"Ġashamed":3137,"ĠHave":3138,"ĠWill":3139,"Ġview":3140,"fection":3141,"Ġexec":3142,"Ġthanks":3143,"Ġremain":3144,"Ġ(_":3145,"ĠTybalt":3146,"bey":3147,"inted":3148,"Ġhonourable":3149,"Ġdrew":3150,"ixt":3151,"Ġguess":3152,"Ġguilty":3153,"Therefore":3154,"Ġbreast":3155,"Ġintell":3156,"Ġhung":3157,"Ġbehold":3158,"Ġlodging":3159,"Ġpatient":3160,"Ġstudent":3161,"Ġcounsel":3162,"Ġreckon":3163,"audio":3164,":[":3165,"cceed":3166,"eal":3167,"gr":3168,"mand":3169,"oucester":3170,"Ġmiddle":3171,"erable":3172,"Ġcow":3173,"Ġdrown":3174,"oman":3175,"Ġgrie":3176,"Ġgates":3177,"Ġeas":3178,"illo":3179,"Ġsucceed":3180,"olk":3181,"ols":3182,"iful":3183,"Ġnecess":3184,"Ġvice":3185,"ume":3186,"Ġexa":3187,"Ġexam":3188,"ĠEx":3189,"Ġoffer":3190,"Ġraised":3191,"Ġinstance":3192,"ĠClo":3193,"Ġclearly":3194,"Ġchanged":3195,"Ġillness":3196,"Ġbesides":3197,"Ġcheer":3198,"Ġescape":3199,"Ġfanci":3200,"Ġserve":3201,"Ġwretched":3202,"Ġdangerous":3203,"Ġfixed":3204,"Ġacquaint":3205,"ĠSenator":3206,"Ġempty":3207,"Against":3208,"CIUS":3209,"OW":3210,"RICHARD":3211,"Till":3212,"fid":3213,"ires":3214,"ua":3215,"Ġven":3216,"Ġtort":3217,"ining":3218,"Ġmount":3219,"Ġmusic":3220,"Ġfield":3221,"Ġcuri":3222,"Ġdust":3223,"Ġdressed":3224,"Ġhid":3225,"asion":3226,"Ġthri":3227,"Ġintend":3228,"Ġbeha":3229,"Ġstore":3230,"Ġstop":3231,"Ġnerv":3232,"Ġkna":3233,"urch":3234,"rah":3235,"ander":3236,"ĠCam":3237,"Ġblow":3238,"Ġsomewhere":3239,"Ġhowever":3240,"Ġrose":3241,"Ġrage":3242,"Shepherd":3243,"Ġtrib":3244,"Ġimmedi":3245,"ethinks":3246,"Ġloving":3247,"itizens":3248,"BAST":3249,"Ġpriest":3250,"Ġaccept":3251,"Ġpromise":3252,"Ġdeterm":3253,"_;]":3254,"Ġseveral":3255,"meladov":3256,"SEBAST":3257,"Ġsorry":3258,"Ġopinion":3259,"SEBASTIAN":3260,"MI":3261,"Madam":3262,"See":3263,"fic":3264,"gged":3265,"joy":3266,"son":3267,"Ġsigh":3268,"hand":3269,"Ġble":3270,"Ġbase":3271,"itation":3272,"Ġcatch":3273,"Ġcup":3274,"Ġtop":3275,"ingham":3276,"Ġph":3277,"Ġpur":3278,"Ġthin":3279,"emies":3280,"Ġneck":3281,"Ġneither":3282,"resident":3283,"Ġuns":3284,"Ġexcell":3285,"Ġourselves":3286,"Ġcouldn":3287,"Ġchief":3288,"Ġenemies":3289,"Ġhearing":3290,"ighb":3291,"Ġwait":3292,"Ġdeliver":3293,"Ġfollowed":3294,"Ġnatural":3295,"Ġletters":3296,"Ġbrave":3297,"Ġmonths":3298,"Ġwhispered":3299,"Ġdeny":3300,"Ġofficer":3301,"Ġsuspicion":3302,"Ġcompletely":3303,"Ġtitle":3304,"BIO":3305,"Com":3306,"HER":3307,"OP":3308,"cher":3309,"gment":3310,"lish":3311,"ners":3312,"then":3313,"uct":3314,"zy":3315,"eds":3316,"Ġlaughter":3317,"esh":3318,"Ġpaint":3319,"Ġincl":3320,"str":3321,"chool":3322,"ĠHast":3323,"Ġancient":3324,"raw":3325,"Ġdoctor":3326,"olog":3327,"ilst":3328,"Ġamaz":3329,"Thus":3330,"ĠCoriol":3331,"osing":3332,"Ġdidst":3333,"Ġspent":3334,"dered":3335,"Ġtelling":3336,"Ġenc":3337,"Ġslight":3338,"Ġasking":3339,"rench":3340,"Ġcope":3341,"Ġpassage":3342,"ELLO":3343,"Ġtalked":3344,"Ġsouls":3345,"ĠClaudio":3346,"Ġterms":3347,"uckingham":3348,"Ġbeginning":3349,"Ġwithal":3350,"Ġformer":3351,"Ġsuffering":3352,"Ġuneasy":3353,"which":3354,"Ġjudge":3355,"Ġquarrel":3356,"Ġevidence":3357,"Ġsurprise":3358,"Ġcalm":3359,"ĠPolenka":3360,"MARCIUS":3361,"Ġparticularly":3362,"ĠMontague":3363,"NDELLO":3364,"ĠGloucester":3365,"BIONDELLO":3366,":_]":3367,"Away":3368,"DIO":3369,"Farewell":3370,"MON":3371,"com":3372,"case":3373,"iven":3374,"ips":3375,"ibly":3376,"ky":3377,"kin":3378,"oke":3379,"sy":3380,"test":3381,"twere":3382,"Ġtear":3383,"hem":3384,"Ġwine":3385,"Ġwide":3386,"Ġhealth":3387,"Ġpun":3388,"ane":3389,"Ġthirty":3390,"Ġele":3391,"Ġfors":3392,"Ġrevol":3393,"ury":3394,"amp":3395,"Ġsol":3396,"ĠSir":3397,"ified":3398,"Ġshar":3399,"ĠHeaven":3400,"Ġunp":3401,"ppy":3402,"ĠCap":3403,"ĠChap":3404,"ĠDid":3405,"Ġpride":3406,"ĠBuckingham":3407,"Ġbegun":3408,"Ġfeet":3409,"ĠKo":3410,"Ġconsent":3411,"Ġrooms":3412,"Ġimpress":3413,"Ġimpati":3414,"ĠJoe":3415,"orfolk":3416,"Ġassure":3417,"Ġintently":3418,"iety":3419,"Ġmistake":3420,"Ġsuppose":3421,"Ġdrunken":3422,"Ġhighness":3423,"Ġdepart":3424,"Ġcondition":3425,"Ġfuneral":3426,"Ġcreature":3427,"Because":3428,"known":3429,"Ġauthor":3430,"ĠHastings":3431,"ĠChapter":3432,":--":3433,"IR":3434,"Make":3435,"Pray":3436,"ea":3437,"fit":3438,"ib":3439,"ives":3440,"ls":3441,"Ġtor":3442,"Ġwise":3443,"rely":3444,"Ġow":3445,"Ġfie":3446,"Ġfig":3447,"Ġfine":3448,"Ġfashion":3449,"Ġdign":3450,"Ġlim":3451,"Ġlack":3452,"Ġpal":3453,"arch":3454,"Ġinj":3455,"atic":3456,"Ġgarden":3457,"lease":3458,"ames":3459,"ots":3460,"ĠAUM":3461,"ĠLook":3462,"ĠChr":3463,"Ġring":3464,"elcome":3465,"Ġjest":3466,"Ġproof":3467,"ERLE":3468,"itten":3469,"Ġbrain":3470,"Ġscene":3471,"Ġlonger":3472,"Ġsmiled":3473,"ONIO":3474,"Ġprayers":3475,"Ġmeeting":3476,"Ġdreams":3477,"Ġexcuse":3478,"Ġregard":3479,"Ġexplain":3480,"Ġdeeds":3481,"twas":3482,"Ġmoon":3483,"ANTONIO":3484,"Ġcontrary":3485,"Ġfetch":3486,"Ġprobably":3487,"Ġgloom":3488,"Ġarticle":3489,"ĠAUMERLE":3490,"!--":3491,"Since":3492,"ZALO":3493,"look":3494,"oh":3495,"Ġver":3496,"Ġmour":3497,"Ġbot":3498,"Ġobey":3499,"Ġfle":3500,"Ġcurse":3501,"Ġda":3502,"Ġdry":3503,"Ġlatter":3504,"Ġthick":3505,"ative":3506,"Ġbeast":3507,"Ġevil":3508,"idly":3509,"Ġreached":3510,"Ġaside":3511,"Ġsole":3512,"ĠRO":3513,"Ġdefend":3514,"oved":3515,"Ġshed":3516,"ĠPar":3517,"ĠLanc":3518,"Ġwouldn":3519,"isted":3520,"ĠGentleman":3521,"Ġjump":3522,"Ġblows":3523,"Ġspend":3524,"Ġfloor":3525,"unning":3526,"Ġsworn":3527,"Ġwrite":3528,"Ġpassion":3529,"Ġpawn":3530,"Ġattention":3531,"Ġcarefully":3532,"Ġmerry":3533,"Ġfoolish":3534,"Ġideas":3535,"Ġbuy":3536,"Ġrunning":3537,"Ġlisten":3538,"Ġfury":3539,"GONZALO":3540,"Ġpositively":3541,"Ġeffort":3542,"Ġcoward":3543,"ĠLancaster":3544,";[":3545,"CLA":3546,"Don":3547,"Most":3548,"Qu":3549,"Re":3550,"Serv":3551,"ah":3552,"ex":3553,"eep":3554,"your":3555,"Ġbaw":3556,"Ġodd":3557,"erman":3558,"Ġcrying":3559,"Ġpurs":3560,"arl":3561,"arry":3562,"Ġthreat":3563,"Ġnoise":3564,"sequ":3565,"Ġlift":3566,"Ġanger":3567,"Ġsuper":3568,"ĠWould":3569,"Ġneighb":3570,"Ġvent":3571,"Ġlikely":3572,"ĠBy":3573,"Ġbride":3574,"Ġperform":3575,"Ġdesper":3576,"Ġwants":3577,"Ġadmit":3578,"ianca":3579,"Ġdrinking":3580,"Ġvict":3581,"Ġgreen":3582,"Ġdecided":3583,"Marry":3584,"Exit":3585,"Ġvex":3586,"Ġpulled":3587,"Ġbattle":3588,"Ġcriminal":3589,"Ġinterrupted":3590,"ĠCamillo":3591,"Ġcopecks":3592,"Ġsharp":3593,"DA":3594,"UDIO":3595,"co":3596,"eem":3597,"iber":3598,"ker":3599,"lu":3600,"Ġaim":3601,"Ġmatch":3602,"Ġba":3603,"lled":3604,"onour":3605,"Ġhaven":3606,"Ġeld":3607,"Ġeight":3608,"Ġstair":3609,"Ġsoci":3610,"Ġdog":3611,"ĠSu":3612,"ĠSha":3613,"ĠSome":3614,"olute":3615,"ify":3616,"ĠPa":3617,"ĠAr":3618,"Ġshaking":3619,"Ġvile":3620,"Ġmanner":3621,"Ġproceed":3622,"ĠNorfolk":3623,"Ġoffence":3624,"Ġflesh":3625,"Ġkingdom":3626,"Ġdesign":3627,"Ġmeaning":3628,"Ġprecious":3629,"Ġheads":3630,"Ġslave":3631,"Ġrap":3632,"Ġconscious":3633,"Ġobv":3634,"Ġfoe":3635,"Ġaddressing":3636,"Ġservant":3637,"Ġchest":3638,"Ġinsult":3639,"Ġspoken":3640,"Ġuneas":3641,"ĠEnglish":3642,"MIONE":3643,"Ġwretch":3644,"Ġsurprised":3645,"Ġtemper":3646,"Ġslowly":3647,"CLIFFORD":3648,"Ġearnest":3649,"Ġtrans":3650,"fidius":3651,"HERMIONE":3652,"CLAUDIO":3653,"Both":3654,"EDWARD":3655,"HN":3656,"LORD":3657,"Must":3658,"OHN":3659,"SON":3660,"cr":3661,"do":3662,"fied":3663,"house":3664,"mber":3665,"uish":3666,"ufidius":3667,"Ġsen":3668,"Ġcre":3669,"Ġcunning":3670,"orge":3671,"Ġlar":3672,"Ġpet":3673,"Ġpill":3674,"asons":3675,"Ġbeating":3676,"stant":3677,"ooth":3678,"Ġur":3679,"chio":3680,"Ġreceive":3681,"Ġkings":3682,"amm":3683,"Ġdeg":3684,"ruchio":3685,"ĠPom":3686,"ushed":3687,"Ġconc":3688,"Ġord":3689,"umph":3690,"Ġaloud":3691,"ieve":3692,"ĠGive":3693,"ĠEven":3694,"Ġprotest":3695,"ĠBianca":3696,"Ġpled":3697,"âĢĶ\"":3698,"Ġaffect":3699,"aged":3700,"Ġfeast":3701,"ranio":3702,"ĠFrom":3703,"Ġparty":3704,"Ġrags":3705,"Ġconsul":3706,"Ġbecame":3707,"aching":3708,"ĠMarmeladov":3709,"Ġunderstood":3710,"Ġshowed":3711,"Ġawful":3712,"RANDA":3713,"Ġlistened":3714,"Ġhurry":3715,"Stay":3716,"ogn":3717,"Ġconvi":3718,"Ġwhisper":3719,"Ġoccasion":3720,"Ġsoldiers":3721,"Ġforgotten":3722,"ronic":3723,"Ġpublic":3724,"Ġexactly":3725,"MIRANDA":3726,"ATIO":3727,"Me":3728,"Messenger":3729,"Such":3730,"TY":3731,"Very":3732,"body":3733,"iest":3734,"iance":3735,"ole":3736,"yond":3737,"Ġtreat":3738,"Ġdu":3739,"Ġphr":3740,"anus":3741,"Ġequ":3742,"Ġelect":3743,"Ġstor":3744,"Ġkit":3745,"raord":3746,"Ġdebt":3747,"peare":3748,"ĠPr":3749,"Ġvow":3750,"Ġunha":3751,"Ġunknown":3752,"Ġsafe":3753,"Ġalthough":3754,"Ġlegs":3755,"arer":3756,"Ġthence":3757,"ney":3758,"Ġflung":3759,"Ġcho":3760,"Ġchurch":3761,"agger":3762,"Ġperp":3763,"Ġenjoy":3764,"ignor":3765,"Ġscre":3766,"Ġscorn":3767,"Ġrude":3768,"ĠFrench":3769,"Ġsli":3770,"cles":3771,"Ġwrit":3772,"Ġimposs":3773,"Ġaccord":3774,"Ġshows":3775,"Being":3776,"Ġcheeks":3777,"rosses":3778,"Ġvisitor":3779,"Ġforgive":3780,"Ġlistening":3781,"Ġserious":3782,"ĠHereford":3783,"Ġexplan":3784,"Ġmoving":3785,"kespeare":3786,"Ġimagine":3787,"Ġextreme":3788,"Ġavoid":3789,"Ġissue":3790,"Ġfancied":3791,"Ġimmediately":3792,"ohn":3793,"ĠParis":3794,"Servant":3795,"Ġsociety":3796,"ĠShakespeare":3797,"13":3798,"AS":3799,"Call":3800,"LY":3801,"RA":3802,"crib":3803,"ior":3804,"mond":3805,"tled":3806,"Ġsons":3807,"Ġmortal":3808,"Ġbent":3809,"Ġbare":3810,"llen":3811,"Ġyellow":3812,"Ġpat":3813,"Ġinform":3814,"ators":3815,"Ġbew":3816,"Ġbend":3817,"vey":3818,"stairs":3819,"Ġstart":3820,"Ġisn":3821,"road":3822,"Ġwash":3823,"Ġkn":3824,"aining":3825,"ĠHAM":3826,"ĠSaint":3827,"ĠSignior":3828,"iliar":3829,"ĠAl":3830,"ouses":3831,"Ġalive":3832,"ichmond":3833,"isten":3834,"ĠOp":3835,"Ġsomewhat":3836,"Ġworn":3837,"Ġworst":3838,"Ġworship":3839,"Ġbrid":3840,"Ġenv":3841,"Ġremained":3842,"Ġgreater":3843,"Ġtrump":3844,"ĠYet":3845,"ĠTower":3846,"Ġputting":3847,"Ġmighty":3848,"Ġpassing":3849,"Ġworks":3850,"Ġkeeping":3851,"Ġthrone":3852,"Before":3853,"Ġguard":3854,"Ġwalking":3855,"Ġtriumph":3856,"ledge":3857,"Ġsimple":3858,"Ġsentence":3859,"ĠLucentio":3860,"Ġcarried":3861,"Ġburied":3862,"ails":3863,"Unless":3864,"Ġpleased":3865,"Ġfreely":3866,"Ġpromised":3867,"Ġdrop":3868,"Ġdirectly":3869,"Ġsubjects":3870,"Ġconvin":3871,"Ġjudgment":3872,"Ġappearance":3873,"Ġeduc":3874,"Ġwounds":3875,"Ġsummer":3876,"Ġinnocent":3877,"Ġintellig":3878,"Ġdignity":3879,"ĠChrist":3880,"Ġstaircase":3881,"ĠHAMLET":3882,").":3883,"Con":3884,"Dounia":3885,"HE":3886,"NT":3887,"bear":3888,"eed":3889,"garet":3890,"hold":3891,"ient":3892,"ts":3893,"ze":3894,"Ġignor":3895,"Ġtas":3896,"reg":3897,"Ġmid":3898,"ises":3899,"Ġcost":3900,"lly":3901,"Ġdance":3902,"Ġlan":3903,"Ġbeyond":3904,"Ġgrown":3905,"Ġghost":3906,"Ġeager":3907,"rop":3908,"room":3909,"Ġwasn":3910,"Ġreb":3911,"Ġsuspect":3912,"iff":3913,"rum":3914,"ĠPerhaps":3915,"Ġshop":3916,"icious":3917,"ĠAufidius":3918,"Ġfail":3919,"Ġvar":3920,"Ġvan":3921,"Ġunf":3922,"ĠLady":3923,"ĠGerman":3924,"Whom":3925,"Ġjour":3926,"ĠNay":3927,"Ġpecul":3928,"Ġchamber":3929,"ddenly":3930,"Ġslip":3931,"Ġfriendly":3932,"Ġpresently":3933,"CATES":3934,"ĠJohn":3935,"Ġentertain":3936,"Ġentrance":3937,"Ġhappen":3938,"Ġhappiness":3939,"Ġpaid":3940,"Ġguest":3941,"Ġclean":3942,"Ġrecogn":3943,"Ġtrif":3944,"Ġsilver":3945,"Ġattempt":3946,"Ġquestions":3947,"Ġbreathe":3948,"Ġgiving":3949,"Ġcarry":3950,"Ġfacts":3951,"Ġabsolute":3952,"Ġcondem":3953,"Ġcrack":3954,"Ġcruel":3955,"Ġoppos":3956,"Alas":3957,"Ġperfectly":3958,"Ġcolour":3959,"Ġfinger":3960,"aptist":3961,"Ġhurriedly":3962,"Ġmemory":3963,"CATESBY":3964,"Ar":3965,"Ghost":3966,"JOHN":3967,"Rome":3968,"Speak":3969,"gl":3970,"hile":3971,"kind":3972,"oly":3973,"ub":3974,"xford":3975,"zen":3976,"zed":3977,"iny":3978,"Ġschool":3979,"oup":3980,"Ġmiss":3981,"Ġbod":3982,"Ġdull":3983,"Ġheat":3984,"Ġlament":3985,"Ġpit":3986,"Ġpurse":3987,"Ġthunder":3988,"Ġga":3989,"sem":3990,"chief":3991,"Ġforce":3992,"Ġstarted":3993,"roth":3994,"Ġweigh":3995,"ality":3996,"Ġdepend":3997,"Ġdemand":3998,"Ġshad":3999,"Ġfaces":4000,"Ġknowing":4001,"ĠLond":4002,"Ġrough":4003,"Ġgoodness":4004,"ĠBaptist":4005,"Ġflowers":4006,"Ġchoose":4007,"ĠVols":4008,"Ġspeaks":4009,"Ġbetray":4010,"rank":4011,"Ġchast":4012,"Ġundert":4013,"Ġcove":4014,"Ġdoorway":4015,"Ġwars":4016,"Ġknee":4017,"Ġneeds":4018,"EOS":4019,"Ġimm":4020,"Ġsupposed":4021,"Ġappeared":4022,"Ġreading":4023,"Ġmisery":4024,"Ġsteal":4025,"Ġbank":4026,"Ġhorror":4027,"Stand":4028,"Ġreflect":4029,"Ġgrey":4030,"idden":4031,"Ġfamiliar":4032,"Ġsoldier":4033,"Ġanxious":4034,"Ġwisdom":4035,"Ġclouds":4036,"ĠROS":4037,"Ġbawd":4038,"Ġlarge":4039,"ĠLondon":4040,"BIAN":4041,"DI":4042,"Hold":4043,"Le":4044,"Lest":4045,"REY":4046,"chen":4047,"eace":4048,"eorge":4049,"mark":4050,"oard":4051,"rid":4052,"sper":4053,"ĠX":4054,"Ġet":4055,"Ġsong":4056,"Ġwore":4057,"rep":4058,"Ġmaint":4059,"Ġbones":4060,"Ġbirth":4061,"Ġcred":4062,"Ġline":4063,"Ġlab":4064,"Ġpra":4065,"arr":4066,"Ġoft":4067,"asc":4068,"anced":4069,"cend":4070,"Ġstation":4071,"Ġstared":4072,"Ġstoop":4073,"Ġnay":4074,"tering":4075,"ĠRichmond":4076,"ĠSee":4077,"Ġshut":4078,"ĠWas":4079,"nivers":4080,"Ġnearly":4081,"ĠGeorge":4082,"ĠOr":4083,"together":4084,"Ġsomehow":4085,"Ġloath":4086,"Ġspring":4087,"Ġpla":4088,"range":4089,"Ġways":4090,"Ġdesert":4091,"Ġslander":4092,"Ġbecom":4093,"Ġkneel":4094,"ĠMargaret":4095,"Ġpaces":4096,"Ġmurdered":4097,"Ġattent":4098,"Nothing":4099,"Ġawhile":4100,"BAL":4101,"Ġsteel":4102,"Ġadvantage":4103,"Ġprincely":4104,"BRA":4105,"Ġrefuse":4106,"Ġdiffic":4107,"Ġbenefit":4108,"Ġdelirium":4109,"Ġconceal":4110,"Ġhopes":4111,"Ġoffended":4112,"Ġapparently":4113,"Ġlodgings":4114,"Ġwedd":4115,"Ġthroat":4116,"Ġliberty":4117,"VERS":4118,"Ġexplanation":4119,"Ġconvinced":4120,"ĠBaptista":4121,"BIANCA":4122,"Ġdifficult":4123,".<":4124,"27":4125,"Am":4126,"BOW":4127,"De":4128,"Pl":4129,"SvidrigaÃ¯lov":4130,"Tru":4131,"Welcome":4132,"af":4133,"can":4134,"fall":4135,"ien":4136,"my":4137,"pir":4138,"sion":4139,"will":4140,"wear":4141,"Ġ1":4142,"Ġtone":4143,"inen":4144,"inite":4145,"Ġmag":4146,"Ġbird":4147,"ithee":4148,"ision":4149,"isure":4150,"Ġfant":4151,"Ġfren":4152,"Ġfier":4153,"Ġcustom":4154,"orous":4155,"lling":4156,"Ġdi":4157,"Ġtoward":4158,"eding":4159,"Ġlen":4160,"Ġyard":4161,"Ġpause":4162,"anch":4163,"Ġthither":4164,"Ġnose":4165,"Ġease":4166,"Ġstern":4167,"Ġstuff":4168,"Ġmeasure":4169,"roy":4170,"Ġreign":4171,"Ġrepl":4172,"amb":4173,"Ġyourselves":4174,"Ġseal":4175,"andal":4176,"ĠPresident":4177,"uses":4178,"que":4179,"umer":4180,"Ġsaf":4181,"ĠLa":4182,"ĠGAU":4183,"While":4184,"Ġblank":4185,"ounds":4186,"Ġprithee":4187,"ption":4188,"Ġspot":4189,"Ġwhence":4190,"Ġfee":4191,"ĠKat":4192,"ignant":4193,"Ġgrand":4194,"Ġmarch":4195,"Ġcontro":4196,"Ġcock":4197,"ELBOW":4198,"Ġrestr":4199,"Ġreply":4200,"they":4201,"Ġwindows":4202,"ounced":4203,"Ġforgiven":4204,"Ġinterv":4205,"ĠThough":4206,"ĠIsab":4207,"Ġprisoner":4208,"Ġgreet":4209,"RIVERS":4210,"Ġinflu":4211,"Ġpoliceman":4212,"Ġextraord":4213,"Ġsensation":4214,"Ġwalls":4215,"Ġbox":4216,"Ġvaliant":4217,"Ġprepared":4218,"ĠOnly":4219,"Ġviolent":4220,"Ġimportant":4221,"orthy":4222,"Ġleaving":4223,"Ġfront":4224,"Ġcandle":4225,"Ġsucceeded":4226,"Ġdesperate":4227,"ĠSuddenly":4228,"Ġimpossible":4229,"ĠGAUNT":4230,"Ab":4231,"Doth":4232,"Ere":4233,"Fa":4234,"GUE":4235,"Ros":4236,"Yea":4237,"ald":4238,"gan":4239,"po":4240,"there":4241,"Ġwat":4242,"ndeed":4243,"Ġmild":4244,"Ġfurn":4245,"Ġchat":4246,"Ġcart":4247,"ences":4248,"Ġhes":4249,"Ġled":4250,"Ġlot":4251,"ĠIlya":4252,"Ġhabit":4253,"Ġgain":4254,"ley":4255,"uted":4256,"ays":4257,"Ġeasy":4258,"Ġunivers":4259,"Ġforbid":4260,"Ġstar":4261,"Ġweek":4262,"Ġnine":4263,"Ġnice":4264,"Their":4265,"Ġkins":4266,"ĠHOR":4267,"Ġhadst":4268,"Ġfacing":4269,"ument":4270,"Ġalarm":4271,"ieu":4272,"feit":4273,"Ġrain":4274,"Ġroot":4275,"osp":4276,"ĠOxford":4277,"inking":4278,"Ġlean":4279,"ortens":4280,"Ġgoodly":4281,"Ġblind":4282,"Ġusurp":4283,"Ġpron":4284,"Ġlordship":4285,"Ġprote":4286,"Ġarg":4287,"Ġmadness":4288,"Ġplan":4289,"Ġshoulder":4290,"Ġhatred":4291,"ĠPetruchio":4292,"ertes":4293,"ĠTranio":4294,"Ġglance":4295,"Ġcoll":4296,"lessly":4297,"Ġcompass":4298,"Ġstranger":4299,"Ġfairly":4300,"Ġaddress":4301,"Ġstrangely":4302,"Ġrecall":4303,"Ġimage":4304,"Ġfools":4305,"ĠĠĠĠĠĠĠĠĠĠĠĠĠĠĠĠĠĠĠĠ":4306,"TAGUE":4307,"Ġcapital":4308,"Ġhanging":4309,"Ġexplained":4310,"Ġdirect":4311,"Ġsensible":4312,"Ġcontinually":4313,"Ġcontinued":4314,"Ġvirtuous":4315,"ĠServant":4316,"Ġfaults":4317,"Ġsoftly":4318,"Ġexpected":4319,"Ġwinter":4320,"Ġanxiety":4321,"Ġfifteen":4322,"Ġdelirious":4323,"helia":4324,"Ġlocked":4325,"Ġboots":4326,"Ġcopy":4327,"Ġtribunes":4328,"Ġexcellent":4329,"Ġneighbour":4330,"coat":4331,"Ġobviously":4332,"Ġkitchen":4333,"ĠOphelia":4334,"Ġpeculiar":4335,"Ġopposite":4336,"Romeo":4337,"Ġcovered":4338,"ĠHORATIO":4339,"ortensio":4340,"Master":4341,"NIUS":4342,"Out":4343,"TZ":4344,"cha":4345,"ection":4346,"five":4347,"hil":4348,"oon":4349,"ohem":4350,"ses":4351,"some":4352,"tom":4353,"tic":4354,"Ã©":4355,"ĠQUEEN":4356,"Ġtent":4357,"hearted":4358,"Ġay":4359,"Ġsits":4360,"Ġball":4361,"Ġfro":4362,"Ġfru":4363,"orat":4364,"orough":4365,"Ġdue":4366,"Ġlinen":4367,"arn":4368,"omin":4369,"Ġthrown":4370,"Ġgrew":4371,"ston":4372,"Ġforced":4373,"Ġstro":4374,"Ġreasons":4375,"Ġnumber":4376,"ourse":4377,"tern":4378,"Ġanno":4379,"pey":4380,"Ġshook":4381,"Ġshown":4382,"Ġconsequ":4383,"Ġconvey":4384,"Ġvain":4385,"Ġunable":4386,"Ġaltogether":4387,"fered":4388,"Ġexper":4389,"Ġexceed":4390,"Ġabroad":4391,"Ġleisure":4392,"arest":4393,"Ġworry":4394,"Ġsple":4395,"Ġrob":4396,"ĠNap":4397,"Ġflower":4398,"LONIUS":4399,"unate":4400,"Ġkey":4401,"Ġhonesty":4402,"Ġpartly":4403,"Ġseeming":4404,"ĠTell":4405,"ĠTake":4406,"Ġslaughter":4407,"Ġearly":4408,"Ġheav":4409,"Ġwritten":4410,"Ġobed":4411,"pected":4412,"Ġkeeps":4413,"Ġconfusion":4414,"Ġpersu":4415,"Ġpersons":4416,"Ġtrial":4417,"ians":4418,"Ġholding":4419,"Ġmiserable":4420,"Ġbuild":4421,"ursed":4422,"Ġstreets":4423,"Ġdropped":4424,"ivering":4425,"Ġjoin":4426,"Ġevident":4427,"harina":4428,"Ġgolden":4429,"Ġquietly":4430,"Ġparticular":4431,"umberland":4432,"Ġlegal":4433,"Ġcircumstances":4434,"Ġdishonour":4435,"Ġimpression":4436,"Ġfigure":4437,"Ġlangu":4438,"Ġfrenzy":4439,"ĠLaertes":4440,"After":4441,"Could":4442,"Crosses":4443,"GI":4444,"Gu":4445,"IEL":4446,"Never":4447,"VIR":4448,"cuse":4449,"den":4450,"ton":4451,"whel":4452,"woman":4453,"Ġer":4454,"ĠUn":4455,"Ġtempt":4456,"Ġsour":4457,"Ġsaint":4458,"Ġwert":4459,"rees":4460,"have":4461,"Ġbas":4462,"Ġbab":4463,"isp":4464,"enance":4465,"enmark":4466,"orse":4467,"onc":4468,"Ġdirty":4469,"Ġhy":4470,"Ġhouses":4471,"Ġpack":4472,"Ġthrust":4473,"Ġeh":4474,"idence":4475,"cholog":4476,"Ġstat":4477,"Ġmel":4478,"rick":4479,"Ġwast":4480,"Ġweary":4481,"ads":4482,"urd":4483,"ote":4484,"Ġsearch":4485,"ĠHorat":4486,"Ġdoom":4487,"ĠPO":4488,"Ġshake":4489,"Ġknowledge":4490,"ĠMad":4491,"ĠMark":4492,"ĠMerc":4493,"Ġwouldst":4494,"ĠCan":4495,"Ġexist":4496,"ĠGREY":4497,"orted":4498,"ĠEvery":4499,"onder":4500,"Ġproclaim":4501,"ĠBesides":4502,"Ġmaybe":4503,"Ġanyway":4504,"Ġthinks":4505,"Ġpeasant":4506,"Ġclosed":4507,"Ġbeforehand":4508,"Ġeng":4509,"Ġconsum":4510,"Ġsmiling":4511,"Ġbelow":4512,"Ġaccident":4513,"force":4514,"Ġdeadly":4515,"Ġfeelings":4516,"Ġteach":4517,"Ġrecoll":4518,"Ġaware":4519,"ounter":4520,"Ġlawful":4521,"Ġhumble":4522,"Ġsorts":4523,"Ġiron":4524,"racted":4525,"Ġcapable":4526,"Ġreturned":4527,"while":4528,"Ġobserv":4529,"Ġspirits":4530,"Ġinteresting":4531,"ĠNik":4532,"Ġcounter":4533,"PERDI":4534,"Ġweakness":4535,"Ġoccup":4536,"Ġbooks":4537,"Ġaffairs":4538,"Ġresolved":4539,"Ġembarr":4540,"natural":4541,"Ġdisgrace":4542,"Ġgovernment":4543,"Ġexecution":4544,"Ġacquaintance":4545,"Ġphys":4546,"MONTAGUE":4547,"sycholog":4548,"Ġgloomy":4549,"Ġpillow":4550,"Ġunhappy":4551,"Ġeducation":4552,"Ġjourney":4553,"Ġinterview":4554,"ohemia":4555,"GILIA":4556,"VIRGILIA":4557,"ĠHoratio":4558,"PERDITA":4559,"Ġembarrass":4560,"Peace":4561,"SET":4562,"SLY":4563,"Too":4564,"draw":4565,"go":4566,"kof":4567,"lic":4568,"mn":4569,"rate":4570,"rings":4571,"ug":4572,"vent":4573,"wise":4574,"xpected":4575,"yr":4576,"Ġwet":4577,"Ġmill":4578,"Ġmotion":4579,"Ġbrow":4580,"ism":4581,"ishing":4582,"Ġfought":4583,"Ġcough":4584,"enet":4585,"Ġdying":4586,"edant":4587,"Ġhit":4588,"Ġhol":4589,"Ġlust":4590,"Ġpick":4591,"Ġpict":4592,"Ġpsycholog":4593,"omitch":4594,"Ġthrew":4595,"Ġhaught":4596,"Ġbeard":4597,"ida":4598,"Ġstock":4599,"rote":4600,"illing":4601,"verty":4602,"Ġdeceived":4603,"oler":4604,"Ġshudd":4605,"ĠAre":4606,"ĠAfter":4607,"antag":4608,"Ġmanners":4609,"._)":4610,"allow":4611,"Ġorgan":4612,"Ġunl":4613,"odim":4614,"Ġrise":4615,"oundation":4616,"Ġproper":4617,"Ġprocess":4618,"Ġprosper":4619,"Ġarrest":4620,"Ġpoverty":4621,"Ġremark":4622,"Ġdeserved":4623,"Ġscandal":4624,"Ġruin":4625,"ĠFomitch":4626,"Ġtruly":4627,"Ġwomb":4628,"vided":4629,"place":4630,"Without":4631,"Ġcommend":4632,"Ġobt":4633,"Ġcalls":4634,"Ġyounger":4635,"formed":4636,"orses":4637,"Ġdoesn":4638,"Ġkindness":4639,"Ġpleasant":4640,"ĠProkof":4641,"Ġexcited":4642,"Ġabsurd":4643,"Ġdirection":4644,"IANA":4645,"ĠSemyonovitch":4646,"Ġinvited":4647,"acher":4648,"Ġofficial":4649,"Ġbanishment":4650,"MARIANA":4651,"Ġinquir":4652,"Ġsquee":4653,"Ġslew":4654,"Ġsatisfied":4655,"Ġfirmly":4656,"Ġprivate":4657,"Ġidle":4658,"Ġseized":4659,"Ġarrived":4660,"Ġeasily":4661,"Ġnecessary":4662,"Ġvenge":4663,"ĠCoriolanus":4664,"ĠPaul":4665,"ĠPompey":4666,"Ġelectronic":4667,"ĠProkofitch":4668,".,":4669,";--":4670,"Bro":4671,"Bel":4672,"PAR":4673,"Su":4674,"VINCENTIO":4675,"fl":4676,"good":4677,"ler":4678,"light":4679,"more":4680,"Ġtired":4681,"Ġaid":4682,"Ġaud":4683,"Ġsides":4684,"Ġwicked":4685,"reement":4686,"Ġmorrow":4687,"Ġmention":4688,"Ġmethinks":4689,"Ġfood":4690,"Ġfate":4691,"Ġfully":4692,"Ġcou":4693,"enes":4694,"Ġduring":4695,"Ġhidden":4696,"Ġpure":4697,"Ġpave":4698,"ature":4699,"Ġhap":4700,"rot":4701,"rodu":4702,"ric":4703,"Ġwaste":4704,"Ġwept":4705,"adua":4706,"urb":4707,"ĠHa":4708,"Ġangel":4709,"Ġunse":4710,"Ġagreement":4711,"ĠCa":4712,"elve":4713,"ĠDenmark":4714,"Ġrot":4715,"ĠNorth":4716,"Ġfled":4717,"Ġbrothers":4718,"ploy":4719,"Ġswift":4720,"Ġglory":4721,"Ġbelong":4722,"Ġtrad":4723,"Ġaccess":4724,"Ġrepent":4725,"Ġwaited":4726,"remio":4727,"Ġdistin":4728,"Ġdistrib":4729,"Ġguilt":4730,"Ġbusy":4731,"Ġlands":4732,"Ġuncons":4733,"Ġdrawn":4734,"Ġinterp":4735,"Ġshouting":4736,"Ġadvice":4737,"Ġcapt":4738,"Ġincre":4739,"Ġanguish":4740,"Ġarmy":4741,"Ġwatching":4742,"Ġunexpected":4743,"Ġconfession":4744,"Ġsenses":4745,"Ġfourth":4746,"bbing":4747,"Ġgrowing":4748,"Ġembrace":4749,"Ġtemp":4750,"Ġutterly":4751,"Ġdrive":4752,"Ġdeclared":4753,"Ġbeggar":4754,"Ġdelighted":4755,"ealous":4756,"Ġtorture":4757,"Ġknave":4758,"Ġtorment":4759,"Ġmourn":4760,"Ġvictory":4761,"Ġphrase":4762,"Ġbridge":4763,"rumio":4764,"Ġlabour":4765,"Ġleng":4766,"Ġsafety":4767,"ĠKatharina":4768,"ĠIsabel":4769,"Faith":4770,"ĠPOLONIUS":4771,"ĠNikodim":4772,"PARIS":4773,"Ġpavement":4774,":'":4775,"Bet":4776,"EW":4777,"Pyotr":4778,"Perhaps":4779,"_.]":4780,"app":4781,"bow":4782,"gar":4783,"gress":4784,"his":4785,"ipe":4786,"jo":4787,"may":4788,"sky":4789,"vest":4790,"Ġ&":4791,"Ġaston":4792,"Ġsal":4793,"Ġswe":4794,"Ġwra":4795,"Ġwoes":4796,"itable":4797,"Ġcab":4798,"ency":4799,"orne":4800,"Ġdwell":4801,"edy":4802,"Ġhosp":4803,"Ġpot":4804,"Ġpap":4805,"arse":4806,"Ġgift":4807,"stand":4808,"eter":4809,"Ġforty":4810,"Ġweight":4811,"Ġwearing":4812,"aded":4813,"illy":4814,"aming":4815,"Ġlip":4816,"Ġliest":4817,"Ġliked":4818,"ĠRuss":4819,"Ġshepherd":4820,"run":4821,"this":4822,"Ġshr":4823,"ĠAy":4824,"oused":4825,"Ġunple":4826,"Think":4827,"ĠLida":4828,"eless":4829,"osity":4830,"ortion":4831,"Ġtimidly":4832,"Ġsport":4833,"ĠBl":4834,"ĠBohemia":4835,"Ġdeserve":4836,"unity":4837,"ĠFoundation":4838,"ples":4839,"ension":4840,"Ġcommiss":4841,"Ġobst":4842,"Ġhonours":4843,"Ġsettled":4844,"overed":4845,"Ġrememb":4846,"Ġteeth":4847,"Ġemploy":4848,"Ġcareful":4849,"Ġfellows":4850,"Ġcountenance":4851,"Ġdouble":4852,"Ġawake":4853,"Ġrank":4854,"Ġdiscuss":4855,"Ġcharity":4856,"Ġregular":4857,"Ġconduct":4858,"Ġdispatch":4859,"Ġdisposition":4860,"Ġcorre":4861,"Ġsinging":4862,"Ġstronger":4863,"Only":4864,"Ġquarter":4865,"bbed":4866,"Ġblessed":4867,"Ġprofess":4868,"Ġprevious":4869,"Ġdefence":4870,"Ġfeverish":4871,"Ġfingers":4872,"Ġdisgust":4873,"Ġmoral":4874,"Ġflew":4875,"Ġjumped":4876,"Ġelder":4877,"Ġconcern":4878,"Ġconviction":4879,"Ġwedding":4880,"Ġextraordinary":4881,"Ġannoy":4882,"antagenet":4883,"Ġunconscious":4884,"'?":4885,"BU":4886,"DOR":4887,"DENS":4888,"Hark":4889,"Please":4890,"Sweet":4891,"TIUS":4892,"acc":4893,"aff":4894,"eunt":4895,"gue":4896,"him":4897,"ope":4898,"side":4899,"ulet":4900,"vi":4901,"val":4902,"would":4903,"yard":4904,"Ġtheory":4905,"Ġmamm":4906,"Ġbrows":4907,"Ġobl":4908,"itors":4909,"Ġfra":4910,"Ġcent":4911,"Ġcases":4912,"Ġcitizens":4913,"orious":4914,"oned":4915,"Ġder":4916,"inging":4917,"Ġpin":4918,"Ġpress":4919,"Ġthief":4920,"vell":4921,"Ġgent":4922,"Ġgross":4923,"utation":4924,"Ġnotes":4925,"Ġstars":4926,"Ġstones":4927,"Ġmeat":4928,"Ġhist":4929,"Ġsep":4930,"ĠHortensio":4931,"Ġanon":4932,"iffe":4933,"rung":4934,"ĠPadua":4935,"think":4936,"ĠWatch":4937,"ĠAnt":4938,"Ġconqu":4939,"astic":4940,"Ġunnatural":4941,"ARIEL":4942,"ĠMay":4943,"ĠMore":4944,"ĠMaster":4945,"Ġsacri":4946,"ĠLEW":4947,"Ġexha":4948,"Ġcanal":4949,"istress":4950,"ĠGaunt":4951,"ĠGremio":4952,"Ġjew":4953,"Ġjealous":4954,"Ġlend":4955,"oundrel":4956,"ĠEarl":4957,"idered":4958,"Ġroad":4959,"Ġshoulders":4960,"Ġaffection":4961,"Ġflo":4962,"Ġflashed":4963,"Ġtwelve":4964,"Ġdise":4965,"Ġbroad":4966,"Ġfeather":4967,"Ġgreatly":4968,"Ġprec":4969,"pless":4970,"Ġhollow":4971,"uded":4972,"Ġwriting":4973,"Within":4974,"Ġworking":4975,"TERN":4976,"ĠJove":4977,"Ġendure":4978,"Ġconfound":4979,"faction":4980,"Ġminister":4981,"Ġdelay":4982,"Ġunderstanding":4983,"Ġinstead":4984,"Ġclever":4985,"Ġbears":4986,"Ġbread":4987,"Ġintent":4988,"Ġfollows":4989,"Ġcheek":4990,"Ġmistaken":4991,"Ġmistrust":4992,"atesby":4993,"Unto":4994,"Ġfallen":4995,"Ġexcit":4996,"Sirrah":4997,"Ġpropert":4998,"Ġlearnt":4999,"LARTIUS":5000,"Ġdamn":5001,"Ġskull":5002,"Ġgazing":5003,"Ġinstantly":5004,"Ġwounded":5005,"Ġcerem":5006,"chance":5007,"Ġhideous":5008,"Ġfifty":5009,"Ġuntil":5010,"Ġslept":5011,"iterary":5012,"Ġreckoning":5013,"Ġnervous":5014,"Ġencounter":5015,"Ġpunish":5016,"ĠCapulet":5017,"Quite":5018,"Ġpledge":5019,"Ġchoice":5020,"ĠXI":5021,"Ġattentively":5022,"Ġuniversity":5023,"Ġkinsman":5024,"Ġvengeance":5025,"ĠNorthumberland":5026,"Ġhospital":5027,"BURY":5028,"DENSTERN":5029,"ĠWatchman":5030,"ĠLEWIS":5031,"**":5032,";'":5033,"?[":5034,"Bl":5035,"Fear":5036,"Katerina":5037,"Os":5038,"Pardon":5039,"PSON":5040,"Pedant":5041,"RTIS":5042,"SAM":5043,"UIL":5044,"ax":5045,"ait":5046,"after":5047,"bray":5048,"cst":5049,"cred":5050,"fer":5051,"lar":5052,"pes":5053,"rist":5054,"rough":5055,"sa":5056,"worn":5057,"Ġtorn":5058,"Ġsn":5059,"Ġsly":5060,"Ġsink":5061,"ounce":5062,"Ġwench":5063,"Ġwrote":5064,"Ġbore":5065,"Ġbast":5066,"Ġbond":5067,"Ġfain":5068,"Ġfil":5069,"Ġcens":5070,"Ġcries":5071,"Ġdim":5072,"Ġdumb":5073,"Ġhorses":5074,"Ġlest":5075,"Ġpite":5076,"Ġpicked":5077,"owbray":5078,"Ġstain":5079,"Ġstab":5080,"Ġweap":5081,"Ġwhilst":5082,"Ġsees":5083,"ĠHim":5084,"ĠHay":5085,"ĠPer":5086,"thy":5087,"Ġshirt":5088,"ĠAm":5089,"ĠAp":5090,"Ġfaire":5091,"Ġvol":5092,"Ġunb":5093,"Ġunm":5094,"ĠMi":5095,"ĠMen":5096,"Ġsacred":5097,"ĠThese":5098,"ĠGrumio":5099,"ĠGUIL":5100,"Ġspect":5101,"Ġspare":5102,"Ġrock":5103,"ETER":5104,"Ġflow":5105,"Ġclass":5106,"Ġclaim":5107,"Ġperceive":5108,"Ġdownstairs":5109,"Ġoverwhel":5110,"Ġscr":5111,"Ġwanton":5112,"Ġturns":5113,"Ġraise":5114,"aughters":5115,"ffic":5116,"Ġhole":5117,"ected":5118,"Ġcover":5119,"Ġgrat":5120,"Ġbelieved":5121,"Ġprayer":5122,"Ġdelic":5123,"Ġintense":5124,"Ġintrodu":5125,"Ġkindly":5126,"Ġgives":5127,"RANTZ":5128,"Ġhumour":5129,"Ġhumbly":5130,"Ġsupport":5131,"Ġlessons":5132,"Ġbegins":5133,"ENCRANTZ":5134,"Ġexchan":5135,"Ġmasters":5136,"Ġsounds":5137,"Ġrouble":5138,"Ġseriously":5139,"Ġkissed":5140,"Ġuttered":5141,"Ġabsence":5142,"Ġtreason":5143,"Ġrespected":5144,"Ġcorrupt":5145,"Ġinterested":5146,"Exeunt":5147,"Ġsingle":5148,"Ġevidently":5149,"Ġoppress":5150,"CURTIS":5151,"Ġburst":5152,"Ġresolute":5153,"Ġleading":5154,"Ġblessing":5155,"Ġprepare":5156,"Ġedge":5157,"Ġsumm":5158,"Twas":5159,"ANTI":5160,"Ġleaves":5161,"Ġfatal":5162,"mission":5163,"Ġpossession":5164,"Ġlodgers":5165,"Ġprinci":5166,"Ġimpatience":5167,"eeper":5168,"Ġlifted":5169,"Ġventure":5170,"Ġequal":5171,"ancholy":5172,"umerle":5173,"Ġlanguage":5174,"Ġmelancholy":5175,"ĠMarket":5176,"Brother":5177,"Osr":5178,"SAMPSON":5179,"ĠGUILDENSTERN":5180,"?...":5181,"?--":5182,"?_]":5183,"AL":5184,"Ber":5185,"CH":5186,"Citizens":5187,"EX":5188,"Either":5189,"Made":5190,"Ne":5191,"Porfiry":5192,"TR":5193,"av":5194,"act":5195,"ivers":5196,"ivil":5197,"long":5198,"mb":5199,"ollow":5200,"rison":5201,"shall":5202,"wl":5203,"zz":5204,"Ġtall":5205,"het":5206,"Ġaught":5207,"Ġsan":5208,"Ġwake":5209,"Ġwits":5210,"Ġwaked":5211,"requ":5212,"Ġmat":5213,"Ġmir":5214,"Ġmood":5215,"Ġcat":5216,"Ġcure":5217,"Ġcivil":5218,"edious":5219,"Ġhig":5220,"Ġpier":5221,"Ġthorough":5222,"imate":5223,"utio":5224,"sec":5225,"Ġmyst":5226,"Ġstum":5227,"Ġstick":5228,"Ġrecei":5229,"Ġsell":5230,"ĠRe":5231,"Ġsugg":5232,"ĠSomet":5233,"oles":5234,"ovna":5235,"ested":5236,"ushing":5237,"ĠAb":5238,"Ġconj":5239,"ember":5240,"Ġamb":5241,"Ġunfort":5242,"ĠMowbray":5243,"Ġsaved":5244,"Ġagon":5245,"Ġquoth":5246,"Ġours":5247,"ĠOur":5248,"Ġblock":5249,"ĠAndrey":5250,"ĠBoth":5251,"Ġrogue":5252,"Ġafford":5253,"Ġflight":5254,"Ġdiss":5255,"erves":5256,"Ġbrains":5257,"Ġwherefore":5258,"Ġscoundrel":5259,"Ġpretend":5260,"clam":5261,"Ġsmart":5262,"Ġchildish":5263,"ĠMars":5264,"Ġcompan":5265,"Ġentire":5266,"Ġended":5267,"ĠRoman":5268,"Ġwail":5269,"Ġdistance":5270,"Ġdisturb":5271,"LEY":5272,"Ġmatters":5273,"Ġattack":5274,"Ġkindred":5275,"Ġpoints":5276,"Ġsooner":5277,"Ġmerc":5278,"Ġbringing":5279,"Ġadvance":5280,"Ġhurt":5281,"Ġcares":5282,"Ġacross":5283,"ĠLew":5284,"Ġdrops":5285,"Ġindiffe":5286,"Ġbids":5287,"Ġcorse":5288,"Ġcrossed":5289,"Ġfighting":5290,"Ġjoint":5291,"Ġmarket":5292,"Ġcrushed":5293,"Ġnoticing":5294,"acle":5295,"urious":5296,"Ġexpecting":5297,"Ġdamned":5298,"bury":5299,"Ġvalour":5300,"Ġyea":5301,"Ġbowed":5302,"Ġdreadful":5303,"GONUS":5304,"Ġconclusion":5305,"headed":5306,"Ġfrowning":5307,"Ġmalice":5308,"ĠPlay":5309,"Ġtyrant":5310,"Ġgroan":5311,"Ġcuriosity":5312,"Ġauthority":5313,"Ġbottom":5314,"Ġdegree":5315,"Ġaccording":5316,"Ġignorant":5317,"Ġcondemn":5318,"Ġundertake":5319,"ĠROSENCRANTZ":5320,"Ġcredit":5321,"Ġbecomes":5322,"True":5323,"Guil":5324,"Ġmamma":5325,"Ġexcitement":5326,"Ġproperty":5327,"ANTIGONUS":5328,"Fie":5329,"Get":5330,"Listen":5331,"Mine":5332,"TCLIFF":5333,"Under":5334,"_.":5335,"gers":5336,"hy":5337,"hum":5338,"phan":5339,"sc":5340,"uing":5341,"Ã¨":5342,"Ġess":5343,"ĠUpon":5344,"Ġtakes":5345,"Ġtedious":5346,"Ġsoup":5347,"Ġsilly":5348,"Ġwand":5349,"Ġwither":5350,"Ġwont":5351,"Ġmot":5352,"Ġmeth":5353,"Ġbru":5354,"Ġborrow":5355,"Ġborne":5356,"Ġorig":5357,"Ġfist":5358,"Ġfold":5359,"Ġfret":5360,"Ġfrank":5361,"Ġcig":5362,"Ġdared":5363,"Ġheed":5364,"arrow":5365,"ancing":5366,"Ġthread":5367,"Ġgle":5368,"Ġgasp":5369,"Ġstout":5370,"Ġstaring":5371,"Ġmend":5372,"rily":5373,"Ġweeds":5374,"keep":5375,"Ġnames":5376,"ams":5377,"ords":5378,"Ġshore":5379,"Ġshock":5380,"Ġshrew":5381,"ĠAf":5382,"Ġconstant":5383,"Ġshape":5384,"Ġorphan":5385,"Ġthereof":5386,"ĠMe":5387,"pper":5388,"Ġalar":5389,"Ġagreed":5390,"Ġabuse":5391,"Whilst":5392,".\"]":5393,"Ġlog":5394,"Ġprover":5395,"new":5396,"Ġplague":5397,"Ġflushed":5398,"Ġdisd":5399,"Ġbetrot":5400,"Ġremains":5401,"Ġdescrib":5402,"Ġgreatest":5403,"Ġparting":5404,"Ġparted":5405,"Ġcontract":5406,"Ġragged":5407,"Ġconsidered":5408,"Ġsmell":5409,"uding":5410,"ĠIvanovitch":5411,"Ġtrain":5412,"Ġwrath":5413,"Ġadieu":5414,"Ġpresident":5415,"Ġdoors":5416,"Ġfolly":5417,"Ġaccus":5418,"Ġsetting":5419,"Ġrepro":5420,"Ġdisting":5421,"Ġappre":5422,"Ġlawy":5423,"Ġopenly":5424,"Ġinsol":5425,"ĠĠĠĠĠĠĠĠĠĠĠĠĠĠĠĠĠĠĠĠĠĠĠĠĠĠĠĠ":5426,"Ġstepped":5427,"Ġadvise":5428,"Ġharsh":5429,"Ġactually":5430,"Ġkissing":5431,"ribly":5432,"Ġutmost":5433,"utenant":5434,"Ġabsent":5435,"Ġtreasure":5436,"Ġtreacher":5437,"Ġdarkness":5438,"Ġcrave":5439,"Ġstudy":5440,"Ġforehead":5441,"Ġoccur":5442,"Ġswords":5443,"Ġresolution":5444,"Ġprevent":5445,"Two":5446,"ollo":5447,"Ġprovide":5448,"Ġframe":5449,"Ġdestroy":5450,"Ġfilled":5451,"Ġgenerous":5452,"Ġtyran":5453,"Ġsymp":5454,"Ġfinished":5455,"Ġcursed":5456,"Ġgateway":5457,"Ġpainted":5458,"strous":5459,"Ġamazed":5460,"ĠKoch":5461,"looking":5462,"Ġsolemn":5463,"Ġuneasily":5464,"Ġstorm":5465,"ĠPrince":5466,"Ġslipped":5467,"RATCLIFF":5468,"Ġtaste":5469,"Ġrecognised":5470,"Ġabsolutely":5471,"ĠVolsces":5472,"Ġetern":5473,"Ġloathsome":5474,"Ġfiery":5475,"Ġcompassion":5476,"Ġfruit":5477,"Ġconsequence":5478,"Ġexceedingly":5479,"Ġcouple":5480,"Ġrotten":5481,"Ġexhaust":5482,"Ġprecise":5483,"Ġpiteous":5484,"Ġunfortunate":5485,"ĠLewis":5486,"Ġbetrothed":5487,"50":5488,"Ach":5489,"BIS":5490,"CT":5491,"Des":5492,"Dost":5493,"DON":5494,"Gentle":5495,"Hear":5496,"HOP":5497,"Methinks":5498,"Once":5499,"Rod":5500,"Signior":5501,"aly":5502,"acles":5503,"bre":5504,"cle":5505,"fess":5506,"gy":5507,"give":5508,"hind":5509,"ming":5510,"overy":5511,"pen":5512,"round":5513,"ront":5514,"sed":5515,"wixt":5516,"ĠQueen":5517,"Ġtaught":5518,"Ġtune":5519,"incentio":5520,"Ġwings":5521,"Ġmess":5522,"Ġmudd":5523,"Ġbite":5524,"Ġbark":5525,"itol":5526,"Ġfish":5527,"Ġfrant":5528,"Ġcell":5529,"Ġcard":5530,"Ġdaughters":5531,"Ġhost":5532,"Ġlower":5533,"esy":5534,"Ġpath":5535,"Ġpair":5536,"Ġpains":5537,"omas":5538,"Ġinfect":5539,"Ġgest":5540,"Ġgown":5541,"stit":5542,"uties":5543,"utland":5544,"Ġecst":5545,"Ġstol":5546,"Ġstif":5547,"Ġmere":5548,"Ġnumb":5549,"Ġknight":5550,"amn":5551,"ĠRutland":5552,"rand":5553,"Ġdece":5554,"ĠSh":5555,"ĠSpeak":5556,"order":5557,"Ġshoes":5558,"Ġupset":5559,"ĠAd":5560,"Ġwhatever":5561,"antua":5562,"aker":5563,"Ġfares":5564,"Ġneg":5565,"resp":5566,"asting":5567,"ĠMake":5568,"ĠMantua":5569,"Ġsail":5570,"ĠLA":5571,"Ġrash":5572,"Ġrasc":5573,"Ġabrupt":5574,"kolka":5575,"Ġblue":5576,"Ġworried":5577,"cians":5578,"Ġprodu":5579,"Ġarrange":5580,"Ġspake":5581,"Ġmadman":5582,"ĠBarn":5583,"Ġmayst":5584,"ĠNever":5585,"ĠNev":5586,"ANLEY":5587,"Ġflood":5588,"Ġflash":5589,"Ġsirrah":5590,"ĠVincentio":5591,"Ġpeep":5592,"Ġperil":5593,"Ġenvy":5594,"Ġchamp":5595,"Ġrum":5596,"Ġrule":5597,"ĠFarewell":5598,"Ġparts":5599,"Ġraising":5600,"Ġswore":5601,"Ġswallow":5602,"Ġglow":5603,"Ġhastened":5604,"Ġfoes":5605,"Ġaccuse":5606,"Ġfinding":5607,"Ġhelpless":5608,"Ġsecure":5609,"Ġtend":5610,"Ġassured":5611,"Ġterm":5612,"Ġlighted":5613,"Ġfollowing":5614,"Ġhunt":5615,"Ġbreathing":5616,"Ġsupper":5617,"oever":5618,"ĠĠĠĠĠĠĠĠĠĠĠĠĠĠĠĠĠĠĠĠĠĠĠĠ":5619,"Ġtongues":5620,"Ġwrongs":5621,"Ġdeputy":5622,"Ġrelation":5623,"rithee":5624,"Ġhateful":5625,"Ġquarre":5626,"Ġmarked":5627,"Ġforeign":5628,"twixt":5629,"Ġcurrent":5630,"Ġaffair":5631,"Ġgrows":5632,"Ġleads":5633,"Ġprofit":5634,"Ġceased":5635,"Ġpainful":5636,"Ġprovost":5637,"Ġcontemptuous":5638,"Ġsatisfaction":5639,"Ġgranted":5640,"Ġcircumstance":5641,"reedom":5642,"Ġburning":5643,"Ġpractise":5644,"Ġdivine":5645,"Ġstorey":5646,"Ġdetermined":5647,"Ġamazement":5648,"Ġrevolver":5649,"ĠCapitol":5650,"Ġuneasiness":5651,"Ġsenate":5652,"Ġordinary":5653,"TYBAL":5654,"Ġperplex":5655,"Ġextremely":5656,"Ġbewild":5657,"ĠChristian":5658,"Ġbodies":5659,"Ġshadow":5660,"Ġfantastic":5661,"Ġreplied":5662,"Ġrestrain":5663,"Ġforgiveness":5664,"Ġhesit":5665,"ĠMercutio":5666,"Ġunpleasant":5667,"Ġremembrance":5668,"ĠMikolka":5669,"Ġproverb":5670,"BISHOP":5671,"TYBALT":5672,"14":5673,"Bid":5674,"Book":5675,"Besides":5676,"DER":5677,"Gutenberg":5678,"Indeed":5679,"Just":5680,"KEN":5681,"Know":5682,"Lo":5683,"Put":5684,"Rem":5685,"SC":5686,"Tut":5687,"ault":5688,"aches":5689,"br":5690,"ey":5691,"father":5692,"gin":5693,"just":5694,"ointed":5695,"Ġtou":5696,"Ġtid":5697,"Ġtest":5698,"hether":5699,"Ġapt":5700,"Ġscept":5701,"Ġwre":5702,"Ġwives":5703,"Ġmas":5704,"Ġmil":5705,"Ġmater":5706,"Ġmessenger":5707,"Ġbal":5708,"Ġbill":5709,"Ġowe":5710,"Ġorac":5711,"erona":5712,"iture":5713,"Ġcher":5714,"Ġcook":5715,"Ġdig":5716,"Ġluck":5717,"Ġport":5718,"Ġparent":5719,"Ġpowers":5720,"aries":5721,"arily":5722,"asm":5723,"anley":5724,"Ġhaunt":5725,"Ġgently":5726,"step":5727,"lev":5728,"lyona":5729,"Ġmyster":5730,"Ġstret":5731,"Ġmerely":5732,"Ġwealth":5733,"urance":5734,"ĠHad":5735,"Ġantic":5736,"raced":5737,"Ġdew":5738,"Ġsullen":5739,"Ġbutcher":5740,"rud":5741,"Ġwilling":5742,"Ġshrie":5743,"Ġship":5744,"using":5745,"ili":5746,"ilia":5747,"ĠAumerle":5748,"ĠĠĠĠĠĠĠ":5749,"Ġvantage":5750,"Ġgoss":5751,"Ġunless":5752,"ĠMusic":5753,"ĠComin":5754,"ĠCatesby":5755,"Ġris":5756,"Ġqual":5757,"Ġaband":5758,"osen":5759,"ept":5760,"Ġlevel":5761,"Ġblest":5762,"pture":5763,"Ġproved":5764,"Ġprogress":5765,"ERTES":5766,"ORY":5767,"Ġplot":5768,"athy":5769,"AND":5770,"Ġshouldst":5771,"Ġbegged":5772,"Ġfeed":5773,"apable":5774,"ĠKeeper":5775,"Ġremedy":5776,"Ġovert":5777,"Ġdescend":5778,"ignation":5779,"Ġwherein":5780,"ĠFl":5781,"Ġtrun":5782,"Ġkeys":5783,"Ġlasted":5784,"Ġcourage":5785,"Ġado":5786,"Ġimprison":5787,"Ġarticul":5788,"Ġresist":5789,"Ġplead":5790,"Ġworked":5791,"Ġrestore":5792,"Ġends":5793,"Ġfinds":5794,"Ġwaist":5795,"Ġdeliber":5796,"ĠTherefore":5797,"Ġapart":5798,"Ġdistress":5799,"Ġdistressed":5800,"Ġqueer":5801,"Ġemp":5802,"Ġtrick":5803,"Ġtriump":5804,"Ġserved":5805,"Ġdrum":5806,"Ġtail":5807,"Ġpointed":5808,"OMAS":5809,"Ġplaying":5810,"Ġawfully":5811,"Ġlaws":5812,"Ġtraitors":5813,"Ġinsist":5814,"Ġdiscover":5815,"Ġpersonal":5816,"Ġirre":5817,"Ġcaused":5818,"Ġjoyful":5819,"Ġwondering":5820,"Ġsigns":5821,"Ġdecide":5822,"Ġtread":5823,"Ġshortly":5824,"Ġdetail":5825,"Ġtrembled":5826,"Ġlearned":5827,"Ġfaithful":5828,"Ġcourtesy":5829,"Ġrealised":5830,"Ġdenied":5831,"Ġcurt":5832,"Ġburden":5833,"Ġpockets":5834,"Ġsuspicious":5835,"Ġimagination":5836,"Ġpieces":5837,"Alack":5838,"Ġcease":5839,"Ġviolently":5840,"Ġcolours":5841,"Ġsurround":5842,"Ġbitterly":5843,"Ġestate":5844,"Ġfaintly":5845,"Ġcontemptible":5846,"Ġconceit":5847,"Ġgarments":5848,"ĠPlantagenet":5849,"Ġwitnesses":5850,"Ġhumanity":5851,"Ġcurses":5852,"Ġhungry":5853,"Ġeasier":5854,"Ġhiding":5855,"Ġnerves":5856,"ĠCorioli":5857,"Ġeleven":5858,"Ġdares":5859,"Ġrapid":5860,"Ġperpet":5861,"Ġenvious":5862,"Ġtrumpets":5863,"Ġintelligence":5864,"HELIA":5865,"Ġvanity":5866,"Ġtrifles":5867,"Ġchaste":5868,"BRAKEN":5869,"Ġcontrol":5870,"Ġinfluence":5871,"Ġpronounced":5872,"ĠPaulina":5873,"Ġlength":5874,"Ġwrapped":5875,"Ġpapers":5876,"TRESS":5877,"olesome":5878,"Ġentirely":5879,"Ã¨d":5880,"Ġmotive":5881,"Ġcigaret":5882,"Ġmaterial":5883,"Ġoracle":5884,"ĠCominius":5885,"BRAKENBURY":5886,"20":5887,"Ad":5888,"Edward":5889,"GORY":5890,"Hence":5891,"MIS":5892,"Poor":5893,"Ret":5894,"Richard":5895,"Show":5896,"Turn":5897,"Unt":5898,"bar":5899,"ban":5900,"dig":5901,"een":5902,"hus":5903,"iod":5904,"jud":5905,"nant":5906,"oc":5907,"oci":5908,"off":5909,"rt":5910,"rous":5911,"time":5912,"uit":5913,"uine":5914,"uced":5915,"Ġing":5916,"Ġtiny":5917,"Ġtroth":5918,"hest":5919,"inct":5920,"inous":5921,"Ġsins":5922,"ouble":5923,"Ġwager":5924,"Ġmare":5925,"Ġmass":5926,"Ġmouse":5927,"Ġband":5928,"Ġbought":5929,"erset":5930,"itary":5931,"Ġfires":5932,"Ġcas":5933,"Ġcool":5934,"enced":5935,"enius":5936,"ories":5937,"Ġdies":5938,"Ġheels":5939,"Ġhook":5940,"Ġhind":5941,"Ġhint":5942,"Ġloose":5943,"Ġlamb":5944,"Ġyonder":5945,"noon":5946,"Ġpil":5947,"Ġpension":5948,"omerset":5949,"Ġnois":5950,"Ġbeer":5951,"Ġgidd":5952,"uting":5953,"sell":5954,"iring":5955,"Ġwithdraw":5956,"Ġmechan":5957,"Ġreve":5958,"ourish":5959,"Ġwhip":5960,"cked":5961,"ctors":5962,"raph":5963,"Ġdeb":5964,"Ġdozen":5965,"ĠSuch":5966,"Ġhadn":5967,"oves":5968,"Ġsheep":5969,"rump":5970,"ĠPray":5971,"Ġshri":5972,"ĠAlyona":5973,"Ġconne":5974,"antly":5975,"Ġshawl":5976,"ardine":5977,"Ġvir":5978,"Ġvast":5979,"Ġvod":5980,"Ġvig":5981,"Ġvows":5982,"Ġvouch":5983,"Ġmanage":5984,"hant":5985,"Ġung":5986,"umov":5987,"ĠLic":5988,"Ġcomb":5989,"Ġalas":5990,"Ġoutward":5991,"Ġoutside":5992,"ĠCon":5993,"ĠCould":5994,"ference":5995,"Ġroused":5996,"Ġexerc":5997,"Ġexagger":5998,"ĠOVER":5999,"ĠDr":6000,"Ġblur":6001,"Ġblush":6002,"Ġloyal":6003,"Ġusual":6004,"naumov":6005,"Heaven":6006,"ĠEn":6007,"Ġspl":6008,"Ġplant":6009,"Ġmayor":6010,"Ġdislike":6011,"Ġdismay":6012,"Ġbrook":6013,"Ġclut":6014,"bler":6015,"Myself":6016,"Ġremoved":6017,"Ġovercome":6018,"fty":6019,"Ġscold":6020,"Ġrust":6021,"Ġrush":6022,"Ġhonoured":6023,"ĠTHE":6024,"Ġsmooth":6025,"Ġputs":6026,"Into":6027,"ounty":6028,"Ġgets":6029,"Ġcoff":6030,"ize":6031,"Ġcommitted":6032,"Ġresp":6033,"Ġaccused":6034,"Ġaccomp":6035,"Ġworkman":6036,"Ġworkmen":6037,"Ġrepul":6038,"faced":6039,"shire":6040,"Wherein":6041,"Ġaddressed":6042,"Ġfarther":6043,"Ġassoci":6044,"Ġservices":6045,"ontent":6046,"Ġhuge":6047,"PETER":6048,"Ġtax":6049,"Ġmerit":6050,"Ġmonster":6051,"Ġmonument":6052,"Ġmonstrous":6053,"Ġappeal":6054,"Ġgenuine":6055,"Ġpolit":6056,"Ġpossibly":6057,"Ġpowerful":6058,"Ġthousands":6059,"Ġmisfort":6060,"Ġlesson":6061,"Ġdischar":6062,"Ġdiscourse":6063,"Ġprize":6064,"Ġboys":6065,"ĠAny":6066,"ĠThomas":6067,"Ġwondered":6068,"Ġdecision":6069,"Ġinfinite":6070,"Ġstrugg":6071,"Ġindignation":6072,"Ġcontinue":6073,"Ġcontinual":6074,"Ġmaids":6075,"Ġstole":6076,"GREGORY":6077,"apernaumov":6078,"Ġparag":6079,"Ġresolve":6080,"Ġsenseless":6081,"Ġconsideration":6082,"Ġporters":6083,"Ġirritable":6084,"Ġirritably":6085,"ĠĠĠĠĠĠĠĠĠĠĠĠĠĠĠ":6086,"Ġmodesty":6087,"Ġinstruct":6088,"Ġapproach":6089,"aptain":6090,"Ġpositive":6091,"Ġmorbid":6092,"Ġunwilling":6093,"Ġwildly":6094,"Ġcastle":6095,"Ġassistant":6096,"Having":6097,"Ġvenom":6098,"Ġcurious":6099,"Ġsighs":6100,"Ġpurcha":6101,"Ġslightest":6102,"ĠKolya":6103,"Ġodds":6104,"iberia":6105,"Ġbabe":6106,"Ġtrumpet":6107,"Ġmaintain":6108,"Ġpraise":6109,"About":6110,"Ġrecalled":6111,"Ġheavily":6112,"Ġobedience":6113,"ĠMadame":6114,"Ġpicture":6115,"Ġhaughty":6116,"Believe":6117,"Ġdistinctly":6118,"Ġhistory":6119,"Ġjewel":6120,"Ġcensure":6121,"Ġmystery":6122,"Ġindifferent":6123,"DONE":6124,"Ġabruptly":6125,"ĠBarnardine":6126,"ĠNeva":6127,"DERBY":6128,"Ġtidings":6129,"MISTRESS":6130,"Ġvodka":6131,"ĠOVERDONE":6132,"![":6133,"Ap":6134,"Ch":6135,"Father":6136,"FORD":6137,"GH":6138,"Long":6139,"OX":6140,"PHELIA":6141,"Res":6142,"Right":6143,"RICH":6144,"Sp":6145,"SOM":6146,"VAL":6147,"abl":6148,"acy":6149,"board":6150,"cough":6151,"dle":6152,"down":6153,"found":6154,"fice":6155,"foot":6156,"law":6157,"lict":6158,"mion":6159,"mother":6160,"master":6161,"oful":6162,"pr":6163,"rouble":6164,"ww":6165,"work":6166,"Ġz":6167,"held":6168,"Ġach":6169,"Ġsed":6170,"Ġsalt":6171,"Ġsnat":6172,"oubt":6173,"Ġwid":6174,"Ġwot":6175,"Ġwink":6176,"Ġwitch":6177,"Ġwaking":6178,"Ġwoful":6179,"Ġmirth":6180,"Ġbri":6181,"erate":6182,"ites":6183,"isa":6184,"isit":6185,"Ġfreedom":6186,"org":6187,"Ġhom":6188,"Ġlouse":6189,"esus":6190,"Ġpour":6191,"Ġpressing":6192,"athe":6193,"Ġnoose":6194,"Ġnobles":6195,"Ġbef":6196,"Ġgame":6197,"etite":6198,"ldom":6199,"Ġev":6200,"Ġeating":6201,"Ġforms":6202,"Ġstamp":6203,"Ġwasted":6204,"Ġrede":6205,"Ġrevere":6206,"Ġnaked":6207,"urst":6208,"Ġseas":6209,"Ġsevere":6210,"Ġdevel":6211,"Ġsup":6212,"ĠSic":6213,"ĠSomerset":6214,"pel":6215,"ruction":6216,"ĠPER":6217,"Ġshot":6218,"icy":6219,"ilos":6220,"ello":6221,"Ġshare":6222,"ENE":6223,"arding":6224,"arded":6225,"Ġfac":6226,"resent":6227,"Ġvul":6228,"teous":6229,"Ġtherein":6230,"Ġsav":6231,"Three":6232,"ĠCal":6233,"Ġquit":6234,"isting":6235,"ĠGrey":6236,"ĠOPHELIA":6237,"arel":6238,"Ġblunt":6239,"Ġprovo":6240,"Ġprovided":6241,"ERIA":6242,"ERSET":6243,"Ġtheirs":6244,"ĠBer":6245,"ĠNor":6246,"âĢĶâĢĶ":6247,"ĠVerona":6248,"Ġdismiss":6249,"fulness":6250,"Ġbrings":6251,"Ġclo":6252,"Ġtells":6253,"ĠKapernaumov":6254,"Ġens":6255,"Ġkingly":6256,"Ġsometime":6257,"Ġprefer":6258,"ĠTrump":6259,"Ġrare":6260,"Ġrail":6261,"Ġglanced":6262,"Ġbeloved":6263,"Ġtrade":6264,"Ġgentlewoman":6265,"Ġhasty":6266,"ability":6267,"Ġwarn":6268,"Ġgrad":6269,"Ġsets":6270,"Ġstrew":6271,"Ġmoments":6272,"itions":6273,"Ġappetite":6274,"Ġrecover":6275,"Ġneeded":6276,"Ġterribly":6277,"Ġbreed":6278,"Ġbreaking":6279,"Ġservants":6280,"Ġfollowers":6281,"mend":6282,"Ġholds":6283,"Thanks":6284,"Ġrang":6285,"Ġuseless":6286,"Ġinside":6287,"Ġcarriage":6288,"Ġstraw":6289,"ursday":6290,"imely":6291,"ailor":6292,"Ġbanished":6293,"Ġfalling":6294,"Ġlately":6295,"Ġfortunes":6296,"Ġhorrible":6297,"Ġsurely":6298,"Ġcaut":6299,"Ġcauses":6300,"ĠThy":6301,"Ġregret":6302,"Ġangrily":6303,"Ġarmour":6304,"Ġdeposed":6305,"ILL":6306,"Ġsignific":6307,"Ġshameful":6308,"Ġhanged":6309,"Ġdespite":6310,"Ġdetails":6311,"Ġtremble":6312,"Ġfourteen":6313,"Ġclosely":6314,"Ġtroubled":6315,"broker":6316,"Ġsky":6317,"Ġdifference":6318,"Ġsecrets":6319,"Ġirritated":6320,"Ġwarmly":6321,"Ġpenit":6322,"Ġplainly":6323,"Ġinstrument":6324,"Ġundone":6325,"Ġdevise":6326,"Ġbelly":6327,"Ġexamining":6328,"Ġthrive":6329,"Ġthrice":6330,"Ġintended":6331,"Ġcalmly":6332,"MOND":6333,"Ġdeparture":6334,"Ġpalace":6335,"Ġinjured":6336,"Ġpawnbroker":6337,"Ġefforts":6338,"Ġvexed":6339,"Ġvexation":6340,"Ġsharply":6341,"ĠArch":6342,"Ġvarious":6343,"Art":6344,"Ġweighing":6345,"Ġplaces":6346,"Ġwaters":6347,"Ġfurniture":6348,"Ġsplend":6349,"Ġpersuade":6350,"Ġsqueezed":6351,"viour":6352,"Ġoblig":6353,"Ġdisease":6354,"safe":6355,"Ġbastard":6356,"Ġexchange":6357,"Ġcompanion":6358,"Ġessent":6359,"Ġfrantic":6360,"Ġneglect":6361,"ĠLAERTES":6362,"SCENE":6363,"Ġtriumphant":6364,"OXFORD":6365,"RICHMOND":6366,"SOMERSET":6367,"VALERIA":6368,"mione":6369,"ilosop":6370,"41":6371,"47":6372,"59":6373,"Bes":6374,"BUS":6375,"CY":6376,"Cousin":6377,"Ed":6378,"Great":6379,"HY":6380,"Has":6381,"Love":6382,"MAM":6383,"MOP":6384,"NS":6385,"NARD":6386,"Pr":6387,"Prithee":6388,"SA":6389,"Se":6390,"Tybalt":6391,"Tailor":6392,"ares":6393,"aves":6394,"born":6395,"cence":6396,"from":6397,"hor":6398,"iam":6399,"iond":6400,"liness":6401,"mity":6402,"nel":6403,"ped":6404,"sha":6405,"tles":6406,"uce":6407,"uary":6408,"wing":6409,"was":6410,"wain":6411,"wig":6412,"Ġtame":6413,"Ġaunt":6414,"Ġactions":6415,"inate":6416,"Ġward":6417,"Ġwag":6418,"Ġwoke":6419,"has":6420,"Ġmile":6421,"Ġbud":6422,"Ġbench":6423,"Ġfrequ":6424,"Ġcot":6425,"Ġdom":6426,"Ġdate":6427,"Ġdaring":6428,"Ġdagger":6429,"Ġtomb":6430,"Ġheap":6431,"Ġhm":6432,"Ġlent":6433,"Ġlines":6434,"Ġpant":6435,"Ġpear":6436,"Ġpitch":6437,"aration":6438,"Ġoffered":6439,"ashing":6440,"asants":6441,"anwhile":6442,"omen":6443,"Ġinward":6444,"Ġinex":6445,"Ġnodd":6446,"Ġbeheld":6447,"Ġgather":6448,"Ġgage":6449,"imation":6450,"ĠeBook":6451,"iron":6452,"Ġstu":6453,"Ġstage":6454,"Ġstuck":6455,"Ġwashing":6456,"Ġrenow":6457,"Ġreach":6458,"alent":6459,"Ġnarrow":6460,"ourage":6461,"Ġhers":6462,"Ġkin":6463,"Ġknot":6464,"Ġsocial":6465,"Ġwhi":6466,"Ġwhither":6467,"Ġwholesome":6468,"outs":6469,"Ġseest":6470,"Ġseated":6471,"Ġseason":6472,"cking":6473,"ĠHarry":6474,"Ġdeceive":6475,"ĠShall":6476,"ĠSiberia":6477,"rus":6478,"ĠPri":6479,"estry":6480,"Ġshoot":6481,"Ġshivering":6482,"ics":6483,"ulate":6484,"Ġfailed":6485,"Ġvague":6486,"Ġamend":6487,"Ġunlike":6488,"ĠMOW":6489,"ĠLud":6490,"ĠCaptain":6491,"Ġexile":6492,"Ġquench":6493,"Ġquivering":6494,"Ġje":6495,"Ġleather":6496,"ĠDor":6497,"Ġtimid":6498,"Ġloat":6499,"ĠEl":6500,"Ġspace":6501,"Ġmustn":6502,"ĠBona":6503,"Ġlets":6504,"Ġroar":6505,"ishment":6506,"Ġflies":6507,"Ġhated":6508,"Ġchide":6509,"Ġcholer":6510,"Ġclam":6511,"Ġclock":6512,"Ġperish":6513,"Ġbetwixt":6514,"Ġheartily":6515,"Ġchallen":6516,"Ġremorse":6517,"Ġdesires":6518,"unch":6519,"Ġscope":6520,"Ġrus":6521,"ĠFriar":6522,"Ġprey":6523,"Ġpreced":6524,"Ġwanting":6525,"Ġlonged":6526,"play":6527,"Ġbelike":6528,"Ġtrous":6529,"ensive":6530,"Ġwrink":6531,"Ġnights":6532,"Ġresign":6533,"Ġaccursed":6534,"ĠWhich":6535,"ABHOR":6536,"Ġreputation":6537,"Ġshowing":6538,"Ġpaused":6539,"Ġeverl":6540,",----":6541,"Ġwax":6542,"ixenes":6543,"Ġpersist":6544,"Ġrecent":6545,"Ġneedful":6546,"Ġassurance":6547,"Ġlightning":6548,"Ġsilk":6549,"THOMAS":6550,"Ġcheap":6551,"Ġcareer":6552,"Ġnative":6553,"Ġbreathed":6554,"version":6555,"Thank":6556,"Ġplayers":6557,"Ġdram":6558,"Ġretired":6559,"Ġremembering":6560,"Ġtrace":6561,"Ġhumili":6562,"Ġappears":6563,"Ġdreaming":6564,"Ġexpressed":6565,"Ġinsisted":6566,"Ġpossib":6567,"Ġspoon":6568,"Ġuncertain":6569,"Ġadvent":6570,"ĠThursday":6571,"Ġsoundly":6572,"STANLEY":6573,"ĠLeave":6574,"Ġjoys":6575,"iculous":6576,"Ġcoldly":6577,"Ġcrossing":6578,"Ġbeaut":6579,"Ġmaiden":6580,"ushkin":6581,"Ġstopping":6582,"Ġvirtues":6583,"Ġrepeat":6584,"Ġbadly":6585,"Ġcurst":6586,"ĠStay":6587,"Ġofficers":6588,"Ġchairs":6589,"Ġburnt":6590,"Ġburthen":6591,"Ġsuspicions":6592,"Ġtouching":6593,"atswain":6594,"Ġuttering":6595,"Ġoaths":6596,"Ġviolence":6597,"Ġimportance":6598,"Ġesteem":6599,"Ġmouths":6600,"ĠĠĠĠĠĠĠĠĠĠĠĠĠĠĠĠĠ":6601,"Ġconcluded":6602,"cribe":6603,"Ġadmitted":6604,"Ġmalignant":6605,"Ġdevotion":6606,"Ġloudly":6607,"Ġridiculous":6608,"Ġcrimson":6609,"Ġtransp":6610,"Ġexception":6611,"Ġprivile":6612,"Ġseize":6613,"Ġgovernor":6614,"Ġavoided":6615,"Ġprincess":6616,"Ġphilosop":6617,"Ġforsworn":6618,"Ġimpatient":6619,"Ġdesigns":6620,"Ġconsciousness":6621,"Ġtransl":6622,"Ġurged":6623,"Ġaffected":6624,"Ġwhispering":6625,"Ġknife":6626,"Ġeagerly":6627,"Ġunfold":6628,"Ġreflected":6629,"BRAY":6630,"Death":6631,"ienced":6632,"Ġexperience":6633,"ĠNapole":6634,"ĠEveryone":6635,"Ġoccupied":6636,"Ġembarrassed":6637,"ĠCaius":6638,"Ġincrease":6639,"Ġsweat":6640,"Ġconquer":6641,"Ġweapon":6642,"ĠMenenius":6643,"fficer":6644,"Ġdelicate":6645,"EXETER":6646,"Ġsanct":6647,"Ġthoroughly":6648,"Ġagonising":6649,"Ġwandering":6650,"Ġgasping":6651,"Ġorphans":6652,"Ġalarmed":6653,"Ġdisdain":6654,"Ġsympathy":6655,"Ġexhausted":6656,"ĠMusician":6657,"Ġtrunk":6658,"Ġcigarette":6659,"Ġmechanically":6660,"Ġexercise":6661,"Ġsnatched":6662,"Ġdevelop":6663,"ILLIUS":6664,"BUSHY":6665,"MAMILLIUS":6666,"MOPSA":6667,"iondello":6668,"ĠMOWBRAY":6669,"ABHORSON":6670,"!_]":6671,"22":6672,"61":6673,"Again":6674,"Bo":6675,"Bring":6676,"Dear":6677,"Hast":6678,"Hel":6679,"Might":6680,"None":6681,"Page":6682,"President":6683,"Rep":6684,"Razumihin":6685,"Sc":6686,"Sha":6687,"Set":6688,"TE":6689,"Twere":6690,"Widow":6691,"ais":6692,"awn":6693,"bus":6694,"cor":6695,"fy":6696,"fold":6697,"ilf":6698,"ially":6699,"mitted":6700,"ob":6701,"ser":6702,"sing":6703,"soever":6704,"tes":6705,"uation":6706,"vity":6707,"vial":6708,"wr":6709,"Ġrig":6710,"Ġtu":6711,"Ġtut":6712,"Ġtick":6713,"Ġtap":6714,"hend":6715,"Ġah":6716,"inent":6717,"intend":6718,"Ġsway":6719,"Ġwol":6720,"Ġbade":6721,"erity":6722,"ercy":6723,"itated":6724,"Ġfu":6725,"Ġfame":6726,"Ġdar":6727,"Ġdurst":6728,"edly":6729,"Ġheight":6730,"Ġling":6731,"Ġlion":6732,"Ġlosing":6733,"Ġped":6734,"Ġpond":6735,"asing":6736,"ashen":6737,"Ġthorn":6738,"Ġinev":6739,"att":6740,"Ġhab":6741,"Ġgri":6742,"chill":6743,"Ġisland":6744,"Ġrejo":6745,"Ġnap":6746,"amest":6747,"Ġlikes":6748,"Ġwhiles":6749,"ĠRivers":6750,"Ġalle":6751,"rage":6752,"raction":6753,"Ġdearest":6754,"ĠPlease":6755,"ĠPisa":6756,"Ġwillingly":6757,"thou":6758,"usions":6759,"icable":6760,"ilence":6761,"Ġupstairs":6762,"ĠAway":6763,"Ġconst":6764,"ulse":6765,"emper":6766,"Ġfare":6767,"Ġfawn":6768,"Ġmanaged":6769,"Ġamen":6770,"Ġunst":6771,"ARCH":6772,"ĠMessenger":6773,"Those":6774,"Ġalter":6775,"Ġagony":6776,"ĠCons":6777,"Young":6778,"fections":6779,"Ġrising":6780,"Ġexclaim":6781,"Ġmoreover":6782,"Ġaboard":6783,"ĠGu":6784,"ĠGet":6785,"ĠGhost":6786,"ateful":6787,"ĠDe":6788,"top":6789,"Ġlover":6790,"Ġseeking":6791,"Ġprint":6792,"Ġhereafter":6793,"cio":6794,"cies":6795,"cian":6796,"Ġspread":6797,"ĠBiondello":6798,"Ġplans":6799,"ishop":6800,"Ġshouldn":6801,"Ġchin":6802,"Ġdisplay":6803,"Ġpeasants":6804,"Ġbrown":6805,"Ġclasp":6806,"Ġpermission":6807,"Ġenmity":6808,"ĠPeter":6809,"Ġdeserves":6810,"Ġotherwise":6811,"unn":6812,"Ġwhereof":6813,"erted":6814,"Ġprejud":6815,"ĠTH":6816,"Ġcontented":6817,"Ġsmiles":6818,"Ġafternoon":6819,"Ġglancing":6820,"udes":6821,"Ġnewly":6822,"lessness":6823,"Ġimper":6824,"uteous":6825,"Ġwarlike":6826,"Ġgrass":6827,"Ġhandsome":6828,"Ġfearfully":6829,"ĠJust":6830,"Ġentered":6831,"Ġrepair":6832,"Ġhelm":6833,"Ġapolog":6834,"Ġbearing":6835,"Ġapparel":6836,"Ġrecord":6837,"Ġtrivial":6838,"THAS":6839,"Ġwinds":6840,"Ġsincerely":6841,"ĠLords":6842,"Ġbestow":6843,"Ġvisage":6844,"Ġpolicy":6845,"Ġcarrying":6846,"ĠĠĠĠĠĠĠĠĠĠĠĠĠĠĠĠĠĠĠĠĠ":6847,"ception":6848,"Ġcrowns":6849,"Ġdisconc":6850,"Ġsleeping":6851,"Ġhark":6852,"Still":6853,"Ġsounded":6854,"Ġincapable":6855,"Ġesc":6856,"Ġdiff":6857,"Ġsignify":6858,"Ġseconds":6859,"Ġsecondly":6860,"Ġconfessed":6861,"Ġobserve":6862,"Ġsends":6863,"Ġdrunkard":6864,"Ġbrand":6865,"Ġdrove":6866,"Ġdisple":6867,"Ġrespectable":6868,"Excuse":6869,"Ġdeeply":6870,"Ġopport":6871,"Ġcommanded":6872,"uries":6873,"ĠStanley":6874,"Ġskill":6875,"Ġcalcul":6876,"Ġclerks":6877,"meric":6878,"ĠPolixenes":6879,"Ġwonderful":6880,"Ġprevail":6881,"Ġprevented":6882,"kedom":6883,"ĠDonald":6884,"Ġmovement":6885,"Ġdefinite":6886,"Ġyouthful":6887,"Ġestabl":6888,"Ġsquare":6889,"Ġbenefa":6890,"Ġuntimely":6891,"Ġmodest":6892,"Ġmedic":6893,"Ġwooden":6894,"Ġgarland":6895,"Ġgallop":6896,"Ġdeclare":6897,"Ġgenerally":6898,"Ġpractical":6899,"Ġprinces":6900,"Ġassistance":6901,"Ġcomplain":6902,"Ġarrival":6903,"Ġintellect":6904,"Ġgriev":6905,"Ġgrieve":6906,"Ġnecessity":6907,"ĠExcuse":6908,"Ġbehaviour":6909,"Ġdetermine":6910,"Ġbleeding":6911,"Ġsolic":6912,"Ġfiend":6913,"Ġmourning":6914,"Ġsolely":6915,"kerchief":6916,"Ġearnestly":6917,"Ġsenators":6918,"Ġdegrees":6919,"Ġpledges":6920,"Ġconvictions":6921,"Ġdukedom":6922,"Ġinformation":6923,"Ġbending":6924,"Ġenviron":6925,"Ġintelligent":6926,"Ġignorance":6927,"Ġtask":6928,"Ġentertainment":6929,"Ġguests":6930,"Ġcondemned":6931,"glass":6932,"Ġpitiful":6933,"Leave":6934,"Ġmaintained":6935,"BALTHAS":6936,"Ġwatched":6937,"Ġcopyright":6938,"ĠNaples":6939,"Ġtempted":6940,"Ġphysical":6941,"Ġpsychology":6942,"Ġshuddered":6943,"Ġtempest":6944,"Ġshroud":6945,"Ġcommission":6946,"ĠMoreover":6947,"Ġsacrifice":6948,"Ġfloated":6949,"ĠApollo":6950,"Ġfairest":6951,"Ġresolutely":6952,"Ġhigher":6953,"Ġoriginal":6954,"Ġfolded":6955,"Ġecstasy":6956,"Ġrascal":6957,"Ġwreck":6958,"Ġmysterious":6959,"Ġgossip":6960,"Ġwaistcoat":6961,"Ġsurroundings":6962,"Ġvirgin":6963,"Ġexaggerated":6964,"Ġaccompan":6965,"Ġmisfortune":6966,"Ġparagraph":6967,"Ġredeem":6968,"ĠPERCY":6969,"Ġvulgar":6970,"Ġcloak":6971,"ĠArchive":6972,"Ġtrousers":6973,"ashenka":6974,"BALTHASAR":6975,"15":6976,"16":6977,"18":6978,"24":6979,"30":6980,"31":6981,"33":6982,"37":6983,"45":6984,"AEd":6985,"Bear":6986,"CEL":6987,"FOL":6988,"Keep":6989,"Lu":6990,"Lay":6991,"Mark":6992,"Per":6993,"Post":6994,"Read":6995,"Save":6996,"cra":6997,"col":6998,"cure":6999,"ds":7000,"dge":7001,"ef":7002,"fret":7003,"gon":7004,"gly":7005,"kady":7006,"lich":7007,"love":7008,"lier":7009,"mong":7010,"occ":7011,"oint":7012,"pent":7013,"say":7014,"same":7015,"such":7016,"tt":7017,"ties":7018,"ule":7019,"upt":7020,"vior":7021,"when":7022,"wife":7023,"yes":7024,"Ã¦":7025,"Ġtide":7026,"Ġtied":7027,"Ġsnow":7028,"Ġwing":7029,"reen":7030,"reet":7031,"reland":7032,"Ġmain":7033,"Ġmus":7034,"Ġmult":7035,"Ġmates":7036,"Ġbon":7037,"Ġbure":7038,"ita":7039,"isc":7040,"isher":7041,"Ġfears":7042,"Ġfray":7043,"Ġfinal":7044,"Ġfasc":7045,"Ġcy":7046,"Ġcamest":7047,"orm":7048,"onious":7049,"onius":7050,"Ġdow":7051,"Ġdrows":7052,"Ġdrank":7053,"Ġlu":7054,"Ġlaz":7055,"Ġlark":7056,"ĠIN":7057,"ĠIndeed":7058,"ĠIreland":7059,"Ġpan":7060,"Ġpage":7061,"aning":7062,"ancy":7063,"Ġthirst":7064,"Ġnobly":7065,"Ġhaz":7066,"utin":7067,"see":7068,"etter":7069,"Ġeast":7070,"iding":7071,"Ġnoted":7072,"Ġnotion":7073,"Ġugly":7074,"Ġsty":7075,"Ġsting":7076,"Ġstale":7077,"Ġmeas":7078,"Ġisle":7079,"rog":7080,"rial":7081,"rict":7082,"Ġwashed":7083,"Ġreaching":7084,"ades":7085,"ales":7086,"Ġnought":7087,"Ġnails":7088,"Ġsore":7089,"Ġsock":7090,"Ġwhore":7091,"oted":7092,"ĠRess":7093,"ĠRos":7094,"Ġdefect":7095,"Ġdeaf":7096,"Ġsuf":7097,"ĠSund":7098,"olks":7099,"Ġsheet":7100,"ĠPhil":7101,"ĠPashenka":7102,"Ġupper":7103,"ĠAgain":7104,"ĠAmeric":7105,"Ġconference":7106,"Ġshan":7107,"Ġshade":7108,"akov":7109,"akest":7110,"emly":7111,"emark":7112,"Ġnearer":7113,"Ġmankind":7114,"Ġunjust":7115,"ĠListen":7116,"ĠLiterary":7117,"inding":7118,"inded":7119,"ppers":7120,"Ġcomest":7121,"ieved":7122,"Ġrouse":7123,"Ġruth":7124,"Ġabhor":7125,"ists":7126,"oses":7127,"Ġleap":7128,"igation":7129,"Ġworrying":7130,"nable":7131,"Ġproject":7132,"Ġspit":7133,"ĠBel":7134,"ĠNew":7135,"Ġhandkerchief":7136,"Ġaffections":7137,"Ġbegging":7138,"Ġchosen":7139,"ĠVice":7140,"ĠVery":7141,"Ġtwain":7142,"Ġdisgu":7143,"Ġdisorder":7144,"oldier":7145,"agne":7146,"Ġperiod":7147,"Ġhasn":7148,"Ġfathers":7149,"rang":7150,"Ġeverywhere":7151,"Ġchase":7152,"Ġovercoat":7153,"Aside":7154,"Ġrue":7155,"ĠFare":7156,"ĠFirst":7157,"Ġpartner":7158,"Ġdonations":7159,"hension":7160,"ĠTw":7161,"ĠTit":7162,"ĠTill":7163,"ĠThan":7164,"Ġmothers":7165,"Ġslay":7166,"ossess":7167,"Ġrights":7168,"Ġglorious":7169,"Ġcoarse":7170,"Ġadver":7171,"Ġadvers":7172,"Ġimpl":7173,"Ġimpud":7174,"aints":7175,"ainted":7176,"CAS":7177,"Ġaccom":7178,"Soft":7179,"Ġgrim":7180,"Ġcomplex":7181,"ĠJack":7182,"ĠJew":7183,"Ġyoungest":7184,"forth":7185,"Ġhousehold":7186,"Ġstrang":7187,"Ġconfirm":7188,"Ġconfidence":7189,"Ġnorth":7190,"Ġlively":7191,"ulties":7192,"Ġdistracted":7193,"Ġdistrict":7194,"Ġdearly":7195,"Ġrecovery":7196,"Ġemotion":7197,"Ġstayed":7198,"Ġserves":7199,"lets":7200,"Ġdrums":7201,"ĠLucio":7202,"Ġopening":7203,"Ġgenius":7204,"Ġcarri":7205,"rers":7206,"Ġcharged":7207,"Ġspoil":7208,"Ġfalls":7209,"ĠThus":7210,"Ġlodge":7211,"Ġlodged":7212,"Ġcaps":7213,"Ġrefle":7214,"Ġrelish":7215,"Ġreluct":7216,"Ġprompt":7217,"who":7218,"why":7219,"Ġgriefs":7220,"Ġdropping":7221,"Ġdisposed":7222,"Ġcoron":7223,"Ġcrazy":7224,"ĠMARCEL":7225,"unts":7226,"Ġpaying":7227,"Ġinval":7228,"Ġfalsehood":7229,"Ġboar":7230,"Ġjob":7231,"Ġtroubles":7232,"Ġcrush":7233,"Ġrealm":7234,"Ġrealise":7235,"Ġtowns":7236,"Ġbeaten":7237,"ĠHermione":7238,"Ġskin":7239,"Ġcalam":7240,"Ġvalue":7241,"Ġsixteen":7242,"NORFOL":7243,"change":7244,"Ġveins":7245,"Ġinquisit":7246,"Ġmocking":7247,"Ġallowed":7248,"Ġdriven":7249,"Ġadmir":7250,"Ġbigger":7251,"Ġapproaching":7252,"Ġunworthy":7253,"Ġsuccession":7254,"Ġflattering":7255,"Ġsyll":7256,"Ġfinally":7257,"Ġgroans":7258,"Ġeaten":7259,"ĠWilliam":7260,"Ġguessed":7261,"Ġgrieved":7262,"Ġmounting":7263,"Ġmountain":7264,"Ġknaves":7265,"Ġowing":7266,"Ġgloomily":7267,"Ġsuperintend":7268,"ĠPav":7269,"Ġcreation":7270,"Ġpetty":7271,"Ġpetition":7272,"Ġmidnight":7273,"Ġrebell":7274,"Ġdepends":7275,"ĠROSS":7276,"pirator":7277,"Ġmagn":7278,"Ġblanket":7279,"Ġleaned":7280,"Ġprotect":7281,"Ġargument":7282,"Ġspleen":7283,"ĠUnited":7284,"Ġbaby":7285,"Ġconsumption":7286,"Ġcounterfeit":7287,"Ġphysic":7288,"Ġmillions":7289,"Ġprosperous":7290,"Ġobtain":7291,"Supp":7292,"Ġaudience":7293,"Ġhaply":7294,"Ġunseen":7295,"Ġinterpret":7296,"Ġcaptain":7297,"Better":7298,"ĠRussian":7299,"Ġcorrect":7300,"Ġannoyance":7301,"DORCAS":7302,"Ġceremony":7303,"Ġoverwhelmed":7304,"Ġcorruption":7305,"ĠSometimes":7306,"clamations":7307,"Ġdescribed":7308,"Ġlawyer":7309,"Ġtreacherous":7310,"Ġoccurred":7311,"Ġeternal":7312,"Ġstolen":7313,"Ġstifling":7314,"Ġnumbers":7315,"Ġglowing":7316,"Ġbewildered":7317,"Ġhesitating":7318,"Ġsceptre":7319,"Ġanticip":7320,"Ġqualities":7321,"Ġimprisonment":7322,"Ġperpetual":7323,"Ġreverence":7324,"Ġblurted":7325,"Ġevents":7326,"Ġreverend":7327,"Ġfaculties":7328,"Ġsplendid":7329,"Ġessential":7330,"Beseech":7331,"ĠNapoleon":7332,"Boatswain":7333,"Ġinevitable":7334,"Ġdisconcerted":7335,"Ġopportunity":7336,"Ġmedicine":7337,"Ġenvironment":7338,"Ġbureau":7339,"ĠResslich":7340,"ĠPhilip":7341,"ĠMARCELLUS":7342,"NORFOLK":7343,"!)":7344,"//":7345,"17":7346,"19":7347,"21":7348,"23":7349,"25":7350,"26":7351,"28":7352,"29":7353,"32":7354,"34":7355,"35":7356,"36":7357,"38":7358,"39":7359,"40":7360,"42":7361,"43":7362,"44":7363,"46":7364,"48":7365,"49":7366,"51":7367,"52":7368,"53":7369,"54":7370,"58":7371,"://":7372,"AD":7373,"Acc":7374,"Amen":7375,"Boy":7376,"Came":7377,"Cough":7378,"Cons":7379,"DIN":7380,"Draw":7381,"Disp":7382,"Fl":7383,"FER":7384,"Im":7385,"Kind":7386,"Mother":7387,"Mistress":7388,"Nastasya":7389,"OU":7390,"Pre":7391,"RR":7392,"Roman":7393,"Somet":7394,"Wilt":7395,"Worthy":7396,"aha":7397,"aur":7398,"boy":7399,"bby":7400,"bows":7401,"bility":7402,"cil":7403,"cast":7404,"cons":7405,"certain":7406,"don":7407,"ext":7408,"iot":7409,"iable":7410,"iving":7411,"ipping":7412,"log":7413,"maid":7414,"maker":7415,"ocr":7416,"ping":7417,"pro":7418,"ras":7419,"than":7420,"zing":7421,"Ġtro":7422,"Ġtight":7423,"Ġtum":7424,"Ġtink":7425,"heart":7426,"Ġsings":7427,"Ġsought":7428,"Ġsouth":7429,"Ġwest":7430,"Ġwave":7431,"Ġwitt":7432,"Ġwander":7433,"Ġbol":7434,"Ġbul":7435,"Ġbag":7436,"Ġbuck":7437,"Ġoh":7438,"Ġfed":7439,"Ġfem":7440,"Ġfum":7441,"Ġfurious":7442,"eneral":7443,"oring":7444,"once":7445,"onest":7446,"Ġtooth":7447,"Ġtops":7448,"Ġhill":7449,"Ġlam":7450,"Ġlap":7451,"Ġlatch":7452,"nointed":7453,"Ġpound":7454,"Ġpace":7455,"Ġpushed":7456,"aste":7457,"anks":7458,"anasy":7459,"Ġinn":7460,"Ġinner":7461,"Ġinformed":7462,"atin":7463,"atcl":7464,"Ġbethink":7465,"Ġbeef":7466,"iments":7467,"utter":7468,"etch":7469,"lying":7470,"Ġeag":7471,"idering":7472,"Ġforbear":7473,"Ġforfeit":7474,"Ġstates":7475,"Ġmelt":7476,"ricians":7477,"Ġreward":7478,"Ġresem":7479,"Ġweather":7480,"Ġweeks":7481,"ading":7482,"adays":7483,"alis":7484,"aline":7485,"Ġaspect":7486,"Ġnet":7487,"amov":7488,"ainst":7489,"Ġliken":7490,"Ġliking":7491,"Ġwhit":7492,"ĠHm":7493,"Ġdeject":7494,"Ġsuck":7495,"Ġsung":7496,"ĠSince":7497,"ola":7498,"ĠPal":7499,"ĠProv":7500,"ĠPestry":7501,"ĠWait":7502,"iced":7503,"ĠAnother":7504,"Ġconver":7505,"ulous":7506,"Ġvault":7507,"Ġamiss":7508,"Ġamuse":7509,"artha":7510,"Ġordered":7511,"Ġtheme":7512,"Ġunre":7513,"Ġunkind":7514,"Ġthereby":7515,"ivered":7516,"umed":7517,"ĠMin":7518,"ĠMadam":7519,"ĠLatin":7520,"Ġalike":7521,"Ġoutrage":7522,"Ġnowadays":7523,"Ġagitated":7524,"ieves":7525,"ieutenant":7526,"Ġabst":7527,"Ġabide":7528,"osive":7529,"ĠGree":7530,"Whither":7531,"hinged":7532,"Ġgoods":7533,"igence":7534,"Ġblast":7535,"Ġblaz":7536,"Ġsomebody":7537,"Ġload":7538,"ptive":7539,"Hey":7540,"Ġarras":7541,"Ġspur":7542,"Ġoffices":7543,"Ġchrist":7544,"Ġdisin":7545,"Ġdissem":7546,"Ġdaylight":7547,"Ġlovely":7548,"ĠĠĠĠĠĠĠĠĠĠ":7549,"Ġpeers":7550,"Ġbran":7551,"Ġperj":7552,"Ġperforce":7553,"Ġthoughtfully":7554,"Ġremove":7555,"herent":7556,"Ġgraves":7557,"Ġmarrying":7558,"Ġscow":7559,"Ġscore":7560,"Ġrud":7561,"ĠFort":7562,"Ġkeen":7563,"Ġmeanwhile":7564,"Ġfriendship":7565,"Ġswell":7566,"Ġglit":7567,"Ġcopper":7568,"ensed":7569,"enses":7570,"Ġwrought":7571,"Ġhastily":7572,"Ġpreserve":7573,"Ġimpart":7574,"Ġcommunity":7575,"Ġobsequ":7576,"Ġresc":7577,"atching":7578,"Ġminds":7579,"Ġaccustom":7580,"Ġgrain":7581,"Ġhappily":7582,"forced":7583,"Ġrested":7584,"Ġrestaur":7585,"Ġheavenly":7586,"Ġindepend":7587,"Ġprayed":7588,"ĠRomans":7589,"should":7590,"Ġwaves":7591,"thee":7592,"Ġelbow":7593,"Ġelbows":7594,"Ġreconc":7595,"Ġrecovered":7596,"Ġtricks":7597,"Ġstaying":7598,"upon":7599,"Ġattract":7600,"ĠZaha":7601,"Ġpointing":7602,"Ġcounty":7603,"Ġhopeless":7604,"Ġmerchan":7605,"Ġretire":7606,"Ġtraces":7607,"Ġrans":7608,"Ġreadiness":7609,"Ġdreamt":7610,"Ġinsin":7611,"Ġmischief":7612,"Ġmischance":7613,"Ġhighly":7614,"Ġsteep":7615,"Ġprice":7616,"Ġprick":7617,"Ġdoubtful":7618,"Ġcharm":7619,"Ġgirls":7620,"Ġstring":7621,"Ġfortnight":7622,"Ġvivid":7623,"Stri":7624,"ĠThink":7625,"Ġacted":7626,"Ġincident":7627,"Does":7628,"Ġdepra":7629,"Ġfalcon":7630,"Ġprisoners":7631,"iculty":7632,"Ġsuffic":7633,"Ġdancing":7634,"Ġinfer":7635,"Ġrelig":7636,"Ġrelative":7637,"Ġsending":7638,"Ġdespised":7639,"Ġflatte":7640,"Ġtrees":7641,"Ġdispute":7642,"Ġfamous":7643,"Ġcorrid":7644,"Ġprophet":7645,"Ġconvict":7646,"Ġdarest":7647,"Ġsickly":7648,"Ġsickness":7649,"Ġstrongly":7650,"Ġcounsell":7651,"Clarence":7652,"GREEN":7653,"twill":7654,"Ġrequire":7655,"Ġrevenged":7656,"Ġdamp":7657,"Ġbury":7658,"Ġparli":7659,"Ġgaze":7660,"Ġvisitors":7661,"Ġcrowded":7662,"Ġdrawing":7663,"ĠPolonius":7664,"Ġsadness":7665,"Ġpainfully":7666,"Ġhotly":7667,"Ġbarren":7668,"Ġboldly":7669,"Ġpenet":7670,"Ġprett":7671,"Cannot":7672,"Ġmodern":7673,"cription":7674,"natured":7675,"Ġdestruction":7676,"Ġamongst":7677,"Ġcontrad":7678,"Ġgarret":7679,"Ġknocking":7680,"Ġknocked":7681,"ALONS":7682,"Ġagreeable":7683,"liction":7684,"Project":7685,"Ġliberal":7686,"Ġflattery":7687,"grim":7688,"Ġfancies":7689,"Ġbehalf":7690,"Ġdetermination":7691,"Ġcupboard":7692,"Ġincluding":7693,"Ġslightly":7694,"Ġformerly":7695,"Ġlimit":7696,"Ġbottle":7697,"Ġdaily":7698,"Ġvictim":7699,"Ġaims":7700,"ĠArkady":7701,"Ġinsulting":7702,"ĠPomfret":7703,"TYRR":7704,"Ġtreated":7705,"Ġphrases":7706,"Ġscream":7707,"Ġscreamed":7708,"Ġwrites":7709,"Ġpitied":7710,"Ġreflecting":7711,"Ġpraises":7712,"ienna":7713,"Ġbirds":7714,"Ġfierce":7715,"Ġsternly":7716,"Ġinfluences":7717,"Ġhesitation":7718,"Ġprotector":7719,"Ġballad":7720,"Ġstroke":7721,"ternal":7722,"Ġobedient":7723,"Ġhyster":7724,"Ġhypo":7725,"Ġobservation":7726,"Ġlusty":7727,"Ġinquiringly":7728,"Ġmentioned":7729,"Ġunseemly":7730,"Ġastonishment":7731,"Ġgifts":7732,"Ġobstacles":7733,"DORSET":7734,"Ġfilthy":7735,"Ġstabb":7736,"Ġscrutin":7737,"Ġpretending":7738,"ĠMarshal":7739,"keeper":7740,"ĠAfanasy":7741,"Ġdistinguish":7742,"Ġinsolence":7743,"Ġtyranny":7744,"Ġprecisely":7745,"Gentlemen":7746,"Rodya":7747,"Ġgesture":7748,"Ġdeceit":7749,"Ġchampagne":7750,"Ġquarrelled":7751,"Ġperplexity":7752,"Ġabandoned":7753,"Ġarticulated":7754,"Return":7755,"Until":7756,"Ġpilgrim":7757,"Ġgiddy":7758,"Ġcoffin":7759,"Ġassociated":7760,"wigovna":7761,"ĠLudwigovna":7762,"Ġchallenge":7763,"Ġadventure":7764,"Ġbeautiful":7765,"Ġphilosophy":7766,"Ġsanctuary":7767,"Help":7768,"Ġdarling":7769,"Ġdifficulty":7770,"Ġgrievous":7771,"Ġaccompanied":7772,"AEdile":7773,"ttps":7774,"Ġdowry":7775,"Ġsuffered":7776,"Ġreflection":7777,"untsman":7778,"Ġinvalid":7779,"Ġsuperintendent":7780,"ĠPavlov":7781,"DINAND":7782,"FERDINAND":7783,"atcliff":7784,"ĠPestryakov":7785,"ĠZaharovitch":7786,"Ġcorridor":7787,"Ġparliament":7788,"ALONSO":7789,"TYRREL":7790,"'âĢĶ":7791,"57":7792,"60":7793,"64":7794,"Allow":7795,"Coriol":7796,"Dis":7797,"Down":7798,"Every":7799,"Each":7800,"Five":7801,"Fair":7802,"Men":7803,"Makes":7804,"OT":7805,"Off":7806,"PH":7807,"Pet":7808,"Pulcheria":7809,"Run":7810,"UR":7811,"Vols":7812,"Wr":7813,"Ye":7814,"aut":7815,"ables":7816,"book":7817,"back":7818,"could":7819,"cock":7820,"cont":7821,"done":7822,"ders":7823,"del":7824,"elf":7825,"eous":7826,"even":7827,"fly":7828,"face":7829,"fellow":7830,"groom":7831,"ivid":7832,"kward":7833,"mon":7834,"nes":7835,"nicious":7836,"ois":7837,"oqu":7838,"pre":7839,"pit":7840,"put":7841,"prop":7842,"ration":7843,"school":7844,"word":7845,"Ġtard":7846,"Ġtip":7847,"Ġtresp":7848,"inces":7849,"Ġsar":7850,"Ġsire":7851,"Ġsooth":7852,"Ġwip":7853,"Ġbred":7854,"erby":7855,"ishes":7856,"Ġfrow":7857,"Ġfolks":7858,"Ġcro":7859,"Ġcert":7860,"Ġcitizen":7861,"Ġded":7862,"Ġdressing":7863,"Ġduties":7864,"Ġtore":7865,"Ġtoil":7866,"Ġhie":7867,"Ġhorn":7868,"Ġhoney":7869,"Ġlur":7870,"Ġyon":7871,"Ġyond":7872,"Ġyards":7873,"Ġyoke":7874,"esar":7875,"essel":7876,"Ġpi":7877,"Ġpow":7878,"Ġpred":7879,"Ġpush":7880,"hath":7881,"askov":7882,"ashes":7883,"omach":7884,"Ġink":7885,"Ġinfection":7886,"Ġnobility":7887,"Ġhag":7888,"Ġhaw":7889,"Ġbeck":7890,"Ġbefall":7891,"ste":7892,"stem":7893,"imony":7894,"ayed":7895,"ids":7896,"iders":7897,"Ġstag":7898,"Ġstains":7899,"Ġstiff":7900,"rich":7901,"Ġrend":7902,"Ġreap":7903,"Ġrenew":7904,"adv":7905,"aled":7906,"illain":7907,"Ġnest":7908,"ourth":7909,"Ġherald":7910,"urity":7911,"Ġsober":7912,"othe":7913,"cknow":7914,"Ġanim":7915,"Ġalliance":7916,"racious":7917,"Ġdeck":7918,"Ġsue":7919,"Ġsubt":7920,"Ġsuits":7921,"Ġsuitor":7922,"Ġdove":7923,"ĠSc":7924,"ĠSp":7925,"ĠSay":7926,"ĠSoldier":7927,"olved":7928,"rue":7929,"rude":7930,"ĠPe":7931,"three":7932,"Ġshy":7933,"Ġshield":7934,"ilan":7935,"Ġwhatsoever":7936,"uls":7937,"ulch":7938,"blem":7939,"Ġneat":7940,"Ġvessel":7941,"Ġmanif":7942,"Ġamount":7943,"Ġwheel":7944,"Ġunhinged":7945,"uments":7946,"ĠMit":7947,"ĠMost":7948,"ĠMilan":7949,"Through":7950,"ĠTheir":7951,"ppet":7952,"Ġalack":7953,"Ġalms":7954,"ĠCh":7955,"ĠCur":7956,"iege":7957,"Ġrad":7958,"Ġrate":7959,"Ġquant":7960,"Ġabused":7961,"istak":7962,"istrib":7963,"eping":7964,"Ġjot":7965,"Ġlect":7966,"ignt":7967,"ĠDerby":7968,"Ġblushing":7969,"ounded":7970,"Ġworm":7971,"Ġlovers":7972,"Ġusing":7973,"urely":7974,"ĠEh":7975,"Ġprodig":7976,"Ġarran":7977,"Ġarise":7978,"Ġargu":7979,"Ġspy":7980,"Ġspark":7981,"Ġmuster":7982,"Ġroared":7983,"Ġflame":7984,"Ġflush":7985,"Ġchill":7986,"Ġsirs":7987,"ĠVen":7988,"ĠVienna":7989,"Ġpeev":7990,"erving":7991,"imply":7992,"Ġbrut":7993,"Ġbrood":7994,"Ġclos":7995,"Ġpernicious":7996,"ullus":7997,"Ġenforce":7998,"Ġbetimes":7999,"Ġchain":8000,"igned":8001,"Ġmarks":8002,"Ġwhereon":8003,"Ġscent":8004,"Ġruled":8005,"LIS":8006,"ĠFroth":8007,"Ġjustly":8008,"Ġslaves":8009,"Ġcontem":8010,"Noble":8011,"oyal":8012,"Ġrace":8013,"Ġrack":8014,"Ġraven":8015,"Ġconsol":8016,"Ġconsidering":8017,"Ġswoon":8018,"Ġgloves":8019,"attern":8020,"Ġcoin":8021,"oughts":8022,"Ġcommit":8023,"Ġcommons":8024,"Ġcalling":8025,"ĠMarian":8026,"ippe":8027,"Ġentry":8028,"Ġthrashed":8029,"Ġrepose":8030,"thest":8031,"Ġcleared":8032,"Ġsweeter":8033,"Ġappointed":8034,"Ġintention":8035,"Ġattain":8036,"Ġattracted":8037,"Ġhelping":8038,"Ġhelped":8039,"Ġcareless":8040,"Ġhush":8041,"Ġsubd":8042,"Ġsubs":8043,"Ġcounted":8044,"Ġhopelessly":8045,"Ġawa":8046,"Ġawkward":8047,"Ġbedroom":8048,"Ġcrimes":8049,"Ġvisited":8050,"Ġsupply":8051,"Ġearthly":8052,"Ġpresents":8053,"ĠĠĠĠĠĠĠĠĠĠĠĠĠĠĠĠĠĠĠ":8054,"Ġdiscovered":8055,"Ġpersonally":8056,"Ġwronged":8057,"Ġlaying":8058,"Ġpleasing":8059,"Ġadvanced":8060,"ĠProspect":8061,"Ġfurthest":8062,"Ġexcess":8063,"Ġharl":8064,"Ġriver":8065,"Ġacts":8066,"Ġactor":8067,"Ġinco":8068,"Ġincred":8069,"Ġforthwith":8070,"Ġregal":8071,"Ġweeps":8072,"Ġwondrous":8073,"Ġkisses":8074,"Ġdecis":8075,"Ġinfam":8076,"Ġinfant":8077,"Ġrelief":8078,"ivity":8079,"Ġbrace":8080,"Ġmetal":8081,"Ġprophe":8082,"Ġproportion":8083,"Ġbeauteous":8084,"Ġstudies":8085,"Ġstudying":8086,"Ġpayment":8087,"Ġlearning":8088,"Ġinvest":8089,"Ġstopp":8090,"Ġquarters":8091,"Ġwelcom":8092,"Anon":8093,"ĠStates":8094,"Lords":8095,"Ġparce":8096,"Ġmoan":8097,"Ġembraced":8098,"Ġimagined":8099,"Ġsovereignt":8100,"Ġprofound":8101,"Ġprofane":8102,"Ġconsiderable":8103,"Ġdrawers":8104,"Didst":8105,"Ġpainter":8106,"Ġforgetting":8107,"Ġyielded":8108,"Ġinquire":8109,"Ġpulling":8110,"Ġentreaties":8111,"Ġcreated":8112,"Ġpenny":8113,"Ġprovince":8114,"Ġdreaded":8115,"Ġinstruction":8116,"Ġinstruments":8117,"Ġundo":8118,"Ġstirring":8119,"Ġsatisfy":8120,"Ġdestiny":8121,"Ġdevoted":8122,"Ġlouder":8123,"bitious":8124,"Ġhoped":8125,"Ġgallant":8126,"ĠNothing":8127,"Ġgeneration":8128,"Ġburns":8129,"Ġseizing":8130,"Ġbeggary":8131,"Ġsystem":8132,"Ġpractice":8133,"Ġoneself":8134,"iterally":8135,"Ġinnocence":8136,"Ġbeholding":8137,"Ġdrowning":8138,"Ġexample":8139,"ĠExeter":8140,"Ġtortured":8141,"Ġimmediate":8142,"Ġexcellency":8143,"Ġchiefly":8144,"Ġpainting":8145,"Ġinclined":8146,"strained":8147,"Ġrevolting":8148,"Ġowl":8149,"Ġlimbs":8150,"Ġbeasts":8151,"Ġcowardly":8152,"Ġpursuit":8153,"Ġthreats":8154,"Ġthreatening":8155,"Ġneighbours":8156,"Ġeldest":8157,"Ġrapier":8158,"Ġinsulted":8159,"Ġtemperament":8160,"doing":8161,"Ġurge":8162,"Ġpatron":8163,"Ġpatricians":8164,"ĠAlas":8165,"Ġmidst":8166,"ĠJohnson":8167,"Ġrecognise":8168,"Ġtrifling":8169,"Ġshadows":8170,"Ġplaced":8171,"Ġdeserted":8172,"Among":8173,"Ġdivided":8174,"Ġgreeting":8175,"Ġchatter":8176,"Ġstrokes":8177,"ĠEverything":8178,"Ġengaged":8179,"Ġrecollect":8180,"Ġembarrassment":8181,"yrrel":8182,"Ġcoughing":8183,"Ġholp":8184,"Ġremarks":8185,"Ġinquiries":8186,"Ġtempor":8187,"standing":8188,"ĠRussia":8189,"Ġconcerned":8190,"Ġunconsciously":8191,"Ġsepulch":8192,"ĠMayor":8193,"Ġunmistak":8194,"Ġspectators":8195,"Ġgratitude":8196,"Ġoppression":8197,"Ġmiracle":8198,"Ġreceiving":8199,"Ġconjure":8200,"Ġmerciful":8201,"humoured":8202,"Ġfrankly":8203,"Ġshrewd":8204,"Ġaccusation":8205,"Ġreproach":8206,"Ġapprehension":8207,"Ġmessage":8208,"Ġproduce":8209,"Ġcontemptuously":8210,"Remember":8211,"Ġtouched":8212,"Ġparents":8213,"Ġhinder":8214,"Ġnoiseless":8215,"Ġconnections":8216,"Ġscolding":8217,"Ġrepulsion":8218,"Ġstruggle":8219,"Ġpurchase":8220,"ĠSicilia":8221,"Ġsavage":8222,"Ġgradually":8223,"Ġdomain":8224,"Ġpanting":8225,"Ġpearl":8226,"ĠDorset":8227,"Ġclamour":8228,"Ġeverlasting":8229,"Ġprivilege":8230,"Ġhabits":8231,"Ġrejoice":8232,"Ġalleg":8233,"ĠGuild":8234,"coloured":8235,"occup":8236,"Ġfascin":8237,"ĠRosaline":8238,"ĠTwo":8239,"ĠTitus":8240,"Ġcalamity":8241,"Ġsyllable":8242,"Ġrebellion":8243,"ocratic":8244,"alisbury":8245,"Ġlikeness":8246,"Ġrestaurant":8247,"ĠPavlovna":8248,"Volsce":8249,"Ġtrespass":8250,"Ġfroward":8251,"askovya":8252,"Ġarranged":8253,"Ġpeevish":8254,"Ġsovereignty":8255,"55":8256,"56":8257,"62":8258,"63":8259,"65":8260,"66":8261,"67":8262,"68":8263,"69":8264,"70":8265,"71":8266,"72":8267,"73":8268,"74":8269,"75":8270,"80":8271,"Another":8272,"Bra":8273,"Cry":8274,"Cond":8275,"CLE":8276,"Damn":8277,"Fran":8278,"FRO":8279,"Gl":8280,"Hm":8281,"Hail":8282,"Hang":8283,"Lady":8284,"Meth":8285,"Many":8286,"Old":8287,"OMEN":8288,"Rather":8289,"Sm":8290,"Sit":8291,"Son":8292,"Sound":8293,"Te":8294,"Tra":8295,"Tush":8296,"UGH":8297,"Vice":8298,"Warwick":8299,"Whether":8300,"bon":8301,"bell":8302,"bred":8303,"bod":8304,"bers":8305,"bel":8306,"cow":8307,"cour":8308,"cary":8309,"crosses":8310,"cÃ©":8311,"des":8312,"dita":8313,"ere":8314,"eel":8315,"ffe":8316,"got":8317,"ghan":8318,"great":8319,"jection":8320,"lest":8321,"lock":8322,"leness":8323,"make":8324,"non":8325,"por":8326,"pers":8327,"press":8328,"sar":8329,"somet":8330,"sire":8331,"swer":8332,"shar":8333,"speak":8334,"tra":8335,"tell":8336,"uished":8337,"vail":8338,"war":8339,"wers":8340,"yet":8341,"yev":8342,"Ġ}":8343,"Ġice":8344,"ĠQuite":8345,"Ġtur":8346,"Ġtaunt":8347,"Ġtarry":8348,"heard":8349,"Ġacknow":8350,"Ġsim":8351,"Ġsch":8352,"Ġsna":8353,"Ġscience":8354,"Ġwipe":8355,"Ġwrung":8356,"Ġmould":8357,"Ġmum":8358,"Ġbay":8359,"Ġbash":8360,"Ġope":8361,"Ġoak":8362,"Ġomit":8363,"Ġfard":8364,"Ġfres":8365,"Ġfount":8366,"Ġcate":8367,"orbed":8368,"oniously":8369,"Ġtoad":8370,"Ġtomorrow":8371,"Ġhttps":8372,"Ġla":8373,"Ġlat":8374,"Ġliterary":8375,"nothing":8376,"Ġpoo":8377,"Ġpest":8378,"Ġpressed":8379,"Ġpomp":8380,"Ġpang":8381,"Ġpipe":8382,"Ġprud":8383,"Ġpattern":8384,"arus":8385,"arried":8386,"arated":8387,"ariat":8388,"Ġthumb":8389,"Ġinher":8390,"Ġhay":8391,"Ġhare":8392,"Ġhalt":8393,"Ġbere":8394,"vet":8395,"vech":8396,"Ġgap":8397,"stance":8398,"stead":8399,"strick":8400,"imble":8401,"cerem":8402,"owards":8403,"Ġnotorious":8404,"child":8405,"Ġstare":8406,"Ġstove":8407,"Ġstray":8408,"Ġstomach":8409,"Ġmew":8410,"Ġmeek":8411,"Ġrev":8412,"Ġrear":8413,"Ġrent":8414,"Ġrevel":8415,"Ġwears":8416,"alse":8417,"alus":8418,"Ġashes":8419,"Ġnon":8420,"Ġnail":8421,"Ġnamed":8422,"Ġnumer":8423,"Ġker":8424,"Ġkick":8425,"urrey":8426,"aments":8427,"Ġseldom":8428,"ĠHas":8429,"ĠHence":8430,"Ġanci":8431,"Ġdegr":8432,"Ġsul":8433,"Ġsugar":8434,"Ġdogs":8435,"Ġdocum":8436,"ĠSe":8437,"ĠSweet":8438,"ĠSalisbury":8439,"pear":8440,"anda":8441,"Ġsheets":8442,"ĠPh":8443,"ĠPut":8444,"ĠPot":8445,"ĠPoor":8446,"ĠPole":8447,"Ġaren":8448,"Ġshone":8449,"Ġshun":8450,"Ġshiver":8451,"usp":8452,"ĠWILLO":8453,"ĠWelcome":8454,"ilar":8455,"iless":8456,"ilities":8457,"Ġupright":8458,"Ġconceive":8459,"question":8460,"Ġshamel":8461,"Ġshapes":8462,"akale":8463,"ĠĠĠĠĠĠĠĠĠ":8464,"Ġambitious":8465,"artius":8466,"Ġorn":8467,"Ġgover":8468,"Ġunfe":8469,"Ġuncles":8470,"Ġunbear":8471,"Ġunacc":8472,"Ġuncerem":8473,"Ġsacr":8474,"ĠLove":8475,"ĠLippe":8476,"ĠLartius":8477,"Ġcompe":8478,"aughan":8479,"Ġnowhere":8480,"Ġages":8481,"ĠCom":8482,"iece":8483,"Ġshallow":8484,"Ġrat":8485,"Ġride":8486,"Ġrings":8487,"Ġexclamations":8488,"Ġquality":8489,"ĠGert":8490,"ĠOnce":8491,"Ġleague":8492,"ighed":8493,"Ġlikewise":8494,"ĠDushkin":8495,"toe":8496,"Ġworms":8497,"Ġlocks":8498,"Ġusually":8499,"Ġprime":8500,"Ġprovid":8501,"dding":8502,"ĠBER":8503,"ĠBakale":8504,"never":8505,"Ġplate":8506,"Ġplenty":8507,"EST":8508,"Ġanywhere":8509,"iac":8510,"Ġflour":8511,"Ġflax":8512,"Ġbegu":8513,"Ġbeget":8514,"Ġchur":8515,"Ġchose":8516,"Ġpop":8517,"ĠVass":8518,"Ġtwitch":8519,"Ġdismal":8520,"ago":8521,"agant":8522,"agine":8523,"agues":8524,"Ġeyel":8525,"Ġfeat":8526,"Ġclum":8527,"Ġperman":8528,"Ġperfection":8529,"Ġener":8530,"ĠItaly":8531,"blance":8532,"bleness":8533,"Ġoverstep":8534,"Ġdescent":8535,"fts":8536,"unte":8537,"Ġmarvell":8538,"roved":8539,"Ġscan":8540,"Ġscatter":8541,"Ġrupture":8542,"ĠFin":8543,"Ġowner":8544,"ĠTar":8545,"ĠTyrrel":8546,"Ġjustify":8547,"Ġsland":8548,"Ġdeaths":8549,"Ġcontents":8550,"Ġconsp":8551,"Ġsmoke":8552,"Ġcourteous":8553,"Ġswain":8554,"Ġbloodshed":8555,"Ġchildhood":8556,"Ġtrink":8557,"Ġcoffe":8558,"Ġwringing":8559,"Ġbacks":8560,"Ġpresume":8561,"Ġimpressed":8562,"Ġwomanish":8563,"Ġwarri":8564,"ĠJu":8565,"ĠJesus":8566,"Ġentering":8567,"Ġenthus":8568,"Ġhappening":8569,"Ġkeeper":8570,"Ġthrong":8571,"Ġendured":8572,"Ġstream":8573,"Ġrepay":8574,"Ġrepresent":8575,"shine":8576,"ships":8577,"Ġnormal":8578,"Ġworldly":8579,"Ġwaving":8580,"Ġwaved":8581,"Ġhelps":8582,"ixed":8583,"Ġpersisted":8584,"Behind":8585,"Ġcleft":8586,"Ġbush":8587,"Ġappl":8588,"Ġrecomp":8589,"Ġchanging":8590,"Ġbreeding":8591,"Ġlights":8592,"iancÃ©":8593,"Ġlieutenant":8594,"Ġsimplic":8595,"Ġsubstit":8596,"tendants":8597,"Ġplayed":8598,"Ġsentiment":8599,"ĠLuise":8600,"Ġmonarch":8601,"Ġtrap":8602,"Ġtrack":8603,"Ġtraged":8604,"Ġtravell":8605,"Ġrange":8606,"Ġcrit":8607,"atience":8608,"Ġvisiting":8609,"Ġlovest":8610,"Ġexped":8611,"Ġexpenses":8612,"Ġpolite":8613,"Ġbuilt":8614,"Ġburial":8615,"Ġdiscont":8616,"Ġsteed":8617,"Ġstead":8618,"Ġsteeds":8619,"Ġcharitable":8620,"Ġdrinks":8621,"Uncle":8622,"Ġsleeps":8623,"Ġripe":8624,"Ġactual":8625,"Ġincon":8626,"Ġrefer":8627,"ĠAttendants":8628,"ĠIsn":8629,"ouchsafe":8630,"Ġstrive":8631,"Ġdecor":8632,"Ġreturns":8633,"RIAN":8634,"Ġdanced":8635,"Ġbreathless":8636,"ival":8637,"Ġabsorbed":8638,"March":8639,"Marmeladov":8640,"Ġrespects":8641,"Ġsorrows":8642,"Ġcraves":8643,"Ġcountrymen":8644,"Ġpropag":8645,"Ġroyalty":8646,"Ġfrighten":8647,"Ġinterests":8648,"Ġcrosses":8649,"Ġhitherto":8650,"Ġcommonwe":8651,"Ġinvite":8652,"ushy":8653,"Ġcourtier":8654,"Ġboast":8655,"Ġrepeal":8656,"Ġbeats":8657,"bbish":8658,"voc":8659,"Ġdamnable":8660,"Ġpuff":8661,"Ġredress":8662,"Ġbreaks":8663,"Ġfastened":8664,"Enough":8665,"guard":8666,"Ġprepar":8667,"Ġtemple":8668,"Ġsadly":8669,"Ġirritation":8670,"Ġthrowing":8671,"Ġtrusty":8672,"Ġcharacterist":8673,"Ġwarmth":8674,"Ġflying":8675,"Ġinquiry":8676,"Ġnoticeable":8677,"Ġfainting":8678,"ĠWithout":8679,"Ġsmallest":8680,"Ġmockery":8681,"Ġcreatures":8682,"Ġstupidity":8683,"Ġbenevol":8684,"Ġfifth":8685,"Ġfavourable":8686,"Ġglasses":8687,"Ġfrowns":8688,"Ġinstructions":8689,"Ġharmony":8690,"Ġfatig":8691,"Ġseverity":8692,"Ġenterpr":8693,"Ġmeddle":8694,"Ġselfsame":8695,"Ġextremity":8696,"Ġhoping":8697,"ĠUnder":8698,"Ġheirs":8699,"Ġpossessed":8700,"Ġidiot":8701,"arming":8702,"Ġthrobbing":8703,"Ġcopies":8704,"Ġexecuted":8705,"Ġexact":8706,"Ġcheerful":8707,"Ġacquainted":8708,"Ġmounted":8709,"Ġcuriously":8710,"Ġbehavior":8711,"Ġstops":8712,"Ġblem":8713,"Commend":8714,"Ġforswear":8715,"Ġrevolt":8716,"ĠDido":8717,"Ġowes":8718,"Ġinjury":8719,"Ġverse":8720,"Ġfleet":8721,"Ġevils":8722,"Ġjumping":8723,"Ġbridegroom":8724,"Ġcriminals":8725,"Ġproceedings":8726,"Ġobvious":8727,"Ġcrept":8728,"Ġorders":8729,"Ġrudely":8730,"Ġghosts":8731,"Ġrebels":8732,"Ġgaily":8733,"Ġdemands":8734,"Ġimmortal":8735,"Ġstooping":8736,"Ġbecoming":8737,"Ġpronounce":8738,"Ġfruits":8739,"Ġerror":8740,"Ġsaints":8741,"Ġbabes":8742,"Ġconsumptive":8743,"Ġrecollected":8744,"Ġironical":8745,"Ġoccupation":8746,"Ġmillion":8747,"Ġholid":8748,"Ġpictures":8749,"Ġshudder":8750,"Ġobtained":8751,"Ġtrademark":8752,"Ġinterposed":8753,"Ġunexpectedly":8754,"Ġastonished":8755,"Ġcommissariat":8756,"Ġprofession":8757,"Ġfrag":8758,"***":8759,"Ġstabbed":8760,"ĠPerdita":8761,"Ġfairer":8762,"Ġoverwhelming":8763,"Ġprinciple":8764,"Ġmathem":8765,"Ġpierce":8766,"Ġpiercing":8767,"ĠSomething":8768,"clamation":8769,"Ġsmartness":8770,"Ġmethod":8771,"Ġconstantly":8772,"ĠMeanwhile":8773,"Ġlogical":8774,"Ġapprehend":8775,"Ġtyrann":8776,"Ġmuddled":8777,"Ġarrangements":8778,"Ġpeeped":8779,"Ġmask":8780,"Ġhaunted":8781,"levant":8782,"Ġstretch":8783,"Ġrisk":8784,"Ġemphat":8785,"Ġirrelevant":8786,"banished":8787,"Ġbands":8788,"ĠLicense":8789,"ĠEnough":8790,"Ġclutch":8791,"Ġdischarged":8792,"ĠAnyway":8793,"Ġzeal":8794,"Ġcautiously":8795,"Ġsignificance":8796,"Ġpenitent":8797,"Ġobliged":8798,"Ġfrequently":8799,"Ġrenowned":8800,"Ġspoonful":8801,"ilful":8802,"Ġfulf":8803,"ĠConspirator":8804,"Ġsolicit":8805,"Ġlux":8806,"Ġstyle":8807,"ĠSunday":8808,"ĠAmerica":8809,"Ġadversaries":8810,"Ġcoronation":8811,"Ġinquisitively":8812,"ADRIAN":8813,"Ġfemale":8814,"Ġeagle":8815,"ĠProvidence":8816,"Ġaccustomed":8817,"Ġreconciled":8818,"Ġmerchant":8819,"Ġinsinu":8820,"Ġinferior":8821,"Ġcounsellor":8822,"Coriolanus":8823,"Ġtardy":8824,"Ġtiptoe":8825,"othecary":8826,"Ġsubtle":8827,"ĠCurtis":8828,"Ġquantity":8829,"ĠMariana":8830,"Ġharlot":8831,"Ġincoherent":8832,"Ġsepulchre":8833,"Ġunmistakable":8834,"Ġallegiance":8835,"CLEOMEN":8836,"FROTH":8837,"UGHBY":8838,"vechsel":8839,"stricken":8840,"Ġnumerous":8841,"Ġanciently":8842,"ĠWILLOUGHBY":8843,"Ġshameless":8844,"Ġunbearable":8845,"Ġsacrament":8846,"ĠLippevechsel":8847,"ĠGertrude":8848,"ĠBakaleyev":8849,"Ġcoffee":8850,"Ġenthusi":8851,"Ġsimplicity":8852,"CLEOMENES":8853,"!...\"":8854,")âĢĶ":8855,"81":8856,"?...\"":8857,"Avdotya":8858,"Bre":8859,"BAR":8860,"Bah":8861,"Courage":8862,"Fall":8863,"Find":8864,"FOR":8865,"Fool":8866,"Follow":8867,"Fetch":8868,"II":8869,"Live":8870,"Mist":8871,"Making":8872,"Mercy":8873,"Open":8874,"Patience":8875,"RUT":8876,"Six":8877,"Send":8878,"Stop":8879,"TI":8880,"Ten":8881,"Talk":8882,"Tranio":8883,"Towards":8884,"Vouchsafe":8885,"Wait":8886,"Zossimov":8887,"_)":8888,"bble":8889,"bation":8890,"bidden":8891,"comp":8892,"dre":8893,"duke":8894,"foo":8895,"gnant":8896,"horse":8897,"ived":8898,"lter":8899,"lves":8900,"met":8901,"mph":8902,"made":8903,"nor":8904,"net":8905,"nic":8906,"nance":8907,"ox":8908,"oking":8909,"py":8910,"pal":8911,"past":8912,"pardon":8913,"pgl":8914,"ram":8915,"rain":8916,"roof":8917,"riment":8918,"sl":8919,"shap":8920,"uable":8921,"vish":8922,"water":8923,"Ġ3":8924,"Ġvel":8925,"Ġ10":8926,"Ġtig":8927,"Ġtack":8928,"Ġtree":8929,"Ġtang":8930,"Ġale":8931,"Ġaut":8932,"Ġanointed":8933,"Ġsand":8934,"Ġsous":8935,"Ġsne":8936,"Ġsamov":8937,"ouched":8938,"oubled":8939,"Ġwakes":8940,"Ġmant":8941,"Ġmort":8942,"Ġbull":8943,"Ġbows":8944,"Ġbiting":8945,"Ġbounty":8946,"erment":8947,"itiff":8948,"isons":8949,"Ġfen":8950,"Ġfest":8951,"Ġfits":8952,"Ġfitted":8953,"ĠfiancÃ©":8954,"Ġcu":8955,"Ġcult":8956,"enches":8957,"orus":8958,"orial":8959,"onoured":8960,"Ġdot":8961,"Ġdine":8962,"Ġdried":8963,"Ġdower":8964,"Ġdirt":8965,"Ġdiver":8966,"Ġdined":8967,"Ġtower":8968,"Ġhire":8969,"Ġlame":8970,"Ġlamp":8971,"Ġliterally":8972,"noble":8973,"esu":8974,"Ġphe":8975,"Ġpor":8976,"Ġpate":8977,"Ġpig":8978,"Ġpushing":8979,"arison":8980,"Ġthieves":8981,"Ġinch":8982,"atri":8983,"attered":8984,"atively":8985,"Ġnoses":8986,"Ġhall":8987,"Ġge":8988,"Ġgoose":8989,"sts":8990,"uts":8991,"utions":8992,"sey":8993,"Ġecc":8994,"Ġegg":8995,"oops":8996,"enter":8997,"roar":8998,"rove":8999,"Ġren":9000,"Ġrein":9001,"Ġreass":9002,"Ġweb":9003,"keley":9004,"adem":9005,"alf":9006,"Ġash":9007,"Ġnin":9008,"ĠnaÃ¯":9009,"Ġnunn":9010,"Ġnupt":9011,"ourn":9012,"terate":9013,"Ġliqu":9014,"Ġlivery":9015,"Ġwhist":9016,"Ġwhirl":9017,"Ġwhips":9018,"Ġsem":9019,"Ġsear":9020,"ĠRem":9021,"ĠRep":9022,"ĠHy":9023,"ĠHark":9024,"Ġann":9025,"Ġant":9026,"Ġanch":9027,"Ġallusion":9028,"raught":9029,"Ġdem":9030,"Ġdeer":9031,"Ġdevour":9032,"Ġbutter":9033,"ĠSurrey":9034,"ifying":9035,"ruly":9036,"ĠPart":9037,"ĠPETER":9038,"Ġwills":9039,"things":9040,"Ġshru":9041,"Ġshower":9042,"Ġshines":9043,"usively":9044,"ĠWilt":9045,"ĠWhether":9046,"icide":9047,"Ġuproar":9048,"elly":9049,"Ġconven":9050,"Ġconject":9051,"Ġcontend":9052,"Ġconcent":9053,"Ġshabby":9054,"END":9055,"ulation":9056,"eming":9057,"ements":9058,"empered":9059,"onel":9060,"Ġfails":9061,"INE":9062,"Ġvio":9063,"Ġamorous":9064,"._}":9065,"Ġorator":9066,"Ġgodd":9067,"Ġunin":9068,"Ġunlook":9069,"ARL":9070,"umes":9071,"umny":9072,"ĠMos":9073,"Ġsack":9074,"Thine":9075,"Things":9076,"ĠLau":9077,"ĠLaz":9078,"ĠLike":9079,"Ġcomr":9080,"Ġaloof":9081,"Ġagitation":9082,"ĠCall":9083,"ĠCont":9084,"ĠCounty":9085,"Ġrow":9086,"Ġroof":9087,"Ġrites":9088,"Ġexternal":9089,"ersed":9090,"Ġabund":9091,"Ġourself":9092,"ĠGentle":9093,"ĠOfficer":9094,"Ġjaunt":9095,"igm":9096,"ĠDane":9097,"ĠDamn":9098,"Ġblot":9099,"Ġblamed":9100,"ational":9101,"ounding":9102,"Ġlofty":9103,"Ġprinted":9104,"Ġpranks":9105,"urer":9106,"ĠEm":9107,"cile":9108,"Ġprosec":9109,"Ġspider":9110,"Ġsprings":9111,"Ġsprung":9112,"ĠBur":9113,"ĠBec":9114,"ĠBetter":9115,"Ġletting":9116,"Ġroaring":9117,"Ġroses":9118,"Ġrobbed":9119,"ĠNe":9120,"Ġhanded":9121,"Ġoffences":9122,"Ġfling":9123,"Ġflag":9124,"Ġflourish":9125,"Ġhatch":9126,"Ġpoet":9127,"ĠVah":9128,"Ġdiso":9129,"Ġdishes":9130,"Ġdisli":9131,"Ġdisreg":9132,"aging":9133,"Ġfees":9134,"Ġclap":9135,"Ġclosing":9136,"Ġclimate":9137,"bert":9138,"bery":9139,"Ġperformed":9140,"aped":9141,"Ġdownright":9142,"ĠKnow":9143,"irect":9144,"Ġgraces":9145,"Ġgraced":9146,"Ġmars":9147,"Ġmarble":9148,"Ġmarvel":9149,"Ġscru":9150,"Ġscared":9151,"Ġscrew":9152,"Ġrules":9153,"Ġrubbish":9154,"Ġgreatness":9155,"ĠFI":9156,"ĠFear":9157,"ĠFollow":9158,"Ġpreoccup":9159,"Ġpregnant":9160,"Ġlasting":9161,"ĠTur":9162,"Ġolder":9163,"Ġasks":9164,"Ġcontri":9165,"Ġcontrib":9166,"Ġlonging":9167,"Ġrag":9168,"ffaw":9169,"Ġconsented":9170,"Ġsmelt":9171,"Ġsmoking":9172,"Ġhoarse":9173,"Ġrighteous":9174,"being":9175,"ĠIvan":9176,"Ġtrim":9177,"Ġtrash":9178,"Ġtroop":9179,"Ġtroops":9180,"Ġcoach":9181,"Ġadul":9182,"Ġpassers":9183,"Ġfoils":9184,"cheth":9185,"Ġanswers":9186,"retion":9187,"Ġaccent":9188,"Ġgrin":9189,"Ġsettle":9190,"awful":9191,"Ġfearing":9192,"ĠMarch":9193,"Ġcompet":9194,"Ġcompare":9195,"ĠJer":9196,"ĠJud":9197,"Ġbelieving":9198,"Ġhappier":9199,"forward":9200,"Ġrests":9201,"ertainly":9202,"fact":9203,"itional":9204,"Ġnorther":9205,"Ġwaits":9206,"Ġwailing":9207,"rempt":9208,"Whereto":9209,"Ġsecurity":9210,"Ġfeels":9211,"Behold":9212,"Ġinstinct":9213,"them":9214,"their":9215,"Ġdistrust":9216,"Ġguffaw":9217,"Ġeloqu":9218,"Ġrecre":9219,"Ġrecom":9220,"Ġfarthing":9221,"Ġmurm":9222,"Ġmurders":9223,"Ġassume":9224,"Ġterr":9225,"Ġimpe":9226,"Ġstays":9227,"Ġlief":9228,"ontes":9229,"AMUS":9230,"Ġtables":9231,"Ġsubmiss":9232,"Ġsubstant":9233,"Ġsubstance":9234,"Ġsentenced":9235,"Ġmerriment":9236,"Ġdroop":9237,"Ġretreat":9238,"Ġtrag":9239,"Ġtravel":9240,"Ġcrook":9241,"ĠWere":9242,"Ġanswering":9243,"Ġsuppli":9244,"ials":9245,"Ġdreamily":9246,"Ġinsuff":9247,"Ġinsane":9248,"Ġmiser":9249,"Ġlesser":9250,"ĠĠĠĠĠĠĠĠĠĠĠĠĠĠĠĠĠĠ":9251,"Ġbund":9252,"Ġbuzz":9253,"Ġstealth":9254,"Ġdoubts":9255,"Ġfoundation":9256,"Ġcharges":9257,"irtue":9258,"Ġdrag":9259,"Ġdragged":9260,"Ġshouts":9261,"Ġsituation":9262,"ĠAnne":9263,"Ġadvoc":9264,"Ġhurrying":9265,"Ġvictor":9266,"Ġcaitiff":9267,"ĠThrough":9268,"Ġacting":9269,"Ġincensed":9270,"rants":9271,"Ġsunset":9272,"Ġsunshine":9273,"Ġregiment":9274,"Ġpurple":9275,"ceiving":9276,"Ġrefund":9277,"Ġdepth":9278,"Ġdepose":9279,"ĠIsland":9280,"Ġserpent":9281,"Ġsignal":9282,"Ġsignified":9283,"Ġgreed":9284,"Ġgreasy":9285,"Ġstrict":9286,"Ġstrictly":9287,"ribunes":9288,"Ġcomforted":9289,"idding":9290,"Ġrelations":9291,"Ġhangs":9292,"Ġeyeb":9293,"Ġindic":9294,"Ġindignant":9295,"Ġdirections":9296,"Marcius":9297,"Ġintegr":9298,"Ġdispersed":9299,"formation":9300,"Ġgrounds":9301,"Ġdetest":9302,"Ġprophes":9303,"Ġroyalties":9304,"ringing":9305,"Ġcorners":9306,"Ġtremor":9307,"Ġinvol":9308,"Ġsights":9309,"Ġboarding":9310,"Ġcrust":9311,"two":9312,"Ġreality":9313,"Ġrealising":9314,"Ġrequired":9315,"Ġrevenue":9316,"Ġcommands":9317,"Ġfooting":9318,"Ġfootstep":9319,"ĠStill":9320,"Ġsinister":9321,"Ġparas":9322,"Ġaffront":9323,"Ġafflict":9324,"Ġaffliction":9325,"Ġredoubled":9326,"Ġleaden":9327,"Ġlads":9328,"Ġvisitation":9329,"evsky":9330,"Ġstrengthen":9331,"Ġembra":9332,"Ġimages":9333,"Ġcircl":9334,"Ġdraws":9335,"ĠYesterday":9336,"Ġobjects":9337,"Ġreported":9338,"Ġcolonel":9339,"Twenty":9340,"Ġinquired":9341,"Ġfainted":9342,"Ġentreaty":9343,"Ġwishes":9344,"Ġfavours":9345,"Ġdifferently":9346,"Ġconclude":9347,"IDAMUS":9348,"Ġmalicious":9349,"Ġmedium":9350,"Ġdestit":9351,"Ġreckless":9352,"Ġapproached":9353,"Ġconceited":9354,"lihood":9355,"ificate":9356,"ĠBefore":9357,"Ġfondly":9358,"conom":9359,"Ġauthors":9360,"Ġfinish":9361,"Ġspeedy":9362,"Ġcursing":9363,"Ġdivor":9364,"Ġcomplaint":9365,"Ġarticles":9366,"Ġbrightly":9367,"Ġexecute":9368,"Ġhunger":9369,"Ġreckoned":9370,"Ġdrowned":9371,"Ġbleed":9372,"Ġcatching":9373,"Ġpurity":9374,"chers":9375,"Ġinclination":9376,"Ġelement":9377,"Ġsolitary":9378,"Ġtorch":9379,"Ġfashionable":9380,"Ġpalm":9381,"Ġringing":9382,"Ġproofs":9383,"ĠROOM":9384,"Ġcowardice":9385,"Ġsuperior":9386,"eeming":9387,"Ġrapidly":9388,"Ġaffecting":9389,"Ġtreatment":9390,"Ġstorms":9391,"ĠPraskovya":9392,"arers":9393,"Ġchurchyard":9394,"Ġenjoyment":9395,"cribed":9396,"Ġbeware":9397,"Ġeducated":9398,"Confess":9399,"regular":9400,"Ġcosts":9401,"Ġghostly":9402,"Ġshops":9403,"Ġcracking":9404,"Ġroughly":9405,"Ġchastity":9406,"Ġimmense":9407,"Ġstealing":9408,"Lebeziatnikov":9409,"ridge":9410,"Ġstooped":9411,"ĠSeeing":9412,"Ġconcealed":9413,"Ġfantasy":9414,"Ġdiadem":9415,"Ġgrandsire":9416,"Ġgreetings":9417,"point":9418,"Ġfurnish":9419,"Ġnicely":9420,"Ġrooted":9421,"Ġarguments":9422,"Ġcollected":9423,"Ġexperienced":9424,"Ġpersuaded":9425,"Ġbuilding":9426,"Ġerrand":9427,"Ġstatue":9428,"Ġsearching":9429,"Ġexistence":9430,"Ġexecutioner":9431,"Ġpsychological":9432,"Ġstockings":9433,"Ġproperly":9434,"Ġarrested":9435,"Ġsqueezing":9436,"ĠCaesar":9437,"Ġbelonged":9438,"Ġdistributing":9439,"Ġmournful":9440,"Ġlengthen":9441,"join":9442,"Ġsalary":9443,"Ġcabin":9444,"Ġweighty":9445,"Ġobliv":9446,"Ġfrail":9447,"Ġcentre":9448,"Ġderan":9449,"Ġsacrific":9450,"Ġministers":9451,"Ġceremonious":9452,"Ġpunishment":9453,"Ġbored":9454,"Ġbondage":9455,"Ġweapons":9456,"Ġvolunte":9457,"Ġspectacle":9458,"Ġscratch":9459,"Ġcovert":9460,"Ġintroduced":9461,"Ġsummon":9462,"avish":9463,"Ġhighest":9464,"Ġstumbled":9465,"Ġsuggested":9466,"Ġambig":9467,"Ġaffords":9468,"Ġjoints":9469,"ĠPlayer":9470,"scalus":9471,"Ġmethought":9472,"Ġlawyers":9473,"Ġinsolent":9474,"Ġeternity":9475,"break":9476,"Ġinfected":9477,"ĠShore":9478,"Ġrumours":9479,"Ġquarrelling":9480,"Ġunpleasantness":9481,"Ġcherish":9482,"Ġstretched":9483,"Ġrestored":9484,"Ġdeliberately":9485,"Ġcurtain":9486,"ĠLicio":9487,"Ġclutched":9488,"Ġdischarge":9489,"Ġhomage":9490,"ĠCalib":9491,"ĠBerkeley":9492,"NARDINE":9493,"Ġcotton":9494,"Ġnodded":9495,"ĠeBooks":9496,"rushin":9497,"ĠPriam":9498,"ĠElbow":9499,"Ġrushing":9500,"Ġwrinkled":9501,"Ġpossibility":9502,"Ġexceptional":9503,"Ġtranslation":9504,"Ġtugged":9505,"Ġtapster":9506,"Ġwolf":9507,"Ġpedlar":9508,"Ġpondered":9509,"Ġnapkin":9510,"ARCHIDAMUS":9511,"Ġclasped":9512,"Ġprejudices":9513,"Ġdispleasure":9514,"Ġestablish":9515,"craft":9516,"Ġruthless":9517,"Ġimpudent":9518,"Ġaccompl":9519,"Ġcomplexion":9520,"Ġreluctantly":9521,"Ġadmiration":9522,"Ġchristian":9523,"Ġbranches":9524,"Strike":9525,"Ġsufficient":9526,"Ġprettiest":9527,"Ġcontradict":9528,"Ġhysterical":9529,"Petruchio":9530,"ividual":9531,"Ġcertificate":9532,"Ġpowder":9533,"ĠMitka":9534,"ĠVenice":9535,"Ġnoiselessly":9536,"Methought":9537,"Ġsimilar":9538,"Ġschol":9539,"Ġcateg":9540,"Ġkerchief":9541,"Ġdocument":9542,"Ġflaxen":9543,"ĠVassily":9544,"Ġtwitching":9545,"Ġmarvellous":9546,"Ġtrinkets":9547,"Ġwarriors":9548,"Ġdiscontented":9549,"Ġcommonwealth":9550,"Ġpreparations":9551,"Ġenterprise":9552,"Ġenthusiasm":9553,"BARNARDINE":9554,"RUTLAND":9555,"pglaf":9556,"ĠnaÃ¯ve":9557,"Ġnunnery":9558,"ĠWiltshire":9559,"ĠMoscow":9560,"ĠLaurence":9561,"ĠLazarus":9562,"ĠVahrushin":9563,"Ġfootsteps":9564,"!âĢĶ":9565,"76":9566,"77":9567,"78":9568,"79":9569,"90":9570,":_":9571,"Aw":9572,"Act":9573,"App":9574,"ATER":9575,"Amalia":9576,"Bound":9577,"BAN":9578,"Ca":9579,"CRO":9580,"CIS":9581,"Chr":9582,"Content":9583,"El":9584,"Ever":9585,"Eng":9586,"ECT":9587,"Foo":9588,"Fore":9589,"Full":9590,"False":9591,"Ga":9592,"Gentleman":9593,"Garden":9594,"Gives":9595,"GOT":9596,"Hic":9597,"Henry":9598,"Hush":9599,"Hortensio":9600,"Ilya":9601,"Jesus":9602,"Lizaveta":9603,"Lead":9604,"Mur":9605,"MOR":9606,"Much":9607,"Name":9608,"Officer":9609,"Pers":9610,"Prep":9611,"Rel":9612,"Saw":9613,"SIR":9614,"TON":9615,"Takes":9616,"VE":9617,"Villain":9618,"Wit":9619,"Woe":9620,"Women":9621,"WEST":9622,"WATER":9623,"Yield":9624,"Zametov":9625,"]--":9626,"ape":9627,"action":9628,"bour":9629,"bacc":9630,"cis":9631,"call":9632,"cop":9633,"chard":9634,"cund":9635,"course":9636,"dis":9637,"daughter":9638,"elect":9639,"friend":9640,"fashion":9641,"fume":9642,"gent":9643,"gone":9644,"gentle":9645,"grown":9646,"gutenberg":9647,"giving":9648,"ht":9649,"hole":9650,"iqu":9651,"ipp":9652,"ipped":9653,"kn":9654,"kest":9655,"kers":9656,"lin":9657,"lor":9658,"lain":9659,"line":9660,"mo":9661,"mas":9662,"mary":9663,"name":9664,"oken":9665,"par":9666,"pet":9667,"pot":9668,"pret":9669,"pray":9670,"rat":9671,"rim":9672,"rated":9673,"rhus":9674,"spe":9675,"serv":9676,"since":9677,"take":9678,"tong":9679,"uro":9680,"vice":9681,"wd":9682,"ws":9683,"wit":9684,"wor":9685,"wls":9686,"worthy":9687,"ymph":9688,"zel":9689,"Ġig":9690,"ĠQu":9691,"Ġtie":9692,"Ġtren":9693,"Ġtips":9694,"Ġtakest":9695,"Ġafe":9696,"Ġached":9697,"Ġaches":9698,"Ġaversion":9699,"inq":9700,"iners":9701,"inately":9702,"inarily":9703,"Ġsow":9704,"Ġsess":9705,"Ġsni":9706,"Ġsoot":9707,"Ġsiege":9708,"oulev":9709,"Ġwinking":9710,"rection":9711,"hah":9712,"habit":9713,"ndy":9714,"Ġmute":9715,"Ġmiles":9716,"Ġbout":9717,"Ġbrick":9718,"Ġbidding":9719,"Ġost":9720,"erous":9721,"erily":9722,"isite":9723,"isement":9724,"Ġfund":9725,"Ġcem":9726,"Ġcano":9727,"Ġcrest":9728,"Ġcuck":9729,"Ġcrew":9730,"Ġcities":9731,"Ġcards":9732,"enst":9733,"envol":9734,"orovna":9735,"onz":9736,"onus":9737,"oncile":9738,"Ġdand":9739,"Ġdil":9740,"Ġdally":9741,"Ġdaint":9742,"Ġdarted":9743,"Ġduc":9744,"inger":9745,"educ":9746,"ednes":9747,"Ġhen":9748,"Ġheel":9749,"Ġlour":9750,"Ġlance":9751,"Ġlun":9752,"Ġlions":9753,"Ġlung":9754,"Ġyawn":9755,"nocks":9756,"ester":9757,"escrib":9758,"escend":9759,"ĠIm":9760,"Ġpom":9761,"Ġpent":9762,"Ġphan":9763,"Ġpark":9764,"Ġpip":9765,"Ġpages":9766,"Ġpounds":9767,"Ġpounced":9768,"anish":9769,"omes":9770,"Ġinve":9771,"atis":9772,"Ġnobler":9773,"Ġnobleness":9774,"Ġham":9775,"Ġhail":9776,"Ġbeet":9777,"Ġbeads":9778,"Ġbeams":9779,"Ġgay":9780,"Ġgam":9781,"Ġgains":9782,"Ġgaunt":9783,"Ġgathe":9784,"stru":9785,"stained":9786,"seth":9787,"aying":9788,"etery":9789,"Ġevent":9790,"idel":9791,"irous":9792,"chond":9793,"entry":9794,"entric":9795,"Ġstench":9796,"Ġstinking":9797,"Ġstaff":9798,"Ġmeal":9799,"roach":9800,"riel":9801,"rified":9802,"Ġrender":9803,"Ġweed":9804,"add":9805,"adies":9806,"alter":9807,"almost":9808,"illed":9809,"Ġassem":9810,"Ġnast":9811,"ourt":9812,"ourge":9813,"Ġherd":9814,"Ġate":9815,"Ġknocks":9816,"urgh":9817,"urally":9818,"Ġsoil":9819,"Ġsoaked":9820,"Ġlic":9821,"Ġliar":9822,"Ġlick":9823,"Ġlivest":9824,"Ġsex":9825,"Ġseed":9826,"Ġsevent":9827,"ckster":9828,"ĠRE":9829,"ĠRed":9830,"ĠRev":9831,"ĠRaven":9832,"ĠRatcliff":9833,"ĠHold":9834,"ĠHaven":9835,"ĠHuntsman":9836,"ctr":9837,"cted":9838,"Ġanc":9839,"rav":9840,"Ġdejection":9841,"Ġsucc":9842,"Ġdoctr":9843,"Ġbutt":9844,"ĠST":9845,"ĠSit":9846,"ĠSix":9847,"ĠShow":9848,"ĠSTE":9849,"ĠSchill":9850,"ĠSCRO":9851,"people":9852,"olve":9853,"olerable":9854,"ifies":9855,"iform":9856,"oventry":9857,"ĠPyr":9858,"thri":9859,"throw":9860,"those":9861,"Ġshred":9862,"Ġshine":9863,"Ġshining":9864,"Ġships":9865,"usale":9866,"ĠWest":9867,"ĠWall":9868,"ĠWel":9869,"iciously":9870,"icule":9871,"ilver":9872,"elle":9873,"elled":9874,"ellows":9875,"ĠAct":9876,"ĠAllow":9877,"Ġconception":9878,"Ġshaft":9879,"Ġshaken":9880,"ulated":9881,"Ġnegl":9882,"Ġnearest":9883,"respect":9884,"Ġvind":9885,"Ġamain":9886,"terest":9887,"text":9888,"Ġwheels":9889,"arts":9890,"asted":9891,"Ġungr":9892,"Ġuniform":9893,"ARLIS":9894,"uming":9895,"ĠMust":9896,"ĠMah":9897,"ĠMistress":9898,"Ġsaith":9899,"ĠLast":9900,"ĠLong":9901,"ĠLittle":9902,"ppily":9903,"ongru":9904,"Ġagg":9905,"Ġaged":9906,"ĠCy":9907,"ĠCAST":9908,"ĠCrist":9909,"ĠCÃ¦":9910,"ĠCoventry":9911,"ĠCARLIS":9912,"Ġrhy":9913,"Ġexcl":9914,"istocratic":9915,"ĠGreen":9916,"Whiles":9917,"ĠOR":9918,"ĠOut":9919,"ĠOver":9920,"epht":9921,"Ġju":9922,"Ġjar":9923,"Ġjade":9924,"Ġlewd":9925,"igent":9926,"igonus":9927,"Ġlikelihood":9928,"ĠDian":9929,"Ġbliss":9930,"Ġblister":9931,"Ġblade":9932,"Ġworser":9933,"Ġloc":9934,"Ġseeks":9935,"Ġprate":9936,"Ġherein":9937,"Ġspec":9938,"ĠEly":9939,"ĠELY":9940,"ĠEgy":9941,"ĠEscalus":9942,"ĠEuro":9943,"Ġproves":9944,"Ġproclamation":9945,"Ġaround":9946,"Ġarray":9947,"Ġarbit":9948,"Ġaristocratic":9949,"Ġhowling":9950,"----":9951,"Ġspine":9952,"Ġspurs":9953,"Ġspiders":9954,"Ġmusty":9955,"Ġmustard":9956,"ĠBr":9957,"ĠBushy":9958,"ORGE":9959,"Ġplants":9960,"ĠNept":9961,"Ġhandle":9962,"Forgive":9963,"Ġcouldst":9964,"Ġoffensive":9965,"Ġflock":9966,"Ġflashing":9967,"weigh":9968,"Ġchorus":9969,"Ġpoignant":9970,"ĠVaughan":9971,"open":9972,"Ġdisclaim":9973,"Ġdaybreak":9974,"agot":9975,"ickle":9976,"death":9977,"Ġperempt":9978,"Ġspeaker":9979,"Ġbrat":9980,"Ġbranch":9981,"Ġpert":9982,"Ġpermiss":9983,"Ġpersec":9984,"Ġpermitted":9985,"Ġenlar":9986,"Ġenigm":9987,"ildren":9988,"Ġbetide":9989,"ranch":9990,"rancis":9991,"blood":9992,"irectly":9993,"Ġchains":9994,"Ġremiss":9995,"Ġremote":9996,"Ġreminded":9997,"Ġoverstrained":9998,"Ġdescribe":9999,"Ġdesirous":10000,"LIBAN":10001,"ĠFive":10002,"ĠFrancis":10003,"ĠYOU":10004,"Ġparties":10005,"Ġpartial":10006,"Ġmeaner":10007,"ĠTche":10008,"ĠTime":10009,"Ġearlier":10010,"Ġrave":10011,"Ġconsult":10012,"Ġsmother":10013,"plosive":10014,"Ġcourty":10015,"Ġswears":10016,"Ġswoll":10017,"Intend":10018,"beck":10019,"ountable":10020,"rences":10021,"onsible":10022,"Ġmightst":10023,"perhaps":10024,"perienced":10025,"attery":10026,"Ġcoz":10027,"Ġcoats":10028,"Ġwring":10029,"Ġpreserved":10030,"Ġimpot":10031,"Ġimpose":10032,"Ġimpulse":10033,"Withdraw":10034,"Ġnighting":10035,"ELAND":10036,"Ġfoll":10037,"Ġfoil":10038,"Ġresort":10039,"Ġtalks":10040,"CALIBAN":10041,"Ġwarning":10042,"Ġgrasp":10043,"Ġgrateful":10044,"Ġgrinding":10045,"ĠWhose":10046,"ĠWhile":10047,"aws":10048,"Ġcomply":10049,"ĠJepht":10050,"Ġbelief":10051,"Ġhappens":10052,"Ġresting":10053,"Ġstrangers":10054,"astery":10055,"Ġconfined":10056,"Ġconfused":10057,"favour":10058,"Ġmomentary":10059,"Ġwailed":10060,"Whereof":10061,"Ġinstit":10062,"these":10063,"Ġapace":10064,"Ġaprop":10065,"Ġdistorted":10066,"Ġdistemper":10067,"Ġbushes":10068,"Ġsweetly":10069,"Ġapply":10070,"Ġapplic":10071,"Ġapproved":10072,"Ġreconcile":10073,"Ġneedle":10074,"Ġwalks":10075,"Ġchances":10076,"Ġassault":10077,"Ġlightly":10078,"Ġintents":10079,"Ġattire":10080,"Ġattach":10081,"Ġattitude":10082,"Ġsimplet":10083,"Ġmale":10084,"Ġcheque":10085,"Ġchecked":10086,"Ġhuckster":10087,"Ġlanding":10088,"Ġlanded":10089,"Ġmistakes":10090,"Ġkilling":10091,"Ġplays":10092,"Ġplayful":10093,"Ġhopeful":10094,"Ġmonoman":10095,"Ġmonastery":10096,"RANCIS":10097,"Ġcrut":10098,"Ġcram":10099,"Ġcramp":10100,"Ġhumility":10101,"Ġhusbands":10102,"Ġpresented":10103,"Ġpresentiment":10104,"oebus":10105,"Ġmisunder":10106,"BAGOT":10107,"Ġdiscovery":10108,"Ġdiscontent":10109,"Ġdiscretion":10110,"Ġpersonage":10111,"Ġsteward":10112,"Ġruns":10113,"Ġbanks":10114,"Ġlists":10115,"Ġinterchange":10116,"Ġirregular":10117,"Ġpleasures":10118,"Ġstrained":10119,"ĠAlexander":10120,"everal":10121,"Ġworthless":10122,"Ġadvised":10123,"Ġsleepy":10124,"Ġhurl":10125,"Ġharbour":10126,"spurgh":10127,"Ġriches":10128,"Ġribb":10129,"Ġcape":10130,"ĠThree":10131,"Ġincor":10132,"Ġregion":10133,"Ġpurposes":10134,"Ġrefined":10135,"Ġrefused":10136,"ĠLeontes":10137,"Ġformal":10138,"Ġsigned":10139,"Ġquicker":10140,"ouching":10141,"Ġstrife":10142,"Ġstriking":10143,"Ġdecay":10144,"Ġcomforts":10145,"Ġconfessor":10146,"Ġpromot":10147,"mpet":10148,"Ġdespicable":10149,"Ġmutinous":10150,"Ġbragg":10151,"Ġflats":10152,"GEORGE":10153,"Ġindividual":10154,"Ġindescrib":10155,"Ġtreasons":10156,"Ġwatery":10157,"Ġmoves":10158,"Ġsensibly":10159,"Ġpropos":10160,"Ġproposed":10161,"Ġik":10162,"Ġsingular":10163,"Ġstudents":10164,"Ġinvention":10165,"Ġinvitation":10166,"Ġdeepest":10167,"Ġjudging":10168,"Ġjocund":10169,"Ġcloset":10170,"Ġweakly":10171,"Ġvillains":10172,"Ġforest":10173,"twould":10174,"twenty":10175,"Ġwhiskers":10176,"Ġhundreds":10177,"Any":10178,"Ġrevenges":10179,"ĠHercul":10180,"bborn":10181,"Ġsurprising":10182,"Ġfootman":10183,"Ġsoftened":10184,"Ġskirt":10185,"answer":10186,"Ġgladly":10187,"Ġmajest":10188,"Ġcalumny":10189,"gundy":10190,"Ġwinters":10191,"Ġvaluable":10192,"Ġpreparing":10193,"Ġtemples":10194,"Ġdevilish":10195,"Although":10196,"Ġcele":10197,"Ġpainters":10198,"Ġforgetfulness":10199,"Ġirritability":10200,"Ġbowels":10201,"Ġfunny":10202,"Ġspiteful":10203,"Ġfancying":10204,"settled":10205,"Ġcharacters":10206,"Ġdefy":10207,"Ġdefiant":10208,"Ġimports":10209,"Ġyields":10210,"Ġyielding":10211,"reshold":10212,"Ġsurm":10213,"Ġbitterness":10214,"Ġestimation":10215,"Ġboldness":10216,"Ġposts":10217,"Ġwiser":10218,"Ġwisest":10219,"Ġbattered":10220,"Ġdrift":10221,"Ġdriving":10222,"Ġfavourite":10223,"Ġdreadfully":10224,"Ġsuitors":10225,"Ġrevengeful":10226,"Ġattended":10227,"Ġadmon":10228,"Ġadmire":10229,"Ġadmired":10230,"Ġeffects":10231,"ĠJulius":10232,"Ġmedit":10233,"Ġmeditation":10234,"Ġapprobation":10235,"Ġextremes":10236,"Ġwoodcock":10237,"reading":10238,"Ġbells":10239,"Ġplucks":10240,"Ġgallows":10241,"Becomes":10242,"Ġridicule":10243,"Ġcloudy":10244,"Ġclouded":10245,"Hadst":10246,"ification":10247,"ĠBehind":10248,"Ġhumane":10249,"Ġpublisher":10250,"Ġcircumstant":10251,"Ġmember":10252,"Ġmembers":10253,"Ġprivately":10254,"Prove":10255,"Proceed":10256,"Proclaim":10257,"Ġdelights":10258,"Ġdelightful":10259,"Ġwooing":10260,"Ġdivision":10261,"Ġtaverns":10262,"Ġcandid":10263,"Ġgrieves":10264,"Ġexamine":10265,"Ġexamples":10266,"Ġcheerly":10267,"Ġcheerfully":10268,"Ġmusician":10269,"Ġmusicians":10270,"Ġbehave":10271,"Ġstoreys":10272,"ĠCamb":10273,"Ġtribute":10274,"Ġsighing":10275,"Ġpurge":10276,"Ġchiefest":10277,"Ġdeliverance":10278,"Comes":10279,"Comfort":10280,"iveness":10281,"Ġimpatiently":10282,"ibility":10283,"Ġwisely":10284,"Ġowed":10285,"Ġregarded":10286,"Ġpursue":10287,"Ġpursued":10288,"Ġpursuing":10289,"Ġthreaten":10290,"Ġtransgress":10291,"Ġcreate":10292,"Ġkites":10293,"Ġdebts":10294,"Ġchoked":10295,"Ġscreaming":10296,"Ġscorns":10297,"Ġslipp":10298,"RAHAM":10299,"roads":10300,"Ġknelt":10301,"Ġbridal":10302,"Ġsuspected":10303,"Ġfailure":10304,"Ġattempted":10305,"Ġlamentable":10306,"Ġgait":10307,"Ġgape":10308,"Ġbetrayed":10309,"Ġimmov":10310,"Stands":10311,"Ġsongs":10312,"repared":10313,"Ġdifficulties":10314,"Plantagenet":10315,"piration":10316,"Ġgrandam":10317,"Ġcontrolled":10318,"Ġextraordinarily":10319,"Above":10320,"Ġmildness":10321,"Ġkinsmen":10322,"Ġusurping":10323,"Ġcollect":10324,"ĠĠĠĠĠĠĠĠĠĠĠĠĠĠĠĠĠĠĠĠĠĠ":10325,"ĠĠĠĠĠĠĠĠĠĠĠĠĠĠĠĠĠĠĠĠĠĠĠ":10326,"TZWATER":10327,"Ġfrost":10328,"Ġconveyed":10329,"Ġrobes":10330,"Ġrobbery":10331,"Ġheavier":10332,"Ġbaseness":10333,"Ġstatement":10334,"Ġrecollection":10335,"govern":10336,"Ġstocks":10337,"Ġangels":10338,"Ġbelongs":10339,"Ġtrades":10340,"Ġdistribution":10341,"Ġguiltless":10342,"Ġtormented":10343,"Ġsweep":10344,"Ġdwelling":10345,"Ġshrink":10346,"ĠBlunt":10347,"Ġdiscussion":10348,"Ġcorrection":10349,"Ġconcerns":10350,"Ġannoyed":10351,"Ġderived":10352,"ĠAntigonus":10353,"Ġconquest":10354,"Ġjewels":10355,"Ġintentions":10356,"Ġbastards":10357,"ĠAmong":10358,"Ġvolume":10359,"Ġflowed":10360,"Ġintroduce":10361,"Ġprincipal":10362,"EXTON":10363,"Neither":10364,"zzled":10365,"Ġmoody":10366,"Ġstumbling":10367,"Ġreceipt":10368,"Ġsuggest":10369,"Ġsuggestion":10370,"Ġattacking":10371,"Ġorigin":10372,"Ġfretting":10373,"Ġgleam":10374,"Ġshocking":10375,"Ġdistinguished":10376,"Ġtreachery":10377,"Desp":10378,"Rodion":10379,"Ġdeceased":10380,"ĠShould":10381,"ĠAdieu":10382,"ĠĠĠĠĠĠĠĠĠĠĠĠĠĠĠĠĠĠĠĠĠĠĠĠĠĠ":10383,"Ġbewilderment":10384,"Ġproverbial":10385,"eyed":10386,"Ġtestimony":10387,"Ġmilk":10388,"Ġbalm":10389,"Ġbilli":10390,"Ġportra":10391,"Ġshriek":10392,"Ġabandon":10393,"Ġovertook":10394,"Ġadopt":10395,"Ġemphas":10396,"Ġtailor":10397,"Ġirrevoc":10398,"barov":10399,"Ġshrift":10400,"Ġvouchsafe":10401,"Ġsplit":10402,"Ġrustle":10403,"Ġpolitical":10404,"Appear":10405,"www":10406,"Ġseverely":10407,"Ġsuprem":10408,"Ġprovoked":10409,"NARDO":10410,"Ġstupe":10411,"Ġstubborn":10412,"Ġwhipped":10413,"Ġamends":10414,"Ġjeering":10415,"Ġloathing":10416,"Ġloathed":10417,"Ġpreceding":10418,"Ġprecedent":10419,"Ġpersistent":10420,"Ġpersistently":10421,"Ġhumiliating":10422,"Ġpossibilities":10423,"Ġdevelopment":10424,"Shalt":10425,"business":10426,"Ġimperial":10427,"Ġcalculated":10428,"Ġbenefactor":10429,"Ġbenefactors":10430,"Lucentio":10431,"Ġmultitude":10432,"Ġdrowsiness":10433,"Ġlazy":10434,"Ġhazard":10435,"ĠBelieve":10436,"ĠJews":10437,"Ġcarriages":10438,"Ġmagnific":10439,"Ġlambs":10440,"Ġdejected":10441,"ĠPalais":10442,"Ġunkindness":10443,"ĠMinola":10444,"Ġblaze":10445,"Ġdisinher":10446,"Ġrudeness":10447,"ĠFortune":10448,"Ġglittering":10449,"Ġransom":10450,"Ġvividly":10451,"Ġflatterers":10452,"Ġhypochond":10453,"Ġpilgrimage":10454,"PHEN":10455,"Ġhawk":10456,"advised":10457,"ĠPeople":10458,"Ġmanifest":10459,"Ġcloser":10460,"Ġconsolation":10461,"Ġawaiting":10462,"Ġinvestig":10463,"Ġparcel":10464,"ĠGuildenst":10465,"Ġbashful":10466,"Ġfardel":10467,"Ġpoorest":10468,"Ġprudence":10469,"uspicious":10470,"Ġgoverness":10471,"Ġunceremoniously":10472,"ĠBERNARDO":10473,"Ġpopular":10474,"Ġclumsy":10475,"Ġpermanent":10476,"Ġrecompense":10477,"Ġsentimental":10478,"Ġtragedy":10479,"Ġcritic":10480,"Ġexpedition":10481,"Ġpropaganda":10482,"Ġcharacteristic":10483,"Ġfatigue":10484,"Ġblemish":10485,"Ġtyrannous":10486,"Ġemphatically":10487,"Ġfulfil":10488,"dreams":10489,"Ġvelvet":10490,"Ġmantle":10491,"Ġeccentric":10492,"Ġnuptial":10493,"Ġconjecture":10494,"Ġgoddess":10495,"ĠBurgundy":10496,"ĠBecause":10497,"Ġdisregarded":10498,"Ġmarshal":10499,"Ġscrewed":10500,"ĠFITZWATER":10501,"ĠJerusale":10502,"Ġnorthern":10503,"Ġtragic":10504,"Ġbundle":10505,"Ġadvocate":10506,"Ġeyebrows":10507,"Ġintegrity":10508,"Ġprophesy":10509,"Ġinvolunt":10510,"ĠCaliban":10511,"ĠVassilyevsky":10512,"Else":10513,"Gaoler":10514,"Gardener":10515,"MORELAND":10516,"Persu":10517,"WESTMORELAND":10518,"bacco":10519,"Ġafeard":10520,"oulevard":10521,"Ġcemetery":10522,"envolio":10523,"educated":10524,"ednesday":10525,"Ġlunatic":10526,"Ġlungs":10527,"Ġphantom":10528,"Ġgathered":10529,"ĠRavenspurgh":10530,"ĠSTEPHEN":10531,"ĠSCROOP":10532,"ĠPyrrhus":10533,"Ġshreds":10534,"ĠWallace":10535,"ĠWelsh":10536,"Ġvindict":10537,"Ġungrateful":10538,"ĠCASTLE":10539,"ĠCristal":10540,"ĠCÃ¦sar":10541,"ĠCARLISLE":10542,"ĠEgypt":10543,"ĠEurope":10544,"ĠNeptune":10545,"ĠTchebarov":10546,"Ġswollen":10547,"ĠJephthah":10548,"Ġapropos":10549,"Ġribbons":10550,"Ġindescribable":10551,"ĠHercules":10552,"Ġhypochondria":10553,"ĠGuildenstern":10554,"ĠJerusalem":10555,"!_":10556,",...":10557,"84":10558,"87":10559,"97":10560,"?âĢĶ":10561,"AT":10562,"Ac":10563,"Af":10564,"Add":10565,"AGE":10566,"ACT":10567,"Br":10568,"Bless":10569,"Bene":10570,"Cle":10571,"Cam":10572,"Cont":10573,"Char":10574,"Catesby":10575,"Certainly":10576,"Del":10577,"Dep":10578,"Er":10579,"End":10580,"Foul":10581,"Grace":10582,"Gainst":10583,"Ho":10584,"Hie":10585,"High":10586,"Harry":10587,"Ko":10588,"Kat":10589,"Knock":10590,"Lies":10591,"Lieutenant":10592,"Mis":10593,"Purs":10594,"Peter":10595,"Swear":10596,"Section":10597,"Virtue":10598,"Verily":10599,"Wert":10600,"Zounds":10601,"aving":10602,"aces":10603,"acious":10604,"acing":10605,"apping":10606,"bu":10607,"bes":10608,"bal":10609,"bol":10610,"both":10611,"cat":10612,"cry":10613,"cils":10614,"cub":10615,"cerity":10616,"dict":10617,"disp":10618,"eve":10619,"every":10620,"eared":10621,"eches":10622,"fig":10623,"follow":10624,"gage":10625,"hors":10626,"honour":10627,"iem":10628,"iction":10629,"jac":10630,"kens":10631,"lo":10632,"lp":10633,"low":10634,"lord":10635,"live":10636,"mir":10637,"mod":10638,"mosp":10639,"mistress":10640,"oin":10641,"pter":10642,"pres":10643,"part":10644,"post":10645,"port":10646,"prov":10647,"pired":10648,"paper":10649,"ral":10650,"rong":10651,"rish":10652,"su":10653,"sent":10654,"too":10655,"tri":10656,"tree":10657,"tied":10658,"tail":10659,"tling":10660,"trees":10661,"ubl":10662,"uiv":10663,"vious":10664,"vied":10665,"vals":10666,"wling":10667,"witted":10668,"women":10669,"ye":10670,"ycor":10671,"Ġou":10672,"Ġire":10673,"Ġ20":10674,"Ġversion":10675,"Ġtin":10676,"Ġton":10677,"Ġtrow":10678,"Ġtatter":10679,"Ġtents":10680,"Ġtalent":10681,"hew":10682,"hered":10683,"heres":10684,"Ġaven":10685,"Ġawe":10686,"Ġache":10687,"Ġairy":10688,"iner":10689,"inies":10690,"inius":10691,"Ġshat":10692,"Ġsine":10693,"Ġsurn":10694,"Ġscient":10695,"Ġsinking":10696,"Ġsize":10697,"Ġsighed":10698,"oups":10699,"ouches":10700,"Ġwes":10701,"Ġwreat":10702,"Ġwary":10703,"Ġwished":10704,"recy":10705,"had":10706,"hael":10707,"Ġtheories":10708,"Ġment":10709,"Ġmart":10710,"Ġmoe":10711,"Ġmuff":10712,"Ġmixed":10713,"Ġbust":10714,"Ġbail":10715,"Ġbishop":10716,"Ġom":10717,"Ġoce":10718,"Ġoil":10719,"erning":10720,"isy":10721,"isions":10722,"Ġfri":10723,"Ġfile":10724,"Ġfring":10725,"Ġfitting":10726,"Ġfuri":10727,"Ġcord":10728,"Ġcave":10729,"Ġcared":10730,"Ġcuff":10731,"Ġcords":10732,"enious":10733,"orical":10734,"orney":10735,"lls":10736,"onio":10737,"Ġdus":10738,"Ġdame":10739,"Ġdash":10740,"Ġdiest":10741,"Ġtoe":10742,"Ġtoy":10743,"Ġtoss":10744,"Ġtobacco":10745,"Ġheinous":10746,"Ġhedge":10747,"Ġhood":10748,"Ġhilt":10749,"Ġhinted":10750,"Ġlit":10751,"Ġlink":10752,"Ġlace":10753,"Ġlute":10754,"Ġlash":10755,"Ġlunch":10756,"nomen":10757,"ĠImp":10758,"Ġpith":10759,"Ġpine":10760,"Ġpup":10761,"Ġpanc":10762,"Ġpots":10763,"Ġpulse":10764,"arp":10765,"ask":10766,"asci":10767,"asper":10768,"anity":10769,"Ġthw":10770,"Ġthreshold":10771,"Ġinches":10772,"atre":10773,"atory":10774,"Ġnod":10775,"Ġnoon":10776,"Ġnovel":10777,"Ġnobody":10778,"Ġgy":10779,"Ġgru":10780,"Ġgust":10781,"Ġgig":10782,"Ġgained":10783,"Ġgorge":10784,"Ġgrum":10785,"Ġgrud":10786,"Ġgutter":10787,"stone":10788,"station":10789,"strov":10790,"stock":10791,"lend":10792,"lead":10793,"leased":10794,"ims":10795,"ceit":10796,"cels":10797,"etition":10798,"lymp":10799,"owl":10800,"Ġeg":10801,"Ġebb":10802,"Ġepit":10803,"Ġeconom":10804,"Ġejac":10805,"irmed":10806,"cho":10807,"chink":10808,"enth":10809,"entre":10810,"entious":10811,"Ġforbidden":10812,"Ġster":10813,"Ġstam":10814,"Ġstake":10815,"Ġstem":10816,"Ġstung":10817,"Ġstagger":10818,"Ġwithd":10819,"Ġmeed":10820,"roll":10821,"ril":10822,"Ġrewards":10823,"key":10824,"ado":10825,"advent":10826,"ills":10827,"Ġascend":10828,"Ġnag":10829,"Ġnick":10830,"Ġnaught":10831,"Ġnigh":10832,"Ġnimble":10833,"Ġhern":10834,"Ġatmosp":10835,"tery":10836,"urous":10837,"urther":10838,"urvy":10839,"uratively":10840,"urrection":10841,"ainty":10842,"otland":10843,"Ġsequ":10844,"Ġselling":10845,"Ġsewing":10846,"ĠRo":10847,"ĠRap":10848,"ĠRoyal":10849,"ĠHath":10850,"ĠHang":10851,"ĠHalf":10852,"Ġanaly":10853,"Ġalludes":10854,"ored":10855,"raged":10856,"rails":10857,"Ġdecent":10858,"Ġdearer":10859,"Ġsuited":10860,"Ġdole":10861,"ĠSly":10862,"ĠSeveral":10863,"ĠSycor":10864,"peian":10865,"oven":10866,"Ġshelter":10867,"ĠPha":10868,"ĠPel":10869,"ĠPLA":10870,"ĠPeace":10871,"estroy":10872,"thought":10873,"thumberland":10874,"geon":10875,"gered":10876,"gement":10877,"usive":10878,"ĠWater":10879,"ĠWitten":10880,"ĠWednesday":10881,"icate":10882,"ication":10883,"icuous":10884,"ella":10885,"ĠAgainst":10886,"ĠACT":10887,"ĠAchill":10888,"antic":10889,"Ġshares":10890,"ousing":10891,"ulsion":10892,"blet":10893,"ardo":10894,"ems":10895,"embroke":10896,"nihil":10897,"Ġfaced":10898,"ustice":10899,"venom":10900,"Ġva":10901,"Ġvass":10902,"Ġvap":10903,"Ġmanhood":10904,"hanging":10905,"allel":10906,"ights":10907,"Ġwhet":10908,"Ġorb":10909,"Ġorchard":10910,"ĠHear":10911,"Ġgoal":10912,"astened":10913,"Ġuna":10914,"Ġunh":10915,"Ġunman":10916,"Ġunaw":10917,"Ġunrest":10918,"Ġunruly":10919,"Ġthereto":10920,"ums":10921,"umps":10922,"ĠMine":10923,"ĠMary":10924,"ĠMiss":10925,"Ġsavour":10926,"Throw":10927,"ĠLay":10928,"ĠLieutenant":10929,"ĠLadies":10930,"Ġweren":10931,"odes":10932,"Ġalt":10933,"ĠCupid":10934,"ĠCentre":10935,"Ġrood":10936,"Ġrats":10937,"Ġrational":10938,"Ġexh":10939,"Ġexasper":10940,"Ġquake":10941,"Ġquilt":10942,"Ġcanon":10943,"Ġcannon":10944,"Ġabject":10945,"Ġability":10946,"Ġabnor":10947,"osure":10948,"ĠGeneral":10949,"ĠGonz":10950,"ĠOstrov":10951,"ĠOlymp":10952,"ĠDu":10953,"ĠDar":10954,"ĠDem":10955,"ĠDear":10956,"ĠDel":10957,"ĠDoth":10958,"Ġblown":10959,"Ġblushed":10960,"Ġworries":10961,"Ġuses":10962,"Ġprating":10963,"Ġspeeches":10964,"ĠExt":10965,"Ġprolong":10966,"Ġarmed":10967,"Ġaroused":10968,"Ġspies":10969,"Ġspilt":10970,"Ġspade":10971,"Ġsparing":10972,"Ġspots":10973,"Ġmadmen":10974,"ĠBern":10975,"ĠBagot":10976,"ĠBenvolio":10977,"neath":10978,"necess":10979,"Ġrobb":10980,"ĠNed":10981,"ĠNear":10982,"ittany":10983,"Ġanybody":10984,"iably":10985,"Ġflin":10986,"Ġflint":10987,"urning":10988,"Ġchop":10989,"Ġpoets":10990,"rieved":10991,"ĠValent":10992,"acket":10993,"Ġtwisting":10994,"Ġdisl":10995,"Ġdiscl":10996,"Ġdisapp":10997,"Ġdisrespect":10998,"assing":10999,"against":11000,"ĠĠĠĠĠĠĠĠĠĠĠ":11001,"ĠĠĠĠĠĠĠĠĠĠĠĠĠ":11002,"Ġpeer":11003,"Ġfeeding":11004,"Ġbrass":11005,"Ġbrute":11006,"Ġclim":11007,"Ġcloth":11008,"Ġclue":11009,"azed":11010,"Ġpercept":11011,"Ġpermit":11012,"Ġperchance":11013,"aph":11014,"appe":11015,"Ġdownfall":11016,"ĠKent":11017,"Ġthoughtful":11018,"Ġenforced":11019,"Ġenrich":11020,"ĠPetrov":11021,"black":11022,"Ġeverybody":11023,"Ġevenings":11024,"Ġchapel":11025,"Ġundergo":11026,"Ġunderneath":11027,"Ġoverlook":11028,"Ġoverheard":11029,"Ġdesired":11030,"ften":11031,"Ġgravity":11032,"uns":11033,"unis":11034,"uned":11035,"unately":11036,"Ġscra":11037,"Ġscenes":11038,"Ġscourge":11039,"Ġrubbing":11040,"ĠFOR":11041,"ĠFourth":11042,"Ġtruer":11043,"Ġmeanness":11044,"Ġpretext":11045,"Ġheadstr":11046,"ĠTew":11047,"ĠTroy":11048,"ĠTullus":11049,"ĠTribunes":11050,"Ġslack":11051,"Ġslily":11052,"Ġslavish":11053,"Ġbrotherhood":11054,"Ġhears":11055,"Ġcontact":11056,"Ġraving":11057,"Ġraging":11058,"Ġrailing":11059,"Ġrarely":11060,"Ġrapture":11061,"ossom":11062,"Ġsmeared":11063,"plicable":11064,"Ġcourses":11065,"Ġhoar":11066,"Ġglances":11067,"been":11068,"beians":11069,"Ġtram":11070,"Ġcoal":11071,"Ġcoil":11072,"Ġcoast":11073,"Ġcoars":11074,"Ġcoppers":11075,"ensity":11076,"Ġadorn":11077,"Ġbackward":11078,"Ġpasses":11079,"Ġpassport":11080,"about":11081,"abeth":11082,"ized":11083,"izabeth":11084,"Ġcommun":11085,"Ġfox":11086,"Ġresour":11087,"Ġreserved":11088,"Ġreserve":11089,"chelor":11090,"Ġminded":11091,"Ġgroup":11092,"ĠWhom":11093,"ĠMarry":11094,"ĠMarcell":11095,"Ġcompre":11096,"Ġcompared":11097,"ĠJup":11098,"Ġentrails":11099,"ABRAHAM":11100,"isterous":11101,"Ġconfer":11102,"Ġconfed":11103,"Ġconfident":11104,"Ġconflict":11105,"Ġrepetition":11106,"Ġshowers":11107,"Ġpaced":11108,"ocked":11109,"show":11110,"shop":11111,",--_":11112,"Ġdelivered":11113,"Ġsecrecy":11114,".),":11115,"Beat":11116,"Ġhomely":11117,"Ġpoorly":11118,"Ġdistraction":11119,"Ġguer":11120,"Ġgulf":11121,"Ġdearth":11122,"ksbury":11123,"Ġsweetest":11124,"Ġappar":11125,"Ġrecount":11126,"Ġneedless":11127,"Ġnobleman":11128,"Ġemblem":11129,"Ġfarm":11130,"Ġchanced":11131,"Ġchanges":11132,"Ġassail":11133,"Ġassented":11134,"Ġassumed":11135,"Ġlightness":11136,"Ġintolerable":11137,"Ġattrib":11138,"Ġquestioning":11139,"ontane":11140,"Ġhug":11141,"Ġcarelessly":11142,"Ġsincere":11143,"Ġbreathes":11144,"Ġcertainty":11145,"Notes":11146,"Ġtape":11147,"Ġgiant":11148,"Ġfellowship":11149,"Ġsubmit":11150,"Ġelsewhere":11151,"Ġcounting":11152,"Ġawry":11153,"Ġawaken":11154,"Ġvisits":11155,"GREY":11156,"Ġladyship":11157,"Ġhumours":11158,"Ġsupposition":11159,"Ġdreamy":11160,"Ġexpi":11161,"Ġexpost":11162,"Ġinsanity":11163,".'\"":11164,"Ġmisc":11165,"Ġcarries":11166,"Ġroundly":11167,"Ġbuz":11168,"ĠHowever":11169,"Ġcrowned":11170,"ĠForgive":11171,"Ġprivy":11172,"Ġcharming":11173,"Ġspoons":11174,"Ġbanqu":11175,"Ġpeaceful":11176,"Ġstrain":11177,"ĠAnswer":11178,"Ġhorrid":11179,"centre":11180,"Ġhurts":11181,"Ġexcuses":11182,"Ġharvest":11183,"spoken":11184,"Ġrice":11185,"Ġriot":11186,"Ġcaus":11187,"emption":11188,"Ġactive":11189,"Ġincomp":11190,"Ġincongru":11191,"ceives":11192,"Ġangle":11193,"ĠDoes":11194,"Ġhenceforth":11195,"Ġformat":11196,"Ġwonders":11197,"Ġserf":11198,"Ġfaltered":11199,"Ġsignifying":11200,"Ġreasoning":11201,"Ġreasonable":11202,"Ġstrip":11203,"Ġstripes":11204,"Ġreturning":11205,"Ġcomfortable":11206,"Ġgraveyard":11207,"Ġinfring":11208,"Ġrelieve":11209,"Ġrelieved":11210,"Ġpromises":11211,"Ġhangman":11212,"Ġobsc":11213,"Ġbreaths":11214,"Ġmutual":11215,"erns":11216,"Ġinduced":11217,"Ġinduce":11218,"Attend":11219,"Ġtreble":11220,"Ġcondescend":11221,"Ġdarkly":11222,"Ġpatiently":11223,"Ġpatients":11224,"Ġmurdering":11225,"Ġmurderous":11226,"Ġpurposely":11227,"Ġrespectful":11228,"formity":11229,"Ġcorp":11230,"Ġcorresp":11231,"Ġcrab":11232,"Ġcraft":11233,"Ġsensations":11234,"Ġproposition":11235,"Ġfrighted":11236,"Ġconvuls":11237,"Ġstudied":11238,"Ġthankful":11239,"ittingly":11240,"Ġcommonplace":11241,"Ġtremend":11242,"Ġpays":11243,"Ġinvented":11244,"Ġcrows":11245,"Ġcourts":11246,"Ġexpressly":11247,"Ġboat":11248,"Ġboisterous":11249,"Ġjoke":11250,"Ġjoined":11251,"Ġtroubl":11252,"Ġcruc":11253,"Ġproudest":11254,"Northumberland":11255,"Ġpastime":11256,"Ġoppose":11257,"Ġopposed":11258,"Ġdenying":11259,"Ġwretches":11260,"Ġcommandment":11261,"Ġsoften":11262,"ĠStand":11263,"ĠStage":11264,"ĠStrange":11265,"Ġswearing":11266,"Ġsincerity":11267,"Ġparl":11268,"Ġparched":11269,"Ġdealing":11270,"Ġaffright":11271,"Ġpuiss":11272,"Ġredemption":11273,"Ġgrowth":11274,"Polenka":11275,"Ġmoiety":11276,"Ġmajor":11277,"Ġfasting":11278,"Ġsecretly":11279,"Ġblessings":11280,"Ġsuspiciously":11281,"Ġcrowds":11282,"Ġcircle":11283,"Ġprofits":11284,"Ġdevils":11285,"Ġutterance":11286,"Almost":11287,"Ġsixty":11288,"Ġceiling":11289,"Ġirritate":11290,"Ġirritating":11291,"Ġbowl":11292,"Ġfunction":11293,"Ġfunctions":11294,"Ġthrows":11295,"Ġmovements":11296,"Ġanxiously":11297,"Ġdefiance":11298,"Ġdespairing":11299,"Twill":11300,"Twixt":11301,"shearing":11302,"Ġveil":11303,"Ġsurface":11304,"Ġestimate":11305,"Ġbargain":11306,"Ġposted":11307,"Ġtenderness":11308,"Ġpenal":11309,"Ġstupidly":11310,"Ġprovinces":11311,"unged":11312,"Ġsqueal":11313,"Ġwishing":11314,"Ġbattles":11315,"Ġsuitable":11316,"Ġleaf":11317,"Ġmodel":11318,"cellent":11319,"Ġconclusions":11320,"Ġspeechless":11321,"Ġframed":11322,"Ġfrowned":11323,"Ġattending":11324,"Ġattendant":11325,"Ġharmless":11326,"Ġmaliciously":11327,"Ġundressing":11328,"Ġundoubt":11329,"Ġstirred":11330,"Ġdisgraced":11331,"Ġsufferings":11332,"Ġdevice":11333,"Ġdevote":11334,"Ġbosoms":11335,"116":11336,"Ġtitles":11337,"Ġmorose":11338,"Ġlegally":11339,"Ġpoisonous":11340,"ĠMontagues":11341,"Ġmemorial":11342,"Ġsuccessful":11343,"Ġprobable":11344,"confid":11345,"Ġidly":11346,"Ġthrobbed":11347,"Ġbeggarly":11348,"Ġbeggars":11349,"Ġglobe":11350,"120":11351,"Ġgroom":11352,"Ġgrotes":11353,"Happy":11354,"Ġlowly":11355,"Ġissued":11356,"Ġcomplaining":11357,"Ġremaining":11358,"ixture":11359,"Ġbreasts":11360,"Ġcowards":11361,"Ġexamined":11362,"Ġwretchedness":11363,"Ġacquaintances":11364,"Ġtorturing":11365,"Ġmountains":11366,"Ġdusty":11367,"Ġintending":11368,"Ġbehaved":11369,"Ġstored":11370,"Ġblowing":11371,"Ġrosemary":11372,"Ġaccepted":11373,"Ġexcellence":11374,"Command":11375,"chery":11376,"eshrew":11377,"Ġencourage":11378,"Ġelection":11379,"Ġelements":11380,"Ġforsooth":11381,"Ġsolitude":11382,"Ġunpardon":11383,"Ġunprepared":11384,"Ġconditions":11385,"Ġauthorities":11386,"Ġfiguratively":11387,"Ġlimits":11388,"Ġinjurious":11389,"Ġinjustice":11390,"atics":11391,"ĠLooking":11392,"ĠChris":11393,"Ġdryly":11394,"Ġthickly":11395,"Ġspending":11396,"Ġpassionate":11397,"Ready":11398,"Ġventured":11399,"Ġperforming":11400,"Ġaimed":11401,"Ġaimlessly":11402,"Ġbald":11403,"Ġbachelor":11404,"Ġeighteen":11405,"ĠSomeone":11406,"Ġurging":11407,"Ġconcerning":11408,"Ġprotested":11409,"Ġfeasts":11410,"Meanwhile":11411,"Ġdukes":11412,"Ġstories":11413,"raordinary":11414,"Ġsafely":11415,"Ġsafeguard":11416,"Ġscreen":11417,"Ġslipping":11418,"Ġaccordance":11419,"Ġstarting":11420,"Ġstartled":11421,"ĠAlmost":11422,"ĠAlban":11423,"ĠOpen":11424,"regory":11425,"Ġmidwife":11426,"Ġrebel":11427,"Ġvarlet":11428,"Ġunfastened":11429,"Ġtrifle":11430,"Ġschoolmaster":11431,"Ġmissed":11432,"Ġbodes":11433,"Ġlamentation":11434,"ĠVolscians":11435,"ĠVolscian":11436,"Ġbankrupt":11437,"Standing":11438,"Ġfamiliarity":11439,"Left":11440,"Ġetc":11441,"Ġslanderous":11442,"Ġattentive":11443,"Ġwedded":11444,"Play":11445,"Plain":11446,"Truly":11447,"cannot":11448,"Ġmagist":11449,"Ġlenity":11450,"Ġreigns":11451,"Ġfeeble":11452,"ĠKatia":11453,"Ġgrandfather":11454,"Ġrestraint":11455,"ĠIsabella":11456,"Ġboxes":11457,"Ġmildly":11458,"Ġfurnished":11459,"Ġuniversal":11460,"Ġstarve":11461,"Ġstarving":11462,"Ġcollars":11463,"Ġneighbourhood":11464,"Ġfrozen":11465,"Ġbuilds":11466,"Ġbasin":11467,"Ġstatutes":11468,"Ġdooms":11469,"ĠMercury":11470,"Ġexists":11471,"Ġengage":11472,"Ġaccidentally":11473,"Ġobservance":11474,"Ġholes":11475,"ĠAfterwards":11476,"Ġunluck":11477,"Ġunlawful":11478,"Ġprosperity":11479,"Ġcommends":11480,"Ġinquiring":11481,"flow":11482,"Ġaudible":11483,"Ġmentioning":11484,"Ġdistribute":11485,"Ġdistributed":11486,"Ġincreased":11487,"Ġtormenting":11488,"Ġsaloon":11489,"Ġpapa":11490,"runk":11491,"Ġobstinately":11492,"Ġemployment":11493,"Ġcorrectly":11494,"Ġcentury":11495,"Ġpinch":11496,"Ġgentry":11497,"Ġgentler":11498,"Ġgenteel":11499,"Ġseparated":11500,"ĠAntium":11501,"Ġdiseases":11502,"Ġmistrustfully":11503,"ĠCapulets":11504,"Ġsnatching":11505,"Ġfilth":11506,"Ġdimly":11507,"ĠPercy":11508,"Ġoppressive":11509,"Ġsummons":11510,"Ġprinciples":11511,"longs":11512,"Ġsanction":11513,"Ġmirror":11514,"Ġstumble":11515,"ĠAbout":11516,"ĠAbove":11517,"Ġambition":11518,"Ġagonies":11519,"Ġscoundrels":11520,"Ġdisturbing":11521,"Ġattacked":11522,"Ġmerciless":11523,"Ġadvancement":11524,"Ġgroaning":11525,"score":11526,"Ġgleamed":11527,"Ġdescribing":11528,"Ġaccusations":11529,"Ġreproaches":11530,"Ġdestroyed":11531,"Ġsolemnity":11532,"Ġfruitful":11533,"Ġexhaustion":11534,"penny":11535,"Ġhostile":11536,"Ġproduced":11537,"Ġchampion":11538,"Ġhelplessness":11539,"Ġperplexed":11540,"Justice":11541,"Ġmilitary":11542,"Ġdigest":11543,"Ġluckless":11544,"Ġprogressive":11545,"ĠFlor":11546,"Adv":11547,"Ġcasually":11548,"Ġpilot":11549,"Ġgiddiness":11550,"Ġdebate":11551,"Ġshrill":11552,"Ġvigour":11553,"Ġvigorous":11554,"Ġloyalty":11555,"Ġtaxes":11556,"Ġpoliteness":11557,"Ġindifferently":11558,"Children":11559,"Ġwidows":11560,"Ġwinked":11561,"Ġwitchcraft":11562,"Ġbrill":11563,"ĠKapernaumovs":11564,"Ġpreferred":11565,"Ġcautious":11566,"Ġpenitence":11567,"Ġneglected":11568,"Proud":11569,"Ġwaggon":11570,"Ġbudge":11571,"Ġinexplicable":11572,"Ġnodding":11573,"Ġrenown":11574,"Ġjeer":11575,"ĠElizabeth":11576,"Ġrushes":11577,"Ġhumiliated":11578,"Ġmaidenhead":11579,"Ġtransparent":11580,"Ġconqueror":11581,"writing":11582,"Ġtutor":11583,"Ġthorns":11584,"Ġconstable":11585,"ARCHBISHOP":11586,"Ġexclaimed":11587,"ĠTHIS":11588,"Ġescort":11589,"Ġdispleased":11590,"Ġintellectual":11591,"monger":11592,"Ġbonny":11593,"Ġdrowsy":11594,"Ġpanic":11595,"Ġwhoreson":11596,"Ġdefective":11597,"Ġabhorr":11598,"Ġdisguise":11599,"Ġdisguised":11600,"Ġdisorderly":11601,"ossessing":11602,"Ġadverse":11603,"Ġadvertis":11604,"Ġgrimly":11605,"Ġcarrion":11606,"Suppose":11607,"Ġanticipation":11608,"Kindly":11609,"Sometime":11610,"castically":11611,"Ġtightly":11612,"Ġbulk":11613,"Ġbaggage":11614,"arthage":11615,"Ġabstract":11616,"Ġperjured":11617,"Ġswelling":11618,"Ġobsequious":11619,"Ġrescue":11620,"Ġindependence":11621,"Ġattractive":11622,"Ġdepraved":11623,"Ġdepravity":11624,"Ġreligious":11625,"Ġscrutinised":11626,"Write":11627,"Ġsarcastically":11628,"Ġwiped":11629,"Ġanimal":11630,"ĠChurch":11631,"Ġexcessive":11632,"Ġdecisive":11633,"Ġinfamy":11634,"Ġtemporary":11635,"Ġfascinating":11636,"Condem":11637,"boding":11638,"lestick":11639,"sharper":11640,"Ġtaunts":11641,"Ġacknowledge":11642,"Ġlatest":11643,"Ġpestilence":11644,"Ġbereft":11645,"ĠPhoebus":11646,"ĠPotchink":11647,"Ġornaments":11648,"Ġunaccountable":11649,"ĠTarpeian":11650,"Ġconspicuous":11651,"Ġsubstitute":11652,"Ġtraveller":11653,"Ġmathematics":11654,"Ġspoonfuls":11655,"Ġluxury":11656,"Break":11657,"Mistake":11658,"Ġtiger":11659,"Ġsamovar":11660,"Ġphenomen":11661,"Ġrenounce":11662,"Ġreassured":11663,"Ġninet":11664,"Ġliquor":11665,"ĠRemember":11666,"Ġanchor":11667,"Ġviolets":11668,"Ġprosecute":11669,"Ġdisobed":11670,"Ġdisliked":11671,"Ġpreoccupied":11672,"Ġcoachman":11673,"Ġcompetent":11674,"factory":11675,"Ġeloquence":11676,"Ġrecreant":11677,"Ġrecommend":11678,"Ġimpeach":11679,"Ġsubmissive":11680,"Ġinsufferable":11681,"Ġembracing":11682,"Ġcircling":11683,"Ġdestitute":11684,"Ġoblivion":11685,"Ġsacrificing":11686,"Ġvolunteers":11687,"Ġambiguous":11688,"Ġcategory":11689,"Murder":11690,"Prepare":11691,"electronic":11692,"fashioned":11693,"ratitude":11694,"Ġignoble":11695,"Ġsnig":11696,"Ġfundament":11697,"Ġcanopy":11698,"Ġcuckold":11699,"Ġdandy":11700,"Ġdiligence":11701,"Ġinveterate":11702,"Ġlicense":11703,"Ġseventeen":11704,"ĠReview":11705,"Ġancest":11706,"Ġdoctrine":11707,"ĠSchiller":11708,"ĠMahomet":11709,"Ġaggrieved":11710,"ĠBrittany":11711,"Ġperemptory":11712,"beckons":11713,"Ġimpotence":11714,"Ġnightingale":11715,"Ġapplicable":11716,"Ġbraggart":11717,"Ġcircumstantial":11718,"ĠCambio":11719,"Ġimmovable":11720,"Ġmagnificent":11721,"Ġinvoluntarily":11722,"Ġvindictive":11723,"Camillo":11724,"cuba":11725,"uivant":11726,"Ġouter":11727,"Ġsurname":11728,"Ġscientific":11729,"Ġwestern":11730,"Ġbustle":11731,"Ġfuriously":11732,"adventure":11733,"Ġatmosphere":11734,"ĠSycorax":11735,"ĠPelion":11736,"ĠWittenberg":11737,"ĠAchilles":11738,"Ġabnormal":11739,"ĠBernardo":11740,"ĠPetrovsky":11741,"Ġheadstrong":11742,"ĠTewksbury":11743,"ĠMarcellus":11744,"ĠJupiter":11745,"Ġcorrespond":11746,"Ġgrotesque":11747,"ĠPotchinkov":11748,"\"...":11749,"'!":11750,"'?\"":11751,"110":11752,"761":11753,"82":11754,"83":11755,"85":11756,"86":11757,"88":11758,"89":11759,"91":11760,"92":11761,"93":11762,"94":11763,"95":11764,"96":11765,"98":11766,"99":11767,"?_":11768,"Aff":11769,"Aumerle":11770,"Bold":11771,"BON":11772,"CE":11773,"CO":11774,"Cut":11775,"Cold":11776,"Comp":11777,"Carry":11778,"Cursed":11779,"Cinq":11780,"Den":11781,"Dare":11782,"During":11783,"Doubt":11784,"Direct":11785,"EC":11786,"EAN":11787,"EMI":11788,"Fit":11789,"Fill":11790,"Fell":11791,"Fourth":11792,"Given":11793,"Groom":11794,"Grand":11795,"Hard":11796,"Huntsman":11797,"Harp":11798,"ILI":11799,"Imp":11800,"IGH":11801,"JECT":11802,"Join":11803,"Keeper":11804,"LU":11805,"Last":11806,"Lie":11807,"Little":11808,"Man":11809,"Music":11810,"Night":11811,"NATH":11812,"Norfolk":11813,"Pe":11814,"Pres":11815,"Pale":11816,"PAGE":11817,"Ren":11818,"Red":11819,"Rev":11820,"Ratcliff":11821,"SR":11822,"Sen":11823,"Sic":11824,"Sings":11825,"Sleep":11826,"Sland":11827,"Surely":11828,"Tr":11829,"Tran":11830,"Trust":11831,"Touching":11832,"Ur":11833,"Us":11834,"Wife":11835,"Worse":11836,"_.\"]":11837,"afe":11838,"access":11839,"ben":11840,"bat":11841,"best":11842,"bast":11843,"bber":11844,"bably":11845,"better":11846,"box":11847,"cer":11848,"cus":11849,"came":11850,"creat":11851,"cause":11852,"count":11853,"cup":11854,"crant":11855,"cousin":11856,"cases":11857,"counter":11858,"capable":11859,"dur":11860,"dist":11861,"door":11862,"fed":11863,"fan":11864,"fast":11865,"franch":11866,"gal":11867,"gown":11868,"gation":11869,"gies":11870,"grace":11871,"greed":11872,"hill":11873,"hour":11874,"houses":11875,"horses":11876,"ige":11877,"iently":11878,"iates":11879,"iarly":11880,"lings":11881,"mes":11882,"mak":11883,"mpt":11884,"much":11885,"minded":11886,"ns":11887,"nut":11888,"nal":11889,"none":11890,"often":11891,"pin":11892,"pan":11893,"pri":11894,"pol":11895,"pier":11896,"poor":11897,"prick":11898,"prote":11899,"piece":11900,"ride":11901,"ruth":11902,"rained":11903,"sw":11904,"sive":11905,"song":11906,"shing":11907,"sick":11908,"shin":11909,"sweet":11910,"six":11911,"scape":11912,"saf":11913,"silver":11914,"till":11915,"table":11916,"tempered":11917,"uv":11918,"uge":11919,"uity":11920,"ucy":11921,"ubs":11922,"ueless":11923,"virt":11924,"viol":11925,"wed":11926,"wore":11927,"wood":11928,"wind":11929,"wel":11930,"worth":11931,"xim":11932,"yed":11933,"zens":11934,"Ã´":11935,"Ġrom":11936,"Ġ50":11937,"Ġtar":11938,"Ġtamed":11939,"Ġtales":11940,"Ġtainted":11941,"Ġtasted":11942,"heer":11943,"hear":11944,"hero":11945,"Ġav":11946,"Ġape":11947,"Ġafore":11948,"ino":11949,"inter":11950,"inore":11951,"inci":11952,"inence":11953,"inish":11954,"Ġsom":11955,"Ġsith":11956,"Ġsite":11957,"Ġsipping":11958,"oust":11959,"Ġwan":11960,"Ġwrang":11961,"Ġwilful":11962,"Ġwenches":11963,"rend":11964,"reason":11965,"Ġming":11966,"Ġmast":11967,"Ġmusing":11968,"Ġmixture":11969,"Ġmoust":11970,"Ġben":11971,"Ġbath":11972,"Ġbree":11973,"Ġbother":11974,"Ġbier":11975,"Ġbunch":11976,"Ġbattery":11977,"Ġboulevard":11978,"Ġoper":11979,"ero":11980,"eration":11981,"erwhel":11982,"isk":11983,"Ġfart":11984,"Ġfel":11985,"Ġfence":11986,"Ġfired":11987,"Ġfuss":11988,"Ġfickle":11989,"Ġcri":11990,"Ġcue":11991,"Ġcush":11992,"Ġcamb":11993,"enerate":11994,"ennel":11995,"orie":11996,"orously":11997,"onna":11998,"onesty":11999,"Ġdat":12000,"Ġdens":12001,"Ġdiet":12002,"Ġdict":12003,"Ġdashed":12004,"Ġdainty":12005,"Ġtot":12006,"Ġtoken":12007,"Ġtoads":12008,"Ġtowel":12009,"inge":12010,"edies":12011,"ediment":12012,"Ġhey":12013,"Ġhero":12014,"Ġheal":12015,"Ġheigh":12016,"Ġhits":12017,"Ġlain":12018,"Ġlots":12019,"Ġlisp":12020,"Ġlids":12021,"Ġyare":12022,"estering":12023,"Ġpas":12024,"Ġpard":12025,"Ġpel":12026,"Ġpia":12027,"Ġpious":12028,"Ġpedant":12029,"asions":12030,"anim":12031,"anger":12032,"omy":12033,"omenes":12034,"Ġthump":12035,"Ġthrees":12036,"Ġinatt":12037,"athed":12038,"atage":12039,"atched":12040,"atomy":12041,"Ġnom":12042,"Ġnovice":12043,"Ġbellow":12044,"verest":12045,"velled":12046,"velling":12047,"Ġgna":12048,"Ġgird":12049,"Ġgang":12050,"Ġgamb":12051,"Ġginger":12052,"stable":12053,"strel":12054,"leven":12055,"utor":12056,"utus":12057,"utable":12058,"sez":12059,"seen":12060,"seven":12061,"search":12062,"ettle":12063,"owick":12064,"Ġep":12065,"Ġeats":12066,"Ġnotwith":12067,"ithmet":12068,"oothing":12069,"Ġonline":12070,"Ġforces":12071,"Ġforcing":12072,"Ġstith":12073,"Ġstress":12074,"Ġstalk":12075,"Ġstark":12076,"Ġstained":12077,"Ġstamm":12078,"Ġmellow":12079,"ros":12080,"rose":12081,"rian":12082,"riest":12083,"Ġwasp":12084,"Ġreform":12085,"Ġrevell":12086,"Ġreaction":12087,"Ġreleased":12088,"Ġweal":12089,"adise":12090,"hers":12091,"Ġaspir":12092,"Ġascertain":12093,"Ġascribed":12094,"Ġnurs":12095,"Ġnerve":12096,"Ġnursed":12097,"Ġnourish":12098,"Ġniece":12099,"Ġnuts":12100,"Ġherbs":12101,"ternight":12102,"Ġkil":12103,"urg":12104,"urable":12105,"urbed":12106,"Ġsobbing":12107,"Ġwhos":12108,"othes":12109,"ĠRight":12110,"ĠRosen":12111,"ĠHand":12112,"Ġanimation":12113,"Ġannihil":12114,"Ġallies":12115,"rave":12116,"raken":12117,"Ġdealt":12118,"Ġdeception":12119,"Ġdeformity":12120,"Ġsued":12121,"Ġsunder":12122,"Ġdoings":12123,"Ġdoves":12124,"Ġdoctors":12125,"Ġdozens":12126,"Ġbutche":12127,"ĠSA":12128,"ĠSet":12129,"ĠSte":12130,"ĠSuff":12131,"ĠSwear":12132,"ĠSimply":12133,"ifth":12134,"ifted":12135,"ĠPo":12136,"ĠPRO":12137,"ĠPrithee":12138,"ĠPatri":12139,"ĠPembroke":12140,"Ġwillow":12141,"estal":12142,"Ġ_'":12143,"through":12144,"geant":12145,"Ġshove":12146,"Ġshoe":12147,"ushes":12148,"usual":12149,"ĠWalk":12150,"ĠWales":12151,"ĠWalter":12152,"ican":12153,"icles":12154,"ĠAg":12155,"ĠAch":12156,"ĠAcc":12157,"Ġconge":12158,"Ġconceived":12159,"Ġconstit":12160,"anting":12161,"antime":12162,"antages":12163,"qual":12164,"quite":12165,"quisite":12166,"Ġshared":12167,"Ġshaven":12168,"Ġshaped":12169,"Ġshawls":12170,"ENBER":12171,"Ġfaction":12172,"Ġfacul":12173,"Ġnep":12174,"resist":12175,"Ġvil":12176,"Ġvine":12177,"Ġvial":12178,"Ġvac":12179,"Ġmang":12180,"Ġmanly":12181,"._\"":12182,"alling":12183,"Ġ\"_":12184,"Ġorisons":12185,"ĠHey":12186,"ĠHector":12187,"ĠHelp":12188,"ĠHecuba":12189,"Ġgos":12190,"Ġgoblet":12191,"osterous":12192,"astical":12193,"astingly":12194,"Ġunwh":12195,"Ġunthink":12196,"Ġunatt":12197,"Ġunchild":12198,"Ġunsettled":12199,"Ġunnecess":12200,"Ġunusual":12201,"ART":12202,"umn":12203,"umerable":12204,"umption":12205,"ĠMan":12206,"ĠMother":12207,"ĠMany":12208,"ĠMercy":12209,"ĠMartha":12210,"Ġsap":12211,"Ġsaving":12212,"Ġsaucy":12213,"Thoughts":12214,"ĠLy":12215,"ĠLod":12216,"ĠLife":12217,"inder":12218,"indly":12219,"ppose":12220,"...?":12221,"earch":12222,"Ġcomic":12223,"Ġcomment":12224,"Ġcombed":12225,"Ġaltern":12226,"Ġouts":12227,"Ġoutst":12228,"Ġoutcry":12229,"ĠCH":12230,"ĠCle":12231,"ĠCast":12232,"ĠCourt":12233,"ĠCarthage":12234,"ieving":12235,"feel":12236,"fender":12237,"feits":12238,"Ġrhe":12239,"Ġrite":12240,"Ġrousing":12241,"ĠrÃ´":12242,"Ġexempt":12243,"Ġexhil":12244,"Ġexquisite":12245,"Ġquaint":12246,"Ġcanker":12247,"Ġabod":12248,"Ġaback":12249,"Ġabuses":12250,"Ġabomin":12251,"istory":12252,"ĠGr":12253,"ĠGUT":12254,"ĠGregory":12255,"ĠOSR":12256,"Ġjee":12257,"Ġjug":12258,"Ġlooker":12259,"Ġlevy":12260,"areth":12261,"Ġgoodman":12262,"igs":12263,"igate":12264,"ĠDes":12265,"ĠDost":12266,"Ġtimeless":12267,"Ġblunder":12268,"Ġblasp":12269,"Ġblossom":12270,"Ġloins":12271,"Ġusur":12272,"Ġusage":12273,"Ġusurer":12274,"Ġprat":12275,"Ġprim":12276,"ntly":12277,"Heart":12278,"Ġspell":12279,"Ġspecially":12280,"ĠEither":12281,"ĠEach":12282,"ĠEls":12283,"cip":12284,"Ġprocure":12285,"Ġard":12286,"Ġarch":12287,"Ġarrow":12288,"Ġarrant":12289,"Ġarrog":12290,"--_":12291,"Ġsped":12292,"Ġspurn":12293,"Ġspared":12294,"Ġspices":12295,"Ġsprang":12296,"Ġspontane":12297,"Whate":12298,"Ġmadly":12299,"Ġmadest":12300,"ĠBar":12301,"ĠBring":12302,"ĠBraken":12303,"Ġplent":12304,"Ġplaint":12305,"Ġplaints":12306,"Ġplunged":12307,"oothed":12308,"athom":12309,"Ġrode":12310,"Ġrocks":12311,"ĠNature":12312,"ANIEL":12313,"âĢĶ'":12314,"Ġhandwriting":12315,"Forth":12316,"Forbear":12317,"ittance":12318,"Ġafoot":12319,"Ġflaw":12320,"Ġflames":12321,"Ġflinging":12322,"Ġhats":12323,"Ġbegot":12324,"Ġchronic":12325,"Ġchival":12326,"Ġpox":12327,"Ġpoll":12328,"rieve":12329,"ĠVal":12330,"oping":12331,"Ġtwisted":12332,"Ġdisarm":12333,"Ġdisfig":12334,"agion":12335,"again":12336,"another":12337,"ervation":12338,"Ġclay":12339,"Ġclown":12340,"Ġpercent":12341,"aps":12342,"aping":12343,"apes":12344,"aply":12345,"ĠKarl":12346,"ĠKEAN":12347,"ĠKindly":12348,"Ġenact":12349,"Ġenraged":12350,"Ġenvenom":12351,"acement":12352,"blown":12353,"Ġheartless":12354,"Ġwayward":12355,"Ġchal":12356,"Ġremedies":12357,"Ġoverthrow":12358,"Ġoverflow":12359,"Ġdesc":12360,"Ġdeserving":12361,"Ass":12362,"Ġgraft":12363,"Ġmarr":12364,"Ġmariners":12365,"rovided":12366,"Ġscri":12367,"Ġscare":12368,"Ġscale":12369,"Ġsconce":12370,"Ġscape":12371,"Ġrub":12372,"Ġrung":12373,"Ġruff":12374,"Ġrubbed":12375,"ĠFoo":12376,"ĠFather":12377,"ĠFriend":12378,"ĠFrants":12379,"ĠYus":12380,"Ġpartners":12381,"Ġprel":12382,"Ġprecept":12383,"Ġpreca":12384,"Ġprerog":12385,"ĠTe":12386,"ĠTunis":12387,"Ġjustif":12388,"Ġslim":12389,"Ġearl":12390,"Ġearned":12391,"Ġearldom":12392,"Ġaskance":12393,"cloth":12394,"cluding":12395,"clothes":12396,"Ġcontain":12397,"Ġcontaining":12398,"Ġcontracted":12399,"Ġlongest":12400,"Ġraged":12401,"Ġrages":12402,"Ġraiment":12403,"Ġrabble":12404,"Ġconsisted":12405,"Ġconsorted":12406,"Ġsmear":12407,"Ġsmack":12408,"Ġsmoothed":12409,"pled":12410,"plain":12411,"Ġcourte":12412,"Ġhoarding":12413,"Ġswing":12414,"Ġswim":12415,"Ġswine":12416,"Ins":12417,"Infer":12418,"Ġglimp":12419,"Ġglories":12420,"beard":12421,"bearer":12422,"renched":12423,"iocy":12424,"pery":12425,"Ġcoals":12426,"ensky":12427,"oult":12428,"IST":12429,"Ġadapt":12430,"Ġhastening":12431,"Ġpassages":12432,"Ġimpert":12433,"Ġimprove":12434,"Ġimpediment":12435,"abour":12436,"izel":12437,"Ġmenacing":12438,"Ġartist":12439,"Ġartific":12440,"Ġcommer":12441,"Ġcommune":12442,"ceded":12443,"Ġresent":12444,"Ġresult":12445,"Ġresisted":12446,"Ġresidence":12447,"Ġresurrection":12448,"Hamlet":12449,"Ġtalkative":12450,"pecting":12451,"Ġplebeians":12452,"issing":12453,"Sofya":12454,"Ġsettling":12455,"awd":12456,"Ġcomposed":12457,"ĠJames":12458,"ĠJOHN":12459,"ĠJesu":12460,"Ġentit":12461,"_,[":12462,"_,--":12463,"Ġrestless":12464,"Ġending":12465,"Ġendow":12466,"Ġendea":12467,"Ġstreak":12468,"Ġstreams":12469,"Ġconfine":12470,"Ġconfines":12471,"Ġconfront":12472,"Ġconfirmed":12473,"Ġrepug":12474,"Ġrepossess":12475,"Ġreproof":12476,"Ġprays":12477,"Isn":12478,"shot":12479,"Ġwaiter":12480,"remember":12481,"Ġminstrel":12482,"Ġperspiration":12483,"Wherefore":12484,"ulted":12485,"Ġunderstands":12486,"Ġinstigation":12487,"Ġyesternight":12488,"Ġadds":12489,"Ġaddition":12490,"ĠClown":12491,"Ġteaching":12492,"Ġteeming":12493,"Ġdistant":12494,"Ġdistract":12495,"Ġclearer":12496,"Ġsweets":12497,"Ġappoint":12498,"Ġrecourse":12499,"Ġqueens":12500,"Yourself":12501,"Ġsisterhood":12502,"Ġthroughly":12503,"Ġthroughout":12504,"Ġsilken":12505,"Ġattorney":12506,"THE":12507,"Ġbeseem":12508,"Ġwinding":12509,"ĠSvidrigaÃ¯lovs":12510,"Ġchem":12511,"meant":12512,"Ġsatyr":12513,"ĠInformation":12514,"Ġnatures":12515,"Ġnaturally":12516,"versy":12517,"Ġsubmission":12518,"Ġmistaking":12519,"Ġholder":12520,"tended":12521,"ouncing":12522,"Ġmerrily":12523,"Ġbeds":12524,"Ġbedstead":12525,"Ġretain":12526,"Ġretort":12527,"Ġtraffic":12528,"ethon":12529,"Ġranks":12530,"Ġrancour":12531,"Ġmeetings":12532,"Ġvisions":12533,"Ġgraceful":12534,"Ġhumorous":12535,"Ġuseful":12536,"Ġsupposing":12537,"Ġsupplic":12538,"Ġappell":12539,"Ġdreamed":12540,"Ġexpense":12541,"ĠTogether":12542,"Ġmisrep":12543,"Ġcarpet":12544,"Ġstrait":12545,"Ġhighway":12546,"Ġdiscreet":12547,"Ġpersonages":12548,"Ġsteals":12549,"Goes":12550,"Ġdoubted":12551,"Ġdoubtless":12552,"Ġdrawer":12553,"Ġdragg":12554,"Ġdraught":12555,"Ġdragon":12556,"Unb":12557,"Ġirresist":12558,"Ġhardy":12559,"Ġharder":12560,"Ġstraining":12561,"Ġstratage":12562,"Ġfortress":12563,"Ġfortunate":12564,"Ġworthily":12565,"Ġhorribly":12566,"Ġexcite":12567,"Stab":12568,"Stanley":12569,"Ġrip":12570,"Ġrivers":12571,"Ġribs":12572,"Ġrivals":12573,"Ġcaution":12574,"ĠThose":12575,"Ġacute":12576,"Ġactors":12577,"Ġincess":12578,"Ġincest":12579,"Ġincense":12580,"ranted":12581,"Ġsunk":12582,"ĠVIII":12583,"Ġcapac":12584,"Ġcaparison":12585,"Ġrefrain":12586,"Ġformality":12587,"Ġdepressed":12588,"Ġdeparted":12589,"Ġquicken":12590,"Ġstriving":12591,"Ġstrikes":12592,"Ġdecree":12593,"Ġsuffice":12594,"ogue":12595,"itories":12596,"icester":12597,"Ġdances":12598,"Ġdangers":12599,"Ġrelap":12600,"Ġrelished":12601,"Ġconfessing":12602,"whom":12603,"whose":12604,"Thyself":12605,"Ġstrumpet":12606,"Ġexplosive":12607,"ivine":12608,"ivated":12609,"ivative":12610,"Ġmutiny":12611,"Ġmuttering":12612,"Ġmutton":12613,"Ġbrag":12614,"Ġbraved":12615,"Ġbrawl":12616,"Ġbrawling":12617,"Ġindust":12618,"Ġindirectly":12619,"Ġtreas":12620,"Ġdireful":12621,"HAMLET":12622,"Ġshorten":12623,"Ġrespectfully":12624,"Ġfamish":12625,"Ġcraving":12626,"Ġcrafty":12627,"Ġextent":12628,"Ġsensual":12629,"Ġbites":12630,"Ġfrightens":12631,"lected":12632,"Ġconvention":12633,"Except":12634,"Ġsingers":12635,"Ġbeaver":12636,"Ġbeauties":12637,"Ġcontinent":12638,"Ġfights":12639,"Ġtrembles":12640,"Ġdeeper":12641,"Ġfalsely":12642,"Ġjudged":12643,"Ġjudges":12644,"Ġexpressive":12645,"Ġexpressions":12646,"Ġboon":12647,"Ġboiled":12648,"Ġcouncil":12649,"Ġcouncils":12650,"Ġjoking":12651,"Ġjokes":12652,"Ġjolly":12653,"Ġtroubling":12654,"HORATIO":12655,"plete":12656,"Ġweaker":12657,"Ġvillage":12658,"Ġvillany":12659,"Claudio":12660,"Ġforemost":12661,"Ġforesee":12662,"Ġcousins":12663,"Ġstrucken":12664,"Ġrepeating":12665,"Ġrequite":12666,"Ġrequires":12667,"Ġrequiem":12668,"Ġoccasions":12669,"Ġcurled":12670,"Ġcurls":12671,"Ġcurts":12672,"Ġnotebook":12673,"Ġcommanding":12674,"acre":12675,"ĠStreet":12676,"Ġexpectation":12677,"voided":12678,"Ġdames":12679,"Ġsinful":12680,"Ġaffably":12681,"Ġcuts":12682,"Ġpuppet":12683,"Ġreduced":12684,"Ġreduce":12685,"Ġunclean":12686,"Ġmole":12687,"Ġmoans":12688,"Ġmobled":12689,"Ġdifferences":12690,"Ġfastening":12691,"Ġcalf":12692,"gues":12693,"Ġembass":12694,"Ġpreparation":12695,"Ġprepossessing":12696,"Ġcircles":12697,"Ġprofan":12698,"ĠPoles":12699,"Ġbounds":12700,"Ġordering":12701,"Ġaccounts":12702,"Ġaccounted":12703,"Alone":12704,"cumber":12705,"Ġfouler":12706,"Ġforgets":12707,"Ġscarlet":12708,"uffling":12709,"Ġhotel":12710,"Ġimportune":12711,"Twice":12712,"shepherd":12713,"Ġwoeful":12714,"Ġdining":12715,"100":12716,"101":12717,"102":12718,"103":12719,"104":12720,"105":12721,"106":12722,"107":12723,"108":12724,"109":12725,"Ġsurv":12726,"Ġsurged":12727,"Ġsurvey":12728,"Ġsurfeit":12729,"Ġclothe":12730,"Ġbarr":12731,"Ġbarber":12732,"Ġposterity":12733,"Ġentreated":12734,"Ġtenderly":12735,"volous":12736,"ĠANY":12737,"Ġleapt":12738,"ĠĠĠĠĠĠĠĠĠĠĠĠĠĠ":12739,"Canst":12740,"Ġmoderate":12741,"Ġconclusive":12742,"Ġadmitting":12743,"ucer":12744,"Ġundressed":12745,"Ġstirs":12746,"Ġsufferance":12747,"Ġmedal":12748,"Ġdestined":12749,"ompass":12750,"Ġapprove":12751,"Ġextremest":12752,"111":12753,"112":12754,"113":12755,"114":12756,"115":12757,"117":12758,"118":12759,"119":12760,"Ġmorsel":12761,"Ġgalled":12762,"Ġmeantime":12763,"Ġdeclaration":12764,"ĠPlace":12765,"Ġunwill":12766,"Ġunwashed":12767,"ĠUse":12768,"Ġfills":12769,"Ġfilling":12770,"entlemanly":12771,"Ġfetters":12772,"Ġearnings":12773,"Ġmurderers":12774,"Ġpublishing":12775,"Ġbootless":12776,"Ġsuccessive":12777,"Ġgenerations":12778,"conce":12779,"Ġidiocy":12780,"Ġbriefly":12781,"Ġdishonest":12782,"Ġthroats":12783,"Ġliberties":12784,"Ġinterrupting":12785,"121":12786,"122":12787,"123":12788,"124":12789,"125":12790,"128":12791,"Ġtype":12792,"Ġpractised":12793,"Ġpractically":12794,"Ġopinions":12795,"Ġdivines":12796,"Ġlowered":12797,"Ġissues":12798,"Ġcompliment":12799,"Ġcompliance":12800,"Ġcomplaints":12801,"ĠGoing":12802,"ĠGovern":12803,"Ġarrive":12804,"Ġcandlestick":12805,"angled":12806,"Ġcounsels":12807,"ĠExplosive":12808,"Ġthrift":12809,"Ġnervously":12810,"Ġtribune":12811,"Ġpriests":12812,"Ġbleeds":12813,"Ġunsatis":12814,"Commit":12815,"DION":12816,"comfort":12817,"Ġtearing":12818,"Ġpunch":12819,"Ġpunct":12820,"Ġforsake":12821,"Ġforsaken":12822,"Ġsolid":12823,"Ġsolution":12824,"Ġunpro":12825,"Ġunprovided":12826,"ĠDidn":12827,"ĠKozel":12828,"Ġimpressively":12829,"Ġfigures":12830,"Ġdignified":12831,"Ġlimb":12832,"Ġlimitation":12833,"Ġlacks":12834,"Ġinjuries":12835,"Ġexplaining":12836,"Ġmoonlight":12837,"Ġverity":12838,"Ġversts":12839,"Ġverdict":12840,"Ġbottles":12841,"Ġobeyed":12842,"Ġdawn":12843,"Ġbeastly":12844,"Ġdefending":12845,"Ġfoolishness":12846,"Ref":12847,"exam":12848,"Ġbawling":12849,"Ġoddly":12850,"Ġlifting":12851,"Ġsuperfl":12852,"ĠWouldn":12853,"Ġdesperation":12854,"Ġdesperately":12855,"ĠArm":12856,"Ġproceeding":12857,"Ġproceeded":12858,"Ġearnestness":12859,"Ġtransform":12860,"Ġcreep":12861,"Ġpillows":12862,"Ġurgent":12863,"Ġpublicly":12864,"Merely":12865,"Meantime":12866,"Ġdug":12867,"Ġelected":12868,"Ġvowed":12869,"Ġunhapp":12870,"Ġenjoyed":12871,"Ġimpossibility":12872,"Ġexplanations":12873,"Ġavoiding":12874,"Ġbarefoot":12875,"Ġknit":12876,"Ġtriumphs":12877,"ĠChristop":12878,"holds":12879,"regnant":12880,"roportion":12881,"Ġrebuke":12882,"Ġsuspects":12883,"Ġvanish":12884,"Ġvanished":12885,"Ġpeculiarly":12886,"Ġchamberlain":12887,"Ġattempting":12888,"Ġcracked":12889,"Arm":12890,"Arise":12891,"ubject":12892,"Ġschoolboy":12893,"Ġthunderbol":12894,"Ġgaol":12895,"Ġgaoler":12896,"Ġdepended":12897,"Ġdependent":12898,"Ġchastisement":12899,"Ġundertaking":12900,"Ġgreyh":12901,"Ġbawdy":12902,"Ġpraised":12903,"ĠWasn":12904,"Ġconcealing":12905,"Ġconcealment":12906,"27761":12907,"Ġmagic":12908,"Ġmagaz":12909,"Ġsealed":12910,"Ġsafer":12911,"Ġblankly":12912,"Ġgrandmother":12913,"Ġrestrained":12914,"therefore":12915,"Ġchattered":12916,"Ġchattering":12917,"Ġleaning":12918,"Ġargos":12919,"Ġrecalling":12920,"ĠĠĠĠĠĠĠĠĠĠĠĠĠĠĠĠĠĠĠĠĠĠĠĠĠ":12921,"Ġdirected":12922,"Ġconsequently":12923,"Ġconsequences":12924,"Ġexperiment":12925,"Afterwards":12926,"Ġerr":12927,"Ġpacking":12928,"Ġmelting":12929,"ĠMadonna":12930,"Ġconsumed":12931,"Ġinterviews":12932,"Ġmotionless":12933,"Ġlustful":12934,"Ġpicking":12935,"Ġpsychologically":12936,"Ġshuddering":12937,"Ġunlocked":12938,"Ġremarked":12939,"Ġobtaining":12940,"Ġabsurdity":12941,"Belike":12942,"Ġaudibly":12943,"ĠHaving":12944,"Ġrepentance":12945,"Ġdistinct":12946,"Ġcaptive":12947,"Ġmournfully":12948,"Between":12949,"Betwixt":12950,"Ġdwells":12951,"Ġpotent":12952,"runes":12953,"Ġunpleasing":12954,"ĠBlood":12955,"Ġdoublet":12956,"Ġdefenceless":12957,"Ġdisgusting":12958,"afford":12959,"Ġderivative":12960,"Ġpinched":12961,"Ġpressure":12962,"Ġgentleness":12963,"Ġgrossly":12964,"Ġseparation":12965,"ĠAntonio":12966,"ĠAntiates":12967,"ĠMaybe":12968,"Ġjealousies":12969,"Ġlends":12970,"Ġfloors":12971,"Ġfloating":12972,"Ġconfounded":12973,"Ġmistrusting":12974,"Ġskulls":12975,"Blood":12976,"Ġsnatch":12977,"Ġbonds":12978,"ĠPeriod":12979,"Ġunborn":12980,"Ġgratis":12981,"Ġdelicacy":12982,"Ġsupporting":12983,"Ġexchanged":12984,"Ġsummoned":12985,"Ġsticks":12986,"Ġsticky":12987,"Ġblockhead":12988,"Ġdissension":12989,"Ġpretended":12990,"Ġdisturbance":12991,"Ġindifference":12992,"humour":12993,"Ġbrush":12994,"Ġfrankness":12995,"Ġheedless":12996,"Ġglee":12997,"Ġmended":12998,"Ġshores":12999,"Ġwrathfully":13000,"ĠĠĠĠĠĠĠĠĠĠĠĠĠĠĠĠĠĠĠĠĠĠĠĠĠĠĠĠĠĠ":13001,"Ġsolemnly":13002,"Ġmuddy":13003,"Ġmuddle":13004,"Ġinfectious":13005,"Ġgestures":13006,"Ġstifled":13007,"Ġknightly":13008,"Ġknighthood":13009,"Ġupsetting":13010,"ĠAdam":13011,"Ġrascals":13012,"Ġrumm":13013,"Ġglowed":13014,"Ġhelplessly":13015,"Ġtending":13016,"Ġtendency":13017,"Ġhunting":13018,"Ġhesitated":13019,"Ġbalance":13020,"Ġlucky":13021,"Ġshrieking":13022,"Ġrisen":13023,"Ġplotted":13024,"Ġovertake":13025,"ĠFlore":13026,"Ġdeliberate":13027,"Ġinsistently":13028,"Ġrapidity":13029,"office":13030,"Ġingenious":13031,"Ġingratitude":13032,"Ġdebase":13033,"Ġconnection":13034,"Ġvouchsaf":13035,"Ġungentlemanly":13036,"ĠConfess":13037,"ĠConfound":13038,"ĠCouldn":13039,"Heavens":13040,"Ġresponsible":13041,"Ġgenuinely":13042,"Apollo":13043,"Apothecary":13044,"Resc":13045,"Ġachieve":13046,"Ġachieved":13047,"Ġwidower":13048,"Ġbribe":13049,"Ġhomicide":13050,"Ġpouring":13051,"Ġbefal":13052,"Ġbefits":13053,"ĠCalais":13054,"Ġdismissed":13055,"Ġensue":13056,"Ġrailway":13057,"Ġrecovering":13058,"Ġbreeder":13059,"Ġobligations":13060,"Ġtriumphantly":13061,"Seize":13062,"shaw":13063,"Ġfrequent":13064,"Ġinwardly":13065,"Ġinexperienced":13066,"Ġgathering":13067,"Ġwhipt":13068,"ĠDoricles":13069,"Ġcholeric":13070,"Ġwrinkles":13071,"Ġeverlastingly":13072,"Ġuncertainty":13073,"Ġmalignantly":13074,"Ġtransport":13075,"Ġtransported":13076,"Ġexceptionally":13077,"Ġtranslating":13078,"Ġdeveloping":13079,"Shame":13080,"Setting":13081,"Ġticket":13082,"Ġwolves":13083,"Ġfuel":13084,"Ġlinger":13085,"Ġlingering":13086,"Ġthorny":13087,"Ġalteration":13088,"ĠDeath":13089,"Ġdisplaying":13090,"Ġclasping":13091,"Ġhelmet":13092,"Ġapologise":13093,"Ġescaped":13094,"Ġgarlands":13095,"mongst":13096,"yesterday":13097,"Ġwinged":13098,"Ġfrayed":13099,"Ġcypress":13100,"Ġcynic":13101,"Ġlazily":13102,"Ġhazel":13103,"Ġmeasures":13104,"Ġmeasuring":13105,"ĠThank":13106,"Ġpromptly":13107,"Ġmagnanim":13108,"Ġphysician":13109,"Ġinterpretation":13110,"Accursed":13111,"Consider":13112,"Dispatch":13113,"extraordinary":13114,"logg":13115,"Ġtroph":13116,"Ġtinkle":13117,"Ġwitty":13118,"Ġwittily":13119,"Ġinnkeeper":13120,"Ġinnumerable":13121,"Ġstatesman":13122,"Ġresemblance":13123,"Ġconvert":13124,"Ġamusement":13125,"Ġunreason":13126,"ĠGreece":13127,"Ġblasts":13128,"Ġdissemble":13129,"Ġperjury":13130,"Ġscowling":13131,"Ġglittered":13132,"Ġobsequies":13133,"Ġransack":13134,"Ġfalconers":13135,"Ġreligion":13136,"Ġconvicts":13137,"Ġrequirements":13138,"Ġhypocr":13139,"Ġscrutinising":13140,"URREY":13141,"deliver":13142,"preceded":13143,"pitched":13144,"Ġsarc":13145,"Ġwiping":13146,"Ġrenewed":13147,"ĠScotland":13148,"Ġshyness":13149,"Ġlecture":13150,"Ġprodigal":13151,"Ġcontempl":13152,"Ġcoinc":13153,"Ġintentionally":13154,"Ġsubdue":13155,"Ġsubdued":13156,"Ġprophecy":13157,"Ġwelcomes":13158,"Amongst":13159,"Ġfascinated":13160,"Small":13161,"Teach":13162,"something":13163,"sometimes":13164,"Ġsnapped":13165,"Ġmumbled":13166,"Ġfresher":13167,"Ġinherit":13168,"Ġstrayed":13169,"Ġrevive":13170,"Ġkicking":13171,"Ġsulph":13172,"Ġunfeigned":13173,"Ġcompelled":13174,"iacs":13175,"Ġchurches":13176,"Ġeyelashes":13177,"Ġeyelids":13178,"Ġfeatures":13179,"Ġenergy":13180,"Ġenergies":13181,"Ġscanning":13182,"Ġscanned":13183,"ĠFinally":13184,"Ġrepresentation":13185,"Ġinconstant":13186,"Ġbenevolence":13187,"Ġholiday":13188,"Ġfragments":13189,"Ġinsinuating":13190,"Ġincoherently":13191,"FORM":13192,"shaped":13193,"Ġtangle":13194,"Ġautumn":13195,"Ġsands":13196,"Ġcultivated":13197,"Ġgeld":13198,"Ġashore":13199,"Ġwhistle":13200,"Ġwhirling":13201,"Ġsemblance":13202,"Ġannounced":13203,"Ġbutterfly":13204,"Ġconvenient":13205,"Ġconcentrated":13206,"ARLES":13207,"Ġcomrade":13208,"Ġjaunty":13209,"ĠEmilia":13210,"Ġcontrive":13211,"Ġmurmur":13212,"Ġterritories":13213,"Ġsubstantial":13214,"Ġdrooping":13215,"Ġsuppliant":13216,"Ġmiseries":13217,"Ġstealthily":13218,"Ġvictorious":13219,"Ġgreedily":13220,"Ġparasol":13221,"Ġdivorce":13222,"Ġderangement":13223,"Ġaccomplish":13224,"Ġscholar":13225,"Chris":13226,"Evermore":13227,"England":13228,"works":13229,"Ġtipsy":13230,"Ġsoothe":13231,"Ġdallying":13232,"Ġducats":13233,"Ġhamm":13234,"Ġnasty":13235,"ravagant":13236,"Ġsuccor":13237,"ĠSTANLEY":13238,"Ġnegligence":13239,"Ġexclusively":13240,"Ġpermissible":13241,"Ġenigmatic":13242,"Ġcourtyard":13243,"Ġfollies":13244,"Ġsimpleton":13245,"RANCISCO":13246,"Ġcramped":13247,"Ġikon":13248,"Ġcelebr":13249,"Ġmeditating":13250,"Ġpublishers":13251,"Ġportrait":13252,"Ġadopted":13253,"Ġemphasis":13254,"Ġirrevocably":13255,"Ġsupreme":13256,"Ġstupefaction":13257,"Ġcriticism":13258,"ĠWelshmen":13259,"Affection":13260,"following":13261,"Ġtonight":13262,"Ġshattered":13263,"Ġwreath":13264,"Ġmental":13265,"Ġocean":13266,"Ġfrivolous":13267,"Ġcordial":13268,"Ġdusk":13269,"Ġpupil":13270,"Ġpancakes":13271,"ascivious":13272,"Ġgorgeous":13273,"lendar":13274,"Ġeggs":13275,"Ġejaculated":13276,"Ġstaggering":13277,"Ġwithdrew":13278,"ĠPhaethon":13279,"Ġvassal":13280,"Ġunawares":13281,"Ġaltitude":13282,"ĠOlympus":13283,"ĠDarya":13284,"Ġclimb":13285,"Ġguerre":13286,"Ġattributed":13287,"Ġbanquet":13288,"Ġriotous":13289,"Ġincongruous":13290,"Ġcorpse":13291,"Ġtremendously":13292,"Ġtroublous":13293,"Ġpuissant":13294,"confidence":13295,"Ġunpardonable":13296,"ĠFlorizel":13297,"Ġbrilliant":13298,"Ġadvertised":13299,"Ġnineteen":13300,"Ġsnigger":13301,"Ġfundamental":13302,"Ġancestors":13303,"BONA":13304,"EMILIA":13305,"Grandam":13306,"IGHT":13307,"NATHANIEL":13308,"Renown":13309,"Urge":13310,"crantz":13311,"makers":13312,"protect":13313,"shining":13314,"Ġromantic":13315,"Ġsombre":13316,"Ġwrangling":13317,"erwhelm":13318,"Ġfarthest":13319,"Ġcambric":13320,"Ġpardons":13321,"Ġpiano":13322,"Ġnotwithstanding":13323,"ithmetic":13324,"ĠRosencrantz":13325,"ĠPROJECT":13326,"ĠPatrician":13327,"ENBERG":13328,"Ġfaculty":13329,"Ġvineyard":13330,"Ġunthinkable":13331,"ĠLodowick":13332,"ĠGUTENBERG":13333,"Ġjeered":13334,"ĠElsinore":13335,"ĠBrakenbury":13336,"Ġprerogative":13337,"Ġartificial":13338,"Ġrepugnance":13339,"Ġsuperfluous":13340,"Ġthunderbolt":13341,"ĠPeriodical":13342,"Ġvouchsafed":13343,"\"âĢĶ":13344,"'\"":13345,"'...":13346,"'--":13347,"*]":13348,"859":13349,";_":13350,"?)":13351,"Ant":13352,"Aren":13353,"Aufidius":13354,"Bad":13355,"Bore":13356,"Best":13357,"Bare":13358,"Breat":13359,"Back":13360,"Brief":13361,"Bohemia":13362,"Banish":13363,"Beshrew":13364,"BLU":13365,"Cur":13366,"Chan":13367,"Cast":13368,"Care":13369,"Crown":13370,"Cross":13371,"Citizen":13372,"Dr":13373,"Du":13374,"Done":13375,"Die":13376,"Dig":13377,"Dead":13378,"Darest":13379,"Destroy":13380,"ED":13381,"EARL":13382,"Far":13383,"Fly":13384,"Fort":13385,"Fine":13386,"Found":13387,"Friar":13388,"Fellow":13389,"Gra":13390,"Gold":13391,"Girl":13392,"Grumio":13393,"Green":13394,"Gram":13395,"Host":13396,"Holy":13397,"Honoured":13398,"Ill":13399,"IMI":13400,"Jul":13401,"Joe":13402,"Jesu":13403,"Less":13404,"Lear":13405,"Later":13406,"Lend":13407,"Lives":13408,"Loved":13409,"Mond":13410,"Mount":13411,"Money":13412,"Merc":13413,"MALO":13414,"NI":13415,"Ni":13416,"Near":13417,"Nine":13418,"Nonsense":13419,"Naked":13420,"OO":13421,"Obey":13422,"Oxford":13423,"Pit":13424,"Pass":13425,"Point":13426,"RE":13427,"Ra":13428,"Rest":13429,"Rich":13430,"Rec":13431,"Richmond":13432,"Sin":13433,"Sent":13434,"Sad":13435,"Sus":13436,"Ste":13437,"Soul":13438,"Sorrow":13439,"Sister":13440,"Sits":13441,"Semyon":13442,"Suff":13443,"Seal":13444,"Tong":13445,"Tears":13446,"Trem":13447,"Time":13448,"Tullus":13449,"TFORM":13450,"UL":13451,"Whe":13452,"Went":13453,"Yonder":13454,"aved":13455,"aced":13456,"ache":13457,"avy":13458,"aired":13459,"bion":13460,"bot":13461,"ball":13462,"bound":13463,"bary":13464,"bited":13465,"braid":13466,"bread":13467,"borough":13468,"bric":13469,"burning":13470,"cre":13471,"car":13472,"cas":13473,"cad":13474,"cter":13475,"core":13476,"cond":13477,"corn":13478,"cab":13479,"cross":13480,"coun":13481,"cony":13482,"custom":13483,"corous":13484,"cency":13485,"content":13486,"curg":13487,"din":13488,"did":13489,"dro":13490,"dri":13491,"dra":13492,"dest":13493,"dish":13494,"dens":13495,"div":13496,"doubt":13497,"disc":13498,"danger":13499,"ean":13500,"eight":13501,"ease":13502,"erer":13503,"ections":13504,"eked":13505,"fes":13506,"fru":13507,"fond":13508,"first":13509,"full":13510,"fits":13511,"fles":13512,"fund":13513,"flu":13514,"front":13515,"fellows":13516,"gno":13517,"gom":13518,"gher":13519,"gins":13520,"gments":13521,"gentleman":13522,"gots":13523,"greg":13524,"grand":13525,"general":13526,"hip":13527,"ias":13528,"ivery":13529,"iation":13530,"ibit":13531,"ique":13532,"ihil":13533,"jour":13534,"journ":13535,"ki":13536,"kly":13537,"kish":13538,"lay":13539,"lant":13540,"lorn":13541,"lied":13542,"lars":13543,"min":13544,"mor":13545,"must":13546,"might":13547,"mast":13548,"mine":13549,"matter":13550,"mix":13551,"making":13552,"mune":13553,"married":13554,"nish":13555,"nical":13556,"oa":13557,"oit":13558,"oil":13559,"oise":13560,"pur":13561,"pore":13562,"prom":13563,"pence":13564,"pass":13565,"pies":13566,"phen":13567,"pated":13568,"power":13569,"pool":13570,"purse":13571,"porter":13572,"poof":13573,"pÃ©":13574,"pipe":13575,"rons":13576,"rating":13577,"rime":13578,"rising":13579,"sk":13580,"sis":13581,"sir":13582,"sight":13583,"sorrow":13584,"saw":13585,"sister":13586,"suff":13587,"skin":13588,"swear":13589,"sric":13590,"sword":13591,"simply":13592,"sifted":13593,"tish":13594,"turn":13595,"tage":13596,"taking":13597,"trick":13598,"taste":13599,"true":13600,"tsey":13601,"uni":13602,"uction":13603,"ucing":13604,"vis":13605,"vir":13606,"vill":13607,"vited":13608,"venty":13609,"wake":13610,"wark":13611,"widow":13612,"wench":13613,"wounds":13614,"wrung":13615,"words":13616,"warming":13617,"xy":13618,"xcom":13619,"yod":13620,"yally":13621,"youth":13622,"zine":13623,"zwater":13624,"Ã¤":13625,"Ãª":13626,"Ãł":13627,"Ġ-":13628,"Ġ4":13629,"Ġ5":13630,"Ġ{":13631,"ĠÃ¦":13632,"Ġ***":13633,"Ġtil":13634,"Ġtough":13635,"Ġtire":13636,"Ġtides":13637,"Ġtush":13638,"Ġtunes":13639,"Ġtires":13640,"Ġtinct":13641,"hearse":13642,"Ġau":13643,"Ġast":13644,"Ġaver":13645,"Ġaus":13646,"Ġaust":13647,"Ġaery":13648,"Ġavail":13649,"Ġauspicious":13650,"Ġarose":13651,"inol":13652,"into":13653,"inity":13654,"inance":13655,"inations":13656,"inctly":13657,"incial":13658,"instru":13659,"Ġsout":13660,"Ġsip":13661,"Ġsoothing":13662,"Ġwou":13663,"Ġwha":13664,"Ġware":13665,"Ġwaken":13666,"Ġwaning":13667,"Ġwadd":13668,"Ġwittingly":13669,"rect":13670,"reth":13671,"reng":13672,"reign":13673,"rehend":13674,"haw":13675,"hail":13676,"hani":13677,"haven":13678,"having":13679,"haired":13680,"happy":13681,"habited":13682,"Ġtheatre":13683,"nda":13684,"nded":13685,"nders":13686,"Ġmit":13687,"Ġmow":13688,"Ġmic":13689,"Ġmall":13690,"Ġmap":13691,"Ġmud":13692,"Ġmach":13693,"Ġmaw":13694,"Ġmuse":13695,"Ġmature":13696,"Ġbone":13697,"Ġbind":13698,"Ġbau":13699,"Ġbate":13700,"Ġbide":13701,"Ġbough":13702,"Ġbits":13703,"Ġboun":13704,"Ġbrib":13705,"Ġbats":13706,"Ġbale":13707,"Ġbaked":13708,"Ġbooth":13709,"Ġboring":13710,"Ġbourn":13711,"Ġox":13712,"Ġobe":13713,"Ġomitted":13714,"erth":13715,"erry":13716,"eria":13717,"erness":13718,"itan":13719,"itive":13720,"itate":13721,"itless":13722,"isle":13723,"isation":13724,"isible":13725,"Ġfre":13726,"Ġfid":13727,"Ġferv":13728,"Ġfootnote":13729,"Ġfash":13730,"Ġfiles":13731,"Ġfaded":13732,"Ġfishes":13733,"Ġfowl":13734,"Ġfathom":13735,"Ġced":13736,"Ġcod":13737,"Ġcel":13738,"Ġcash":13739,"Ġcouch":13740,"Ġcured":13741,"Ġcamp":13742,"Ġcrop":13743,"Ġcoup":13744,"enched":13745,"engers":13746,"orick":13747,"onse":13748,"onent":13749,"onies":13750,"Ġdall":13751,"Ġdart":13752,"Ġdast":13753,"Ġdia":13754,"Ġdun":13755,"Ġdiz":13756,"Ġdip":13757,"Ġduteous":13758,"Ġtoes":13759,"Ġtoys":13760,"Ġtokens":13761,"eded":13762,"Ġhem":13763,"Ġhect":13764,"Ġhearers":13765,"Ġhoot":13766,"Ġhides":13767,"Ġhitting":13768,"Ġhoof":13769,"Ġhips":13770,"Ġhounds":13771,"Ġlone":13772,"Ġlave":13773,"Ġlass":13774,"Ġlag":13775,"Ġlull":13776,"Ġlump":13777,"Ġlinks":13778,"Ġlining":13779,"Ġlane":13780,"Ġyelled":13781,"especially":13782,"ĠInd":13783,"ĠIrish":13784,"Ġpir":13785,"Ġpout":13786,"Ġpall":13787,"Ġpry":13788,"Ġpink":13789,"Ġpile":13790,"Ġpatch":13791,"Ġpool":13792,"Ġpars":13793,"Ġpins":13794,"Ġpiled":13795,"Ġpoof":13796,"Ġphal":13797,"Ġpotion":13798,"Ġpoured":13799,"Ġpals":13800,"Ġpines":13801,"Ġponder":13802,"Ġportion":13803,"Ġpensive":13804,"Ġpestering":13805,"Ġprunes":13806,"arce":13807,"armed":13808,"arned":13809,"Ġoffender":13810,"asha":13811,"asium":13812,"anst":13813,"anel":13814,"anuary":13815,"omfort":13816,"Ġthir":13817,"Ġthra":13818,"Ġine":13819,"Ġinhum":13820,"Ġinhabit":13821,"ato":13822,"atum":13823,"atical":13824,"atically":13825,"athani":13826,"Ġhack":13827,"Ġhares":13828,"Ġhaps":13829,"Ġhapless":13830,"Ġbeam":13831,"Ġbeards":13832,"Ġbeheaded":13833,"Ġbethought":13834,"Ġgn":13835,"Ġgul":13836,"Ġgard":13837,"Ġgear":13838,"Ġgild":13839,"Ġgilt":13840,"Ġgaud":13841,"Ġgames":13842,"Ġgerman":13843,"stool":13844,"staring":13845,"learned":13846,"imable":13847,"iminary":13848,"imois":13849,"uto":13850,"uter":13851,"utive":13852,"sea":13853,"sever":13854,"seeming":13855,"eting":13856,"ette":13857,"lyss":13858,"Ġeve":13859,"Ġeart":13860,"Ġeaster":13861,"Ġecho":13862,"idity":13863,"idels":13864,"ooing":13865,"ooch":13866,"oosing":13867,"Ġuno":13868,"chop":13869,"church":13870,"enting":13871,"entive":13872,"entation":13873,"Ġforge":13874,"Ġforci":13875,"Ġforged":13876,"Ġformed":13877,"Ġfornic":13878,"Ġforlorn":13879,"Ġstim":13880,"Ġstall":13881,"Ġstink":13882,"Ġstated":13883,"Ġstoup":13884,"Ġsteter":13885,"Ġmerest":13886,"rolled":13887,"rier":13888,"rion":13889,"rift":13890,"ricious":13891,"riety":13892,"riages":13893,"Ġrely":13894,"Ġrever":13895,"Ġreel":13896,"Ġreject":13897,"Ġrevers":13898,"Ġreins":13899,"Ġrevi":13900,"Ġwelf":13901,"Ġweighed":13902,"kempt":13903,"alm":13904,"alion":13905,"alment":13906,"alian":13907,"illage":13908,"illets":13909,"illusion":13910,"hertsey":13911,"vering":13912,"Ġasunder":13913,"Ġnill":13914,"Ġnation":13915,"Ġnonc":13916,"Ġnymph":13917,"Ġnuns":13918,"Ġnihil":13919,"Ġherb":13920,"Ġherds":13921,"Ġatone":13922,"Ġkern":13923,"Ġkennel":13924,"Ġkettle":13925,"urbs":13926,"ama":13927,"amond":13928,"ammed":13929,"Ġsoar":13930,"Ġsoap":13931,"Ġsoaking":13932,"Ġsocks":13933,"Ġsobs":13934,"Ġsobbed":13935,"ainable":13936,"Ġliars":13937,"Ġlibr":13938,"Ġlicence":13939,"Ġwhimp":13940,"Ġseats":13941,"Ġseventy":13942,"ĠRather":13943,"ĠRoss":13944,"ĠRec":13945,"ĠRead":13946,"ĠRago":13947,"ĠHu":13948,"ĠHouse":13949,"ĠHigh":13950,"ĠHarl":13951,"ĠHallow":13952,"Ġanatomy":13953,"Ġallay":13954,"Ġallusions":13955,"rawn":13956,"raise":13957,"raign":13958,"raham":13959,"Ġdefe":13960,"Ġdeign":13961,"Ġsues":13962,"Ġsust":13963,"Ġsums":13964,"Ġsult":13965,"Ġsucking":13966,"Ġsuicide":13967,"Ġdol":13968,"Ġdoit":13969,"Ġbutton":13970,"ĠSon":13971,"ĠSpe":13972,"ĠSave":13973,"ĠSilence":13974,"ĠSurely":13975,"ĠSEC":13976,"ĠSearch":13977,"ĠSURREY":13978,"peal":13979,"oln":13980,"olour":13981,"olate":13982,"ands":13983,"ording":13984,"ifter":13985,"ovsky":13986,"Ġsheer":13987,"Ġshedding":13988,"rup":13989,"ruct":13990,"ruised":13991,"russ":13992,"ĠPil":13993,"ĠPers":13994,"ĠPoss":13995,"ĠPushkin":13996,"ĠPfoo":13997,"ĠPubl":13998,"ests":13999,"estic":14000,"estament":14001,"Ġ_\"":14002,"thw":14003,"thren":14004,"thread":14005,"rompt":14006,"Ġshorter":14007,"Ġshift":14008,"Ġshunn":14009,"usage":14010,"ĠWor":14011,"ĠWon":14012,"ĠWife":14013,"ĠWee":14014,"icing":14015,"icle":14016,"ilent":14017,"Ġuph":14018,"ĠAE":14019,"ĠAff":14020,"ĠAGRE":14021,"ĠAriel":14022,"Ġconstrained":14023,"Ġcongreg":14024,"Ġwhate":14025,"qua":14026,"quin":14027,"quer":14028,"quess":14029,"quest":14030,"quish":14031,"quaint":14032,"quiet":14033,"Ġsham":14034,"Ġshamed":14035,"Ġsharing":14036,"ulating":14037,"emb":14038,"eminate":14039,"emois":14040,"nib":14041,"Ġfailing":14042,"Ġfabric":14043,"usters":14044,"ustious":14045,"redeem":14046,"reditary":14047,"venient":14048,"Ġvous":14049,"Ġvise":14050,"Ġviz":14051,"Ġvail":14052,"Ġvices":14053,"Ġvital":14054,"Ġvestal":14055,"Ġmanual":14056,"Ġmanacles":14057,"Ġamid":14058,"Ġamity":14059,"Ġamused":14060,"Ġamiable":14061,"teress":14062,"teenth":14063,"allop":14064,"allible":14065,"ighton":14066,"Ġwheres":14067,"Ġgoest":14068,"Ġgoats":14069,"Ġknowest":14070,"Ġunhe":14071,"Ġunity":14072,"Ġunction":14073,"Ġunnot":14074,"Ġunint":14075,"Ġunfit":14076,"Ġunthri":14077,"Ġuneducated":14078,"Ġunkempt":14079,"Ġthereon":14080,"ĠME":14081,"ĠMight":14082,"ĠMON":14083,"ĠMab":14084,"Ġsables":14085,"Ġsails":14086,"Ġsaucer":14087,"Ġsausage":14088,"Thither":14089,"Thinking":14090,"Throng":14091,"ĠThee":14092,"ĠLent":14093,"ĠLamm":14094,"ĠLIMI":14095,"ppings":14096,"ppets":14097,"...?\"":14098,"odity":14099,"Ġcomical":14100,"Ġcomedy":14101,"aux":14102,"augh":14103,"ĠCha":14104,"ĠChan":14105,"ĠCatch":14106,"ĠCousin":14107,"ĠChar":14108,"ĠCob":14109,"ĠCheer":14110,"ĠCros":14111,"ĠChertsey":14112,"Told":14113,"Together":14114,"Ġrut":14115,"Ġrates":14116,"Ġridd":14117,"Ġrasp":14118,"Ġriddle":14119,"Ġexert":14120,"Ġexpel":14121,"ersha":14122,"owner":14123,"Ġquart":14124,
[...]
