{
  "version": "1.0",
  "truncation": null,
  "padding": null,
  "added_tokens": [
    {
      "id": 0,
      "content": "<s>",
      "single_word": false,
      "lstrip": false,
      "rstrip": false,
      "normalized": false,
      "special": true
    },
    {
      "id": 1,
      "content": "<pad>",
      "single_word": false,
      "lstrip": false,
      "rstrip": false,
      "normalized": false,
      "special": true
    },
    {
      "id": 2,
      "content": "</s>",
      "single_word": false,
      "lstrip": false,
      "rstrip": false,
      "normalized": false,
      "special": true
    },
    {
      "id": 3,
      "content": "<unk>",
      "single_word": false,
      "lstrip": false,
      "rstrip": false,
      "normalized": false,
      "special": true
    },
    {
      "id": 4,
      "content": "<cls>",
      "single_word": false,
      "lstrip": false,
      "rstrip": false,
      "normalized": false,
      "special": true
    },
    {
      "id": 5,
      "content": "<sep>",
      "single_word": false,
      "lstrip": false,
      "rstrip": false,
      "normalized": false,
      "special": true
    },
    {
      "id": 6,
      "content": "<mask>",
      "single_word": false,
      "lstrip": false,
      "rstrip": false,
      "normalized": false,
      "special": true
    }
  ],
  "normalizer": {
    "type": "NFKC"
  },
  "pre_tokenizer": {
    "type": "Metaspace",
    "replacement": "▁",
    "prepend_scheme": "always",
    "split": true
  },
  "post_processor": null,
  "decoder": {
    "type": "Metaspace",
    "replacement": "▁",
    "prepend_scheme": "always",
    "split": true
  },
  "model": {
    "type": "BPE",
    "dropout": null,
    "unk_token": "<unk>",
    "continuing_subword_prefix": null,
    "end_of_word_suffix": null,
    "fuse_unk": false,
    "byte_fallback": false,
    "ignore_merges": false,
    "vocab": {
      "<s>": 0,
      "<pad>": 1,
      "</s>": 2,
      "<unk>": 3,
      "<cls>": 4,
      "<sep>": 5,
      "<mask>": 6,
      "\n": 7,
      "!": 8,
      "\"": 9,
      "#": 10,
      "$": 11,
      "%": 12,
      "&": 13,
      "'": 14,
      "(": 15,
      ")": 16,
      "*": 17,
      ",": 18,
      "-": 19,
      ".": 20,
      "/": 21,
      "0": 22,
      "1": 23,
      "2": 24,
      "3": 25,
      "4": 26,
      "5": 27,
      "6": 28,
      "7": 29,
      "8": 30,
      "9": 31,
      ":": 32,
      ";": 33,
      "<": 34,
      ">": 35,
      "?": 36,
      "@": 37,
      "A": 38,
      "B": 39,
      "C": 40,
      "D": 41,
      "E": 42,
      "F": 43,
      "G": 44,
      "H": 45,
      "I": 46,
      "J": 47,
      "K": 48,
      "L": 49,
      "M": 50,
      "N": 51,
      "O": 52,
      "P": 53,
      "Q": 54,
      "R": 55,
      "S": 56,
      "T": 57,
      "U": 58,
      "V": 59,
      "W": 60,
      "X": 61,
      "Y": 62,
      "Z": 63,
      "[": 64,
      "]": 65,
      "_": 66,
      "a": 67,
      "b": 68,
      "c": 69,
      "d": 70,
      "e": 71,
      "f": 72,
      "g": 73,
      "h": 74,
      "i": 75,
      "j": 76,
      "k": 77,
      "l": 78,
      "m": 79,
      "n": 80,
      "o": 81,
      "p": 82,
      "q": 83,
      "r": 84,
      "s": 85,
      "t": 86,
      "u": 87,
      "v": 88,
      "w": 89,
      "x": 90,
      "y": 91,
      "z": 92,
      "{": 93,
      "}": 94,
      "Æ": 95,
      "à": 96,
      "á": 97,
      "ä": 98,
      "æ": 99,
      "ç": 100,
      "è": 101,
      "é": 102,
      "ê": 103,
      "î": 104,
      "ï": 105,
      "ó": 106,
      "ô": 107,
      "ö": 108,
      "ü": 109,
      "ē": 110,
      "ĕ": 111,
      "ī": 112,
      "ĭ": 113,
      "œ": 114,
      "—": 115,
      "▁": 116,
      "▁t": 117,
      "he": 118,
      "▁a": 119,
      "in": 120,
      "▁s": 121,
      "ou": 122,
      "▁w": 123,
      "re": 124,
      "ha": 125,
      "▁the": 126,
      "▁m": 127,
      "nd": 128,
      "▁b": 129,
      "▁o": 130,
      "er": 131,
      "it": 132,
      "is": 133,
      "▁f": 134,
      "▁c": 135,
      "▁\n": 136,
      "en": 137,
      "or": 138,
      "▁I": 139,
      "ll": 140,
      "on": 141,
      "▁d": 142,
      "▁to": 143,
      "ing": 144,
      "ed": 145,
      "▁he": 146,
      "▁h": 147,
      "▁l": 148,
      "▁y": 149,
      "▁and": 150,
      "no": 151,
      "es": 152,
      "▁p": 153,
      "▁you": 154,
      "hat": 155,
      ".\n": 156,
      "ar": 157,
      ":\n": 158,
      "▁of": 159,
      "as": 160,
      "an": 161,
      "▁th": 162,
      "om": 163,
      "▁in": 164,
      "at": 165,
      "▁no": 166,
      "▁ha": 167,
      "▁be": 168,
      "ve": 169,
      "▁g": 170,
      "▁T": 171,
      "st": 172,
      "▁A": 173,
      ",\n": 174,
      "le": 175,
      "im": 176,
      "ut": 177,
      "ce": 178,
      "se": 179,
      "ay": 180,
      "et": 181,
      "▁that": 182,
      "ly": 183,
      "ow": 184,
      "ld": 185,
      "▁it": 186,
      "gh": 187,
      "▁e": 188,
      "▁not": 189,
      "id": 190,
      "ith": 191,
      "oo": 192,
      "ir": 193,
      "▁W": 194,
      "▁u": 195,
      "ch": 196,
      "▁on": 197,
      "ent": 198,
      "..": 199,
      "▁my": 200,
      "▁H": 201,
      "▁for": 202,
      "▁\"": 203,
      "▁st": 204,
      "▁with": 205,
      "'s": 206,
      "▁S": 207,
      "▁me": 208,
      "▁is": 209,
      "ro": 210,
      "▁his": 211,
      "ri": 212,
      "▁was": 213,
      "▁re": 214,
      "▁we": 215,
      "ke": 216,
      "▁him": 217,
      "ad": 218,
      "ght": 219,
      "ill": 220,
      "al": 221,
      "ver": 222,
      "her": 223,
      "▁as": 224,
      "▁B": 225,
      "▁n": 226,
      "ion": 227,
      "▁R": 228,
      "ome": 229,
      "▁her": 230,
      "our": 231,
      "▁at": 232,
      "▁P": 233,
      "ter": 234,
      "▁k": 235,
      "▁And": 236,
      "ur": 237,
      "ould": 238,
      "am": 239,
      "▁your": 240,
      "▁have": 241,
      "▁M": 242,
      "▁so": 243,
      "▁The": 244,
      "▁li": 245,
      "ain": 246,
      "▁thou": 247,
      "▁wh": 248,
      "ot": 249,
      "▁se": 250,
      "out": 251,
      "s,": 252,
      "ck": 253,
      "▁an": 254,
      "ct": 255,
      "▁all": 256,
      "ore": 257,
      "ra": 258,
      "▁de": 259,
      "▁C": 260,
      "▁su": 261,
      "▁do": 262,
      "▁but": 263,
      "▁L": 264,
      "▁this": 265,
      "▁O": 266,
      "?\n": 267,
      "pe": 268,
      "ol": 269,
      "▁had": 270,
      "▁_": 271,
      "\"\n": 272,
      "and": 273,
      "ess": 274,
      "ood": 275,
      "▁He": 276,
      "ord": 277,
      "▁G": 278,
      "'t": 279,
      ";\n": 280,
      "▁she": 281,
      "if": 282,
      "ov": 283,
      "e,": 284,
      "▁F": 285,
      "y,": 286,
      "ru": 287,
      "'d": 288,
      "▁are": 289,
      "▁N": 290,
      "▁will": 291,
      "▁D": 292,
      "est": 293,
      "▁Y": 294,
      "rom": 295,
      "▁sh": 296,
      "lf": 297,
      "ic": 298,
      "th": 299,
      "▁up": 300,
      "il": 301,
      "▁con": 302,
      "ell": 303,
      "▁what": 304,
      "▁sha": 305,
      "O:\n": 306,
      "ant": 307,
      "qu": 308,
      "us": 309,
      "EN": 310,
      "ak": 311,
      "ul": 312,
      "em": 313,
      "ble": 314,
      "ard": 315,
      "ake": 316,
      "ge": 317,
      "▁by": 318,
      "ni": 319,
      "▁fa": 320,
      "ous": 321,
      "▁ne": 322,
      "ust": 323,
      "!\n": 324,
      "IN": 325,
      "▁from": 326,
      "ther": 327,
      "red": 328,
      "ven": 329,
      "self": 330,
      "now": 331,
      "res": 332,
      "ook": 333,
      "▁v": 334,
      "▁man": 335,
      "▁But": 336,
      "▁am": 337,
      "._": 338,
      "han": 339,
      "S:\n": 340,
      "ight": 341,
      "▁whe": 342,
      "▁or": 343,
      "all": 344,
      "te": 345,
      "▁them": 346,
      "▁go": 347,
      "one": 348,
      "art": 349,
      "▁un": 350,
      "▁know": 351,
      "ost": 352,
      "ast": 353,
      "▁there": 354,
      "very": 355,
      "▁E": 356,
      "ive": 357,
      "um": 358,
      "▁sa": 359,
      "▁K": 360,
      "▁would": 361,
      "AR": 362,
      "ind": 363,
      "pp": 364,
      "...": 365,
      "▁were": 366,
      "▁thy": 367,
      "▁Th": 368,
      "▁com": 369,
      "od": 370,
      "▁they": 371,
      "▁al": 372,
      "▁Wh": 373,
      "▁ag": 374,
      "▁out": 375,
      "au": 376,
      "ich": 377,
      "▁now": 378,
      "ong": 379,
      "▁shall": 380,
      "ear": 381,
      "▁too": 382,
      "IO:\n": 383,
      "▁ex": 384,
      "▁r": 385,
      "▁more": 386,
      "own": 387,
      "▁qu": 388,
      "▁if": 389,
      "▁can": 390,
      "el": 391,
      "▁ab": 392,
      "ist": 393,
      "ie": 394,
      "▁our": 395,
      "▁To": 396,
      "os": 397,
      "ame": 398,
      "▁one": 399,
      "▁j": 400,
      "ed,": 401,
      "ep": 402,
      "▁look": 403,
      "▁le": 404,
      "fe": 405,
      "'ll": 406,
      "ink": 407,
      "▁did": 408,
      "▁say": 409,
      "hing": 410,
      "]\n": 411,
      "▁good": 412,
      "▁That": 413,
      "es,": 414,
      "ort": 415,
      "ers": 416,
      "are": 417,
      "US:\n": 418,
      "ig": 419,
      "▁come": 420,
      "▁like": 421,
      "kov": 422,
      "▁What": 423,
      "▁bl": 424,
      "▁tim": 425,
      "kol": 426,
      "ry": 427,
      "▁wor": 428,
      "ation": 429,
      "nikov": 430,
      "ound": 431,
      ",\"": 432,
      "▁some": 433,
      "▁lo": 434,
      "ice": 435,
      "reat": 436,
      "na": 437,
      "nt": 438,
      "▁then": 439,
      "ate": 440,
      "▁'": 441,
      "▁pr": 442,
      "▁who": 443,
      "▁You": 444,
      "▁here": 445,
      "▁again": 446,
      "ure": 447,
      "▁been": 448,
      "pt": 449,
      "fore": 450,
      "ine": 451,
      "▁spe": 452,
      "askol": 453,
      "askolnikov": 454,
      "▁V": 455,
      ".\"\n": 456,
      "▁Raskolnikov": 457,
      "▁us": 458,
      "ond": 459,
      "▁pro": 460,
      "to": 461,
      "way": 462,
      "ci": 463,
      "▁lord": 464,
      "▁how": 465,
      "▁ar": 466,
      "ave": 467,
      "▁see": 468,
      "ER": 469,
      "▁their": 470,
      "ather": 471,
      "ING": 472,
      "UC": 473,
      "--": 474,
      "▁sp": 475,
      "dd": 476,
      "▁must": 477,
      "ence": 478,
      "▁mad": 479,
      "▁than": 480,
      "OR": 481,
      "ng": 482,
      "▁let": 483,
      "▁pl": 484,
      "oot": 485,
      "▁which": 486,
      "▁may": 487,
      "▁when": 488,
      "ing,": 489,
      "ide": 490,
      "▁thee": 491,
      "▁ro": 492,
      "ath": 493,
      "ET": 494,
      "ne": 495,
      "....": 496,
      "▁hand": 497,
      "▁It": 498,
      "▁[": 499,
      "itt": 500,
      "▁could": 501,
      "▁should": 502,
      "▁\"I": 503,
      "ish": 504,
      "row": 505,
      "▁very": 506,
      "▁any": 507,
      "ose": 508,
      "▁said": 509,
      "able": 510,
      "ough": 511,
      "▁For": 512,
      "▁about": 513,
      "▁af": 514,
      "irst": 515,
      "▁hat": 516,
      "▁fl": 517,
      "▁off": 518,
      "▁beg": 519,
      "vna": 520,
      "ia": 521,
      "hed": 522,
      "▁I'll": 523,
      "ag": 524,
      "urn": 525,
      "ance": 526,
      "▁ch": 527,
      "▁time": 528,
      "▁make": 529,
      "nder": 530,
      "o,": 531,
      "ity": 532,
      "on't": 533,
      "we": 534,
      "▁sir": 535,
      "▁po": 536,
      "rie": 537,
      "▁well": 538,
      "wn": 539,
      "oth": 540,
      "ress": 541,
      "▁such": 542,
      "A:\n": 543,
      "▁dis": 544,
      "ack": 545,
      "▁tw": 546,
      "op": 547,
      "▁you,": 548,
      "?\"\n": 549,
      "▁think": 550,
      "▁day": 551,
      "ful": 552,
      "old": 553,
      "▁She": 554,
      "▁love": 555,
      "ick": 556,
      ".]\n": 557,
      "ite": 558,
      "▁Whe": 559,
      "▁pe": 560,
      "▁bro": 561,
      "▁speak": 562,
      "ano": 563,
      "▁ey": 564,
      "ly,": 565,
      "▁fe": 566,
      "right": 567,
      "▁My": 568,
      "erv": 569,
      "itch": 570,
      "▁though": 571,
      "OL": 572,
      "AN": 573,
      "▁br": 574,
      "imp": 575,
      "de": 576,
      "▁cl": 577,
      "▁into": 578,
      "▁\"W": 579,
      "ass": 580,
      "ber": 581,
      "▁tell": 582,
      "IC": 583,
      "az": 584,
      "▁per": 585,
      "▁before": 586,
      "s,\n": 587,
      "alk": 588,
      "▁upon": 589,
      "▁word": 590,
      "▁down": 591,
      "ap": 592,
      "▁thought": 593,
      "ried": 594,
      "ull": 595,
      "ue": 596,
      "▁As": 597,
      "▁en": 598,
      "▁II": 599,
      "▁only": 600,
      "▁KING": 601,
      "ile": 602,
      "uch": 603,
      "ward": 604,
      "ild": 605,
      "ootno": 606,
      "hin": 607,
      "ootnote": 608,
      "▁has": 609,
      "Footnote": 610,
      "▁[Footnote": 611,
      "man": 612,
      "▁Pet": 613,
      "ace": 614,
      "▁father": 615,
      "▁bet": 616,
      "ness": 617,
      "s.": 618,
      "s.\n": 619,
      "ARD": 620,
      "▁himself": 621,
      "cc": 622,
      "IUS:\n": 623,
      "omet": 624,
      "ran": 625,
      "▁me,": 626,
      "▁If": 627,
      "▁heart": 628,
      "▁every": 629,
      "▁way": 630,
      "▁In": 631,
      "▁king": 632,
      "bl": 633,
      "▁once": 634,
      "▁made": 635,
      "ON": 636,
      "ST": 637,
      "s\n": 638,
      "▁even": 639,
      "ire": 640,
      "ment": 641,
      "▁cha": 642,
      "▁rem": 643,
      "▁J": 644,
      "▁under": 645,
      "▁des": 646,
      "ady": 647,
      "?\"": 648,
      "ree": 649,
      "▁over": 650,
      "ies": 651,
      "ittle": 652,
      "▁mot": 653,
      "▁other": 654,
      "orn": 655,
      "ft": 656,
      "▁somet": 657,
      "▁gra": 658,
      "ign": 659,
      "ya": 660,
      "▁take": 661,
      "un": 662,
      "▁thing": 663,
      "ally": 664,
      "▁away": 665,
      "ater": 666,
      "▁little": 667,
      "▁hath": 668,
      "▁mar": 669,
      "E:\n": 670,
      "▁great": 671,
      "anovna": 672,
      "▁much": 673,
      "▁We": 674,
      "▁where": 675,
      "▁(": 676,
      "▁tru": 677,
      "▁sc": 678,
      "ious": 679,
      "▁ru": 680,
      "h,": 681,
      "rov": 682,
      "▁So": 683,
      "ase": 684,
      "▁nothing": 685,
      "▁Son": 686,
      "▁_H": 687,
      "▁own": 688,
      "▁hon": 689,
      "▁yet": 690,
      "entle": 691,
      "ert": 692,
      "▁wom": 693,
      "▁most": 694,
      "▁pre": 695,
      "▁part": 696,
      "▁ke": 697,
      "▁these": 698,
      "▁seem": 699,
      "▁mean": 700,
      "▁still": 701,
      "▁him,": 702,
      "▁it,": 703,
      "ction": 704,
      "▁Sonia": 705,
      "ince": 706,
      "ise": 707,
      "▁give": 708,
      "▁mother": 709,
      "▁head": 710,
      "▁last": 711,
      "▁just": 712,
      "▁old": 713,
      "▁death": 714,
      "iv": 715,
      "er,": 716,
      "▁ear": 717,
      "age": 718,
      "▁sl": 719,
      "dden": 720,
      "▁want": 721,
      "▁brother": 722,
      "▁'t": 723,
      "▁ask": 724,
      "n't": 725,
      "▁cont": 726,
      "ause": 727,
      "▁hear": 728,
      "▁There": 729,
      "cl": 730,
      "ay,": 731,
      "▁face": 732,
      "▁went": 733,
      "▁This": 734,
      "EL": 735,
      "▁don't": 736,
      "▁Mar": 737,
      "!\"\n": 738,
      "▁long": 739,
      "▁turn": 740,
      "▁God": 741,
      "▁How": 742,
      "▁ra": 743,
      "riend": 744,
      "▁\"Y": 745,
      "aught": 746,
      "ps": 747,
      "▁cons": 748,
      "▁never": 749,
      "▁after": 750,
      "▁sm": 751,
      "▁first": 752,
      "▁hea": 753,
      "ff": 754,
      "▁put": 755,
      "umi": 756,
      "▁cour": 757,
      "▁sudden": 758,
      "umihin": 759,
      "▁Raz": 760,
      "▁two": 761,
      "▁eyes": 762,
      "▁sw": 763,
      "▁friend": 764,
      "ud": 765,
      "▁Razumihin": 766,
      "pl": 767,
      "▁With": 768,
      "▁right": 769,
      "▁gl": 770,
      "ect": 771,
      "oll": 772,
      "▁bel": 773,
      "TIO:\n": 774,
      "!\"": 775,
      "ouse": 776,
      "ount": 777,
      "oss": 778,
      "OM": 779,
      "▁get": 780,
      "ren": 781,
      "▁blood": 782,
      "▁something": 783,
      "LI": 784,
      "▁ob": 785,
      "vid": 786,
      "▁new": 787,
      "▁\"A": 788,
      "ET:\n": 789,
      "▁Iv": 790,
      "▁child": 791,
      "▁might": 792,
      "▁room": 793,
      "▁came": 794,
      "▁stand": 795,
      "nia": 796,
      "▁tr": 797,
      "ounia": 798,
      "atter": 799,
      "ither": 800,
      "▁myself": 801,
      "▁life": 802,
      "▁wr": 803,
      "▁gentle": 804,
      "rown": 805,
      "ab": 806,
      "▁U": 807,
      "▁ho": 808,
      "▁ad": 809,
      "▁O,": 810,
      "ves": 811,
      "oul": 812,
      "▁bec": 813,
      "ome,": 814,
      "▁Dounia": 815,
      "▁pres": 816,
      "che": 817,
      "▁hast": 818,
      "▁imp": 819,
      "aint": 820,
      "ell,": 821,
      "oy": 822,
      "▁back": 823,
      "▁Is": 824,
      "▁night": 825,
      "▁Ivanovna": 826,
      "int": 827,
      "per": 828,
      "thing": 829,
      "air": 830,
      "ought": 831,
      "▁Of": 832,
      "--\n": 833,
      "iz": 834,
      "pen": 835,
      "▁son": 836,
      "K:\n": 837,
      "▁men": 838,
      "▁pass": 839,
      "▁comm": 840,
      "▁looked": 841,
      "▁art": 842,
      "anc": 843,
      "▁III": 844,
      "rovitch": 845,
      "▁co": 846,
      "▁Be": 847,
      "▁Cl": 848,
      "▁door": 849,
      "▁call": 850,
      "▁without": 851,
      "not": 852,
      "nother": 853,
      "ICH": 854,
      "▁RICH": 855,
      "▁woman": 856,
      "ject": 857,
      "▁res": 858,
      "KE": 859,
      "▁mine": 860,
      "'ve": 861,
      "▁DU": 862,
      "igh": 863,
      "▁DUKE": 864,
      "ach": 865,
      "▁war": 866,
      "▁Petrovitch": 867,
      "▁talk": 868,
      "▁Which": 869,
      "▁\"T": 870,
      "▁honour": 871,
      "ty": 872,
      "ople": 873,
      "▁_Ham": 874,
      "most": 875,
      "ed.": 876,
      "▁Q": 877,
      "▁ans": 878,
      "▁_Ham._": 879,
      "atch": 880,
      "▁They": 881,
      "less": 882,
      "▁ple": 883,
      "▁kne": 884,
      "▁better": 885,
      "▁RICHARD": 886,
      "pect": 887,
      "▁Now": 888,
      "ENTIO:\n": 889,
      "ving": 890,
      "▁another": 891,
      "▁fear": 892,
      "ER:\n": 893,
      "orrow": 894,
      "▁being": 895,
      "▁began": 896,
      "▁sir,": 897,
      "▁acc": 898,
      "▁mind": 899,
      "▁Where": 900,
      "Y:\n": 901,
      "▁gr": 902,
      "▁Se": 903,
      "▁work": 904,
      "▁people": 905,
      "cond": 906,
      "ret": 907,
      "INC": 908,
      "▁set": 909,
      "ens": 910,
      "▁both": 911,
      "▁o'": 912,
      "ger": 913,
      "ina": 914,
      "ed.\n": 915,
      "aw": 916,
      "▁comp": 917,
      "rd": 918,
      "▁ent": 919,
      "▁First": 920,
      "ip": 921,
      "▁dre": 922,
      "ing.": 923,
      "▁When": 924,
      "▁belie": 925,
      "▁it's": 926,
      "▁him.": 927,
      "▁heard": 928,
      "ons": 929,
      "ark": 930,
      "▁happ": 931,
      "▁that's": 932,
      "▁Then": 933,
      "EEN": 934,
      "▁to-": 935,
      "▁young": 936,
      "▁underst": 937,
      "▁house": 938,
      "rig": 939,
      "▁rest": 940,
      "▁min": 941,
      "ister": 942,
      "▁thr": 943,
      "▁His": 944,
      "▁keep": 945,
      "AM": 946,
      "nce": 947,
      "▁show": 948,
      "day": 949,
      "▁stran": 950,
      "▁rep": 951,
      "▁conf": 952,
      "io": 953,
      "▁end": 954,
      "ac": 955,
      "oud": 956,
      "orf": 957,
      "ute": 958,
      "▁it.": 959,
      "▁heaven": 960,
      "ily": 961,
      "▁fell": 962,
      "ary": 963,
      "▁cannot": 964,
      "UEEN": 965,
      "iss": 966,
      "aster": 967,
      "▁stre": 968,
      "iness": 969,
      "▁done": 970,
      "▁Lord": 971,
      "▁QUEEN": 972,
      "▁Rom": 973,
      "▁Why,": 974,
      "be": 975,
      "ove": 976,
      "ool": 977,
      "▁why": 978,
      "▁almost": 979,
      "▁inde": 980,
      "ower": 981,
      "▁Thou": 982,
      "LO": 983,
      "get": 984,
      "▁those": 985,
      "▁fair": 986,
      "ears": 987,
      "EST": 988,
      "urp": 989,
      "AB": 990,
      "▁find": 991,
      "weet": 992,
      "ock": 993,
      "▁dead": 994,
      "▁OF": 995,
      "▁leave": 996,
      "▁'T": 997,
      "▁open": 998,
      "ated": 999,
      "UCH": 1000,
      "▁remem": 1001,
      "ale": 1002,
      "aughter": 1003,
      "'st": 1004,
      "▁mom": 1005,
      "▁\"What": 1006,
      "▁suddenly": 1007,
      "▁moment": 1008,
      "ition": 1009,
      "▁arm": 1010,
      "ed\n": 1011,
      "▁him.\n": 1012,
      "▁soul": 1013,
      "▁ever": 1014,
      "▁nor": 1015,
      "▁live": 1016,
      "▁Here": 1017,
      "▁GLO": 1018,
      "▁Your": 1019,
      "UCEST": 1020,
      "▁GLOUCEST": 1021,
      "▁GLOUCESTER:\n": 1022,
      "▁hel": 1023,
      "▁world": 1024,
      "ertain": 1025,
      "▁'tis": 1026,
      "▁wa": 1027,
      "▁pers": 1028,
      "li": 1029,
      "lov": 1030,
      "▁Let": 1031,
      "ess,": 1032,
      "_,": 1033,
      "for": 1034,
      "▁cried": 1035,
      "ings": 1036,
      "▁saw": 1037,
      "▁feel": 1038,
      "ollow": 1039,
      "▁believe": 1040,
      "aï": 1041,
      "ix": 1042,
      "rem": 1043,
      "en,": 1044,
      "▁\"H": 1045,
      "ult": 1046,
      "▁true": 1047,
      "▁same": 1048,
      "▁inst": 1049,
      "urse": 1050,
      "▁lord,": 1051,
      "▁understand": 1052,
      "a,": 1053,
      "▁VINC": 1054,
      "aterina": 1055,
      "▁course": 1056,
      "▁VINCENTIO:\n": 1057,
      "▁now,": 1058,
      "▁pray": 1059,
      "▁dist": 1060,
      "▁hour": 1061,
      "▁many": 1062,
      ".)": 1063,
      "▁te": 1064,
      "▁ap": 1065,
      "▁add": 1066,
      "▁poor": 1067,
      "UM": 1068,
      "sel": 1069,
      "▁Or": 1070,
      "▁Katerina": 1071,
      "vidrig": 1072,
      "aïlov": 1073,
      "vidrigaïlov": 1074,
      "▁name": 1075,
      "▁Rod": 1076,
      "ester": 1077,
      "▁gu": 1078,
      "▁At": 1079,
      "▁against": 1080,
      "▁bus": 1081,
      "▁bear": 1082,
      "▁Svidrigaïlov": 1083,
      "▁matter": 1084,
      "▁cle": 1085,
      "▁dear": 1086,
      "orfir": 1087,
      "▁app": 1088,
      "▁sweet": 1089,
      "▁took": 1090,
      "▁place": 1091,
      "estion": 1092,
      "RY": 1093,
      "aid": 1094,
      "▁looking": 1095,
      "ied": 1096,
      "sh": 1097,
      "▁tri": 1098,
      "ense": 1099,
      "▁el": 1100,
      "rovna": 1101,
      "▁Rome": 1102,
      "ss": 1103,
      "ison": 1104,
      "▁em": 1105,
      "▁rec": 1106,
      "▁Do": 1107,
      "▁que": 1108,
      "▁HEN": 1109,
      "▁Porfir": 1110,
      "▁HENRY": 1111,
      "▁chan": 1112,
      "▁noble": 1113,
      "▁AN": 1114,
      "▁yourself": 1115,
      "elt": 1116,
      "bt": 1117,
      "ged": 1118,
      "▁walk": 1119,
      "▁far": 1120,
      "▁stood": 1121,
      "ible": 1122,
      "ved": 1123,
      "y.\n": 1124,
      "▁sister": 1125,
      "▁wif": 1126,
      "▁mur": 1127,
      "ly.\n": 1128,
      "▁through": 1129,
      "▁An": 1130,
      "▁Well,": 1131,
      "▁too,": 1132,
      "▁bre": 1133,
      "ORI": 1134,
      "▁ter": 1135,
      "▁going": 1136,
      "▁left": 1137,
      "ared": 1138,
      "fa": 1139,
      "▁im": 1140,
      "▁LA": 1141,
      "▁need": 1142,
      "ced": 1143,
      "▁sil": 1144,
      "▁three": 1145,
      "▁By": 1146,
      "▁light": 1147,
      "fect": 1148,
      "uke": 1149,
      "▁ill": 1150,
      "ES:\n": 1151,
      "y.": 1152,
      "▁Z": 1153,
      "▁serv": 1154,
      "▁question": 1155,
      "▁\"You": 1156,
      "▁help": 1157,
      "▁mak": 1158,
      "▁ass": 1159,
      "▁kind": 1160,
      "▁the\n": 1161,
      "ised": 1162,
      "▁told": 1163,
      "▁int": 1164,
      "▁att": 1165,
      "▁YOR": 1166,
      "cious": 1167,
      "▁YORK:\n": 1168,
      "AT": 1169,
      "ting": 1170,
      "haps": 1171,
      "▁mone": 1172,
      "▁bes": 1173,
      "▁present": 1174,
      "▁strange": 1175,
      "nk": 1176,
      "here": 1177,
      "▁All": 1178,
      "▁Come,": 1179,
      "▁seemed": 1180,
      "▁gone": 1181,
      "up": 1182,
      "▁simp": 1183,
      "▁wind": 1184,
      "erc": 1185,
      "▁doth": 1186,
      "▁got": 1187,
      "INIUS:\n": 1188,
      "▁till": 1189,
      "▁follow": 1190,
      "▁dru": 1191,
      "▁hu": 1192,
      "let": 1193,
      "leep": 1194,
      "▁care": 1195,
      "▁\"N": 1196,
      "oe": 1197,
      "▁che": 1198,
      "▁IV": 1199,
      "▁St": 1200,
      "▁does": 1201,
      "▁Why": 1202,
      "▁PET": 1203,
      "▁Not": 1204,
      "▁No,": 1205,
      "ELL": 1206,
      "▁full": 1207,
      "▁her,": 1208,
      "▁GR": 1209,
      "▁vo": 1210,
      "▁quite": 1211,
      "▁sat": 1212,
      "▁felt": 1213,
      "ened": 1214,
      "▁lau": 1215,
      "DW": 1216,
      "▁tak": 1217,
      "▁since": 1218,
      "ont": 1219,
      "▁EDW": 1220,
      "▁turned": 1221,
      "▁EDWARD": 1222,
      "der": 1223,
      "▁home": 1224,
      "▁nat": 1225,
      "▁No": 1226,
      "land": 1227,
      "▁\"B": 1228,
      "▁lie": 1229,
      "RO": 1230,
      "▁breat": 1231,
      "▁land": 1232,
      "ason": 1233,
      "▁Lu": 1234,
      "yot": 1235,
      "▁mist": 1236,
      "▁Ay,": 1237,
      "▁sub": 1238,
      "▁LUC": 1239,
      "▁Who": 1240,
      "▁fellow": 1241,
      "yotr": 1242,
      "UT": 1243,
      "▁hus": 1244,
      "▁and,": 1245,
      "▁knew": 1246,
      "AL": 1247,
      "▁count": 1248,
      "▁stay": 1249,
      "▁seen": 1250,
      "▁point": 1251,
      "▁certain": 1252,
      "▁while": 1253,
      "▁because": 1254,
      "▁sent": 1255,
      "one,": 1256,
      "iet": 1257,
      "ry,": 1258,
      "wer": 1259,
      "rest": 1260,
      "▁dou": 1261,
      "▁Pro": 1262,
      "▁children": 1263,
      "▁else": 1264,
      "▁hold": 1265,
      "▁soon": 1266,
      "▁Ed": 1267,
      "-b": 1268,
      "_]": 1269,
      "ched": 1270,
      "▁aw": 1271,
      "▁mon": 1272,
      "▁daughter": 1273,
      "▁thus": 1274,
      "ning": 1275,
      "▁best": 1276,
      "lex": 1277,
      "ly.": 1278,
      "▁Pyotr": 1279,
      "▁kill": 1280,
      "tend": 1281,
      "▁bring": 1282,
      "▁hope": 1283,
      "▁Porfiry": 1284,
      "AP": 1285,
      "uck": 1286,
      "▁Than": 1287,
      "▁read": 1288,
      "▁Edward": 1289,
      "EO:\n": 1290,
      "oun": 1291,
      "▁dr": 1292,
      "ross": 1293,
      "▁ROM": 1294,
      "▁MAR": 1295,
      "▁Good": 1296,
      "▁remember": 1297,
      "▁ROMEO:\n": 1298,
      "▁wit": 1299,
      "▁fool": 1300,
      "▁ret": 1301,
      "▁MEN": 1302,
      "ilt": 1303,
      "ENIUS:\n": 1304,
      "▁comes": 1305,
      "▁MENENIUS:\n": 1306,
      "ail": 1307,
      "▁law": 1308,
      "ank": 1309,
      "▁del": 1310,
      "▁hands": 1311,
      "rief": 1312,
      "fort": 1313,
      "ier": 1314,
      "▁tra": 1315,
      "ati": 1316,
      "▁it.\n": 1317,
      "▁cr": 1318,
      "▁Sha": 1319,
      "▁And,": 1320,
      "RUCH": 1321,
      "UL": 1322,
      "band": 1323,
      "vers": 1324,
      "▁grace": 1325,
      "▁pleas": 1326,
      "▁PETRUCH": 1327,
      "▁PETRUCHIO:\n": 1328,
      "▁vis": 1329,
      "ways": 1330,
      "RAN": 1331,
      "full": 1332,
      "led": 1333,
      "▁meet": 1334,
      "▁play": 1335,
      "▁asked": 1336,
      "▁sit": 1337,
      "rew": 1338,
      "▁lov": 1339,
      "uth": 1340,
      "▁not,": 1341,
      "▁supp": 1342,
      "▁rather": 1343,
      "gether": 1344,
      "▁appe": 1345,
      "▁husband": 1346,
      "use": 1347,
      "▁hum": 1348,
      "▁that,": 1349,
      "▁whom": 1350,
      "▁say,": 1351,
      "▁earth": 1352,
      "ener": 1353,
      "ird": 1354,
      "▁use": 1355,
      "▁Le": 1356,
      "ONT": 1357,
      "ES": 1358,
      "ial": 1359,
      "ory": 1360,
      "▁dream": 1361,
      "▁queen": 1362,
      "▁wife": 1363,
      "▁sort": 1364,
      "▁hor": 1365,
      "es.": 1366,
      "eth": 1367,
      "▁Second": 1368,
      "sand": 1369,
      "▁car": 1370,
      "▁gave": 1371,
      "▁herself": 1372,
      "▁CORI": 1373,
      "pped": 1374,
      "OLAN": 1375,
      "▁words": 1376,
      "▁'Tis": 1377,
      "▁CORIOLAN": 1378,
      "itiz": 1379,
      "▁I've": 1380,
      "▁pol": 1381,
      "▁ins": 1382,
      "irt": 1383,
      "▁thousand": 1384,
      "▁On": 1385,
      "▁[_": 1386,
      "▁CORIOLANUS:\n": 1387,
      "▁mis": 1388,
      "itor": 1389,
      "es\n": 1390,
      "▁poss": 1391,
      "▁always": 1392,
      "▁person": 1393,
      "▁tong": 1394,
      "irl": 1395,
      "▁stra": 1396,
      "emy": 1397,
      "▁begin": 1398,
      "▁answer": 1399,
      "▁ide": 1400,
      "▁bu": 1401,
      "▁you.\n": 1402,
      "▁Have": 1403,
      "▁LE": 1404,
      "▁round": 1405,
      "▁whole": 1406,
      "▁drunk": 1407,
      "ech": 1408,
      "me": 1409,
      "▁die": 1410,
      "▁half": 1411,
      "cept": 1412,
      "▁VI": 1413,
      "▁III.": 1414,
      "s;": 1415,
      "ying": 1416,
      "▁high": 1417,
      "▁Sir": 1418,
      "▁them,": 1419,
      "▁disc": 1420,
      "iven": 1421,
      "▁crown": 1422,
      "▁thank": 1423,
      "▁money": 1424,
      "▁I.": 1425,
      "▁ste": 1426,
      "ENC": 1427,
      "i.": 1428,
      "▁less": 1429,
      "INA:\n": 1430,
      "▁wrong": 1431,
      "-t": 1432,
      "es,\n": 1433,
      "▁pri": 1434,
      "▁power": 1435,
      "▁forg": 1436,
      "▁doubt": 1437,
      "D:\n": 1438,
      "ian": 1439,
      "med": 1440,
      "s!": 1441,
      "▁table": 1442,
      "▁found": 1443,
      "▁lay": 1444,
      "▁str": 1445,
      "tered": 1446,
      "▁char": 1447,
      "▁business": 1448,
      "e._": 1449,
      "▁\"O": 1450,
      "▁Nay,": 1451,
      "▁run": 1452,
      "▁gentleman": 1453,
      "▁III:\n": 1454,
      "ford": 1455,
      "oubl": 1456,
      "rer": 1457,
      "▁and\n": 1458,
      "▁War": 1459,
      "▁fact": 1460,
      "▁exp": 1461,
      "▁drink": 1462,
      "▁bod": 1463,
      "▁I,": 1464,
      "▁list": 1465,
      "▁Her": 1466,
      "ion,": 1467,
      "urs": 1468,
      "▁_i.": 1469,
      "▁unc": 1470,
      "▁therefore": 1471,
      "▁spo": 1472,
      "▁enough": 1473,
      "▁everything": 1474,
      "▁thee,": 1475,
      "▁dra": 1476,
      "ating": 1477,
      "▁girl": 1478,
      "ent,": 1479,
      "▁fall": 1480,
      "▁alre": 1481,
      "▁_i.e._": 1482,
      "wick": 1483,
      "▁cause": 1484,
      "▁yester": 1485,
      "▁inter": 1486,
      "▁form": 1487,
      "▁fort": 1488,
      "▁anything": 1489,
      "▁wait": 1490,
      "une": 1491,
      "▁Alex": 1492,
      "▁Will": 1493,
      "▁perhaps": 1494,
      "_,]": 1495,
      "ten": 1496,
      "▁ir": 1497,
      "▁hard": 1498,
      "▁dev": 1499,
      "▁peace": 1500,
      "▁\"Wh": 1501,
      "▁Warwick": 1502,
      "▁Alexand": 1503,
      "ing.\n": 1504,
      "uty": 1505,
      "▁shout": 1506,
      "▁adv": 1507,
      "▁street": 1508,
      "▁you.": 1509,
      "man:\n": 1510,
      "'er": 1511,
      "SAB": 1512,
      "▁fur": 1513,
      "▁ISAB": 1514,
      "▁Am": 1515,
      "▁\"S": 1516,
      "ardon": 1517,
      "ield": 1518,
      "▁worth": 1519,
      "▁letter": 1520,
      "▁It's": 1521,
      "▁things": 1522,
      "▁\"And": 1523,
      "ELLA:\n": 1524,
      "▁ISABELLA:\n": 1525,
      "▁sure": 1526,
      "▁can't": 1527,
      "▁prince": 1528,
      "morrow": 1529,
      "xt": 1530,
      "▁sleep": 1531,
      "▁hur": 1532,
      "▁lost": 1533,
      "▁lady": 1534,
      "▁har": 1535,
      "ained": 1536,
      "▁What,": 1537,
      "▁\"But": 1538,
      "▁ri": 1539,
      "▁master": 1540,
      "▁is,": 1541,
      "▁really": 1542,
      "▁exc": 1543,
      "▁ran": 1544,
      "▁then,": 1545,
      "▁simply": 1546,
      "ULI": 1547,
      "ken": 1548,
      "▁ac": 1549,
      "▁act": 1550,
      "▁sound": 1551,
      "▁inc": 1552,
      "▁From": 1553,
      "▁JULI": 1554,
      "cheri": 1555,
      "ONTES:\n": 1556,
      "▁straight": 1557,
      "▁LEONTES:\n": 1558,
      "▁_i.e._,": 1559,
      "▁JULIET:\n": 1560,
      "[1": 1561,
      "sp": 1562,
      "▁years": 1563,
      "▁beh": 1564,
      "▁gener": 1565,
      "ime": 1566,
      "▁forth": 1567,
      "▁reason": 1568,
      "▁so,": 1569,
      "empt": 1570,
      "ORT": 1571,
      "▁brought": 1572,
      "▁laugh": 1573,
      "DY": 1574,
      "cent": 1575,
      "ner": 1576,
      "▁es": 1577,
      "▁won't": 1578,
      "le,": 1579,
      "▁me.\n": 1580,
      "▁Pul": 1581,
      "▁ang": 1582,
      "▁Nor": 1583,
      "▁Yet": 1584,
      "rying": 1585,
      "▁Alexandrovna": 1586,
      "cheria": 1587,
      "▁Pulcheria": 1588,
      "ever": 1589,
      "hard": 1590,
      "▁bo": 1591,
      "▁cap": 1592,
      "ash": 1593,
      "▁LADY": 1594,
      "▁voice": 1595,
      "iol": 1596,
      "hen": 1597,
      "▁free": 1598,
      "ork": 1599,
      "ently": 1600,
      "ract": 1601,
      "▁clear": 1602,
      "ENCE:\n": 1603,
      "ces": 1604,
      "mit": 1605,
      "rant": 1606,
      "y,\n": 1607,
      "▁together": 1608,
      "▁hence": 1609,
      "▁lod": 1610,
      "▁Serv": 1611,
      "▁ref": 1612,
      "▁reg": 1613,
      "▁unto": 1614,
      "ance,": 1615,
      "-he": 1616,
      "r.": 1617,
      "▁dif": 1618,
      "▁late": 1619,
      "▁purp": 1620,
      "ular": 1621,
      "▁Thy": 1622,
      "▁tongue": 1623,
      "▁wond": 1624,
      "ity,": 1625,
      "▁fal": 1626,
      "▁ca": 1627,
      "▁all,": 1628,
      "▁prison": 1629,
      "▁whose": 1630,
      "'\n": 1631,
      "dot": 1632,
      "ek": 1633,
      "▁SIC": 1634,
      "▁weep": 1635,
      "▁dep": 1636,
      "▁Citiz": 1637,
      "▁means": 1638,
      "▁Rodya": 1639,
      "▁already": 1640,
      "▁SICINIUS:\n": 1641,
      "ging": 1642,
      "▁sign": 1643,
      "▁pos": 1644,
      "▁sun": 1645,
      "▁That's": 1646,
      ".H": 1647,
      "vdot": 1648,
      "▁ten": 1649,
      "▁ser": 1650,
      "▁second": 1651,
      "wered": 1652,
      "▁Romanovna": 1653,
      "selves": 1654,
      "vdotya": 1655,
      "H:\n": 1656,
      "IL": 1657,
      "TI": 1658,
      "s:\n": 1659,
      "y\n": 1660,
      "ering": 1661,
      "▁pale": 1662,
      "▁state": 1663,
      "▁stair": 1664,
      "▁suff": 1665,
      "▁quick": 1666,
      "▁answered": 1667,
      "-s": 1668,
      "EY:\n": 1669,
      "mp": 1670,
      "zhin": 1671,
      "▁hang": 1672,
      "▁gre": 1673,
      "▁me.": 1674,
      "▁near": 1675,
      "▁know,": 1676,
      "▁said,": 1677,
      "derer": 1678,
      "▁Now,": 1679,
      "eas": 1680,
      "men": 1681,
      "og": 1682,
      "ray": 1683,
      "▁air": 1684,
      "ouch": 1685,
      "▁bed": 1686,
      "ceiv": 1687,
      "▁stri": 1688,
      "▁BR": 1689,
      "ical": 1690,
      "...\"\n": 1691,
      "▁comfort": 1692,
      "▁joy": 1693,
      "▁least": 1694,
      "▁\"He": 1695,
      "▁nature": 1696,
      "▁Luzhin": 1697,
      "▁return": 1698,
      "yal": 1699,
      "▁a\n": 1700,
      "▁watch": 1701,
      "▁prom": 1702,
      "▁Avdotya": 1703,
      "rib": 1704,
      "▁Ric": 1705,
      "▁alone": 1706,
      "▁grave": 1707,
      "▁LUCIO:\n": 1708,
      "▁thine": 1709,
      "▁each": 1710,
      "enty": 1711,
      "▁\"D": 1712,
      "▁dec": 1713,
      "▁CL": 1714,
      "▁\"It": 1715,
      "ween": 1716,
      "▁makes": 1717,
      "▁IV:\n": 1718,
      "▁Richard": 1719,
      "ict": 1720,
      "ius": 1721,
      "▁ut": 1722,
      "▁bid": 1723,
      "▁cold": 1724,
      "▁year": 1725,
      "▁inf": 1726,
      "vere": 1727,
      "▁sec": 1728,
      "▁_T": 1729,
      "▁Eng": 1730,
      "fully": 1731,
      "▁police": 1732,
      "vitch": 1733,
      "▁mut": 1734,
      "▁morn": 1735,
      "uten": 1736,
      "irit": 1737,
      "▁Hen": 1738,
      "ation,": 1739,
      "▁lord.\n": 1740,
      "▁desp": 1741,
      "▁\"Yes,": 1742,
      "emyon": 1743,
      "lt": 1744,
      "ph": 1745,
      "▁duke": 1746,
      "ate,": 1747,
      "▁stru": 1748,
      "▁step": 1749,
      "▁send": 1750,
      "▁York": 1751,
      "▁obs": 1752,
      "rit": 1753,
      "ror": 1754,
      "ured": 1755,
      "▁bit": 1756,
      "▁bra": 1757,
      "ene": 1758,
      "▁lad": 1759,
      "▁ind": 1760,
      "▁grief": 1761,
      "vern": 1762,
      "ousin": 1763,
      "._]": 1764,
      "▁expl": 1765,
      "ief": 1766,
      "▁flat": 1767,
      "▁window": 1768,
      "ZAB": 1769,
      "▁tre": 1770,
      "▁side": 1771,
      "▁met": 1772,
      "ern": 1773,
      "▁cond": 1774,
      "ator": 1775,
      "ceed": 1776,
      "▁Semyon": 1777,
      "▁rel": 1778,
      "gel": 1779,
      "▁ELI": 1780,
      "▁spirit": 1781,
      "ETH:\n": 1782,
      "▁confess": 1783,
      "form": 1784,
      "▁Shall": 1785,
      "ZABETH:\n": 1786,
      "▁ELIZABETH:\n": 1787,
      "AST": 1788,
      "IAN": 1789,
      "UR": 1790,
      "▁ta": 1791,
      "▁dro": 1792,
      "▁dire": 1793,
      "▁pati": 1794,
      "▁given": 1795,
      "▁man,": 1796,
      "▁coming": 1797,
      "▁abs": 1798,
      "anovitch": 1799,
      "▁minute": 1800,
      "ished": 1801,
      "▁cra": 1802,
      "▁dark": 1803,
      "▁he's": 1804,
      "idd": 1805,
      "▁WAR": 1806,
      "▁Mr.": 1807,
      "'d\n": 1808,
      "▁short": 1809,
      "▁indeed": 1810,
      "s:": 1811,
      "▁fam": 1812,
      "▁cor": 1813,
      "▁inte": 1814,
      "ident": 1815,
      "ade": 1816,
      "al,": 1817,
      "▁kiss": 1818,
      "'d,": 1819,
      "ence,": 1820,
      "▁disp": 1821,
      "▁between": 1822,
      "ship": 1823,
      "▁subject": 1824,
      "▁express": 1825,
      "▁purpose": 1826,
      "HAM": 1827,
      "ling": 1828,
      "▁tears": 1829,
      "▁water": 1830,
      "ery": 1831,
      "en:\n": 1832,
      "▁Would": 1833,
      "▁Go": 1834,
      "▁Even": 1835,
      "▁ext": 1836,
      "▁heav": 1837,
      "▁respect": 1838,
      "come": 1839,
      "▁sorrow": 1840,
      "▁boy": 1841,
      "imes": 1842,
      "▁Ham": 1843,
      "▁within": 1844,
      "raid": 1845,
      "▁One": 1846,
      "▁shame": 1847,
      "▁next": 1848,
      "▁But,": 1849,
      "wards": 1850,
      "▁smile": 1851,
      "▁Un": 1852,
      "WIC": 1853,
      "▁ban": 1854,
      "▁father's": 1855,
      "▁mark": 1856,
      "▁Romeo": 1857,
      "▁yesterday": 1858,
      "▁WARWIC": 1859,
      "▁WARWICK:\n": 1860,
      "▁mov": 1861,
      "▁det": 1862,
      "▁Our": 1863,
      "osed": 1864,
      "▁time,": 1865,
      "▁used": 1866,
      "▁II:\n": 1867,
      "▁please": 1868,
      "▁ground": 1869,
      "▁walked": 1870,
      "▁taken": 1871,
      "▁appear": 1872,
      "▁Citizen:\n": 1873,
      "ited": 1874,
      "▁case": 1875,
      "▁dare": 1876,
      "▁pardon": 1877,
      "▁you\n": 1878,
      "ates": 1879,
      "▁King": 1880,
      "▁prop": 1881,
      "▁eye": 1882,
      "▁contin": 1883,
      "▁Hamlet": 1884,
      "RI": 1885,
      "▁sin": 1886,
      "▁sens": 1887,
      "▁corn": 1888,
      "▁Al": 1889,
      "▁none": 1890,
      "▁Nurse": 1891,
      "▁royal": 1892,
      "▁honest": 1893,
      "▁Semyonov": 1894,
      "HAM:\n": 1895,
      "ered": 1896,
      "pon": 1897,
      "rent": 1898,
      "▁fright": 1899,
      "lect": 1900,
      "▁Sh": 1901,
      "▁CAP": 1902,
      "rupt": 1903,
      "▁Ni": 1904,
      "▁conv": 1905,
      "▁roubl": 1906,
      "▁common": 1907,
      "▁to-morrow": 1908,
      "ULET:\n": 1909,
      "▁interest": 1910,
      "▁CAPULET:\n": 1911,
      "bb": 1912,
      "s;\n": 1913,
      "unt": 1914,
      "▁i": 1915,
      "▁sick": 1916,
      "▁merc": 1917,
      "▁to\n": 1918,
      "▁stud": 1919,
      "▁Come": 1920,
      "▁_P": 1921,
      "▁up,": 1922,
      "▁jo": 1923,
      "▁here,": 1924,
      "▁afraid": 1925,
      "▁hate": 1926,
      "berg": 1927,
      "▁standing": 1928,
      "▁truth": 1929,
      "▁idea": 1930,
      "-f": 1931,
      ".\"": 1932,
      "gain": 1933,
      "ge,": 1934,
      "▁fight": 1935,
      "▁hither": 1936,
      "▁bea": 1937,
      "▁ere": 1938,
      "ider": 1939,
      "▁wear": 1940,
      "rac": 1941,
      "▁whether": 1942,
      "▁there's": 1943,
      "fend": 1944,
      "▁offic": 1945,
      "▁break": 1946,
      "▁strong": 1947,
      "▁false": 1948,
      "-c": 1949,
      "s?\n": 1950,
      "ual": 1951,
      "▁trem": 1952,
      "▁maid": 1953,
      "▁coun": 1954,
      "▁lear": 1955,
      "▁inv": 1956,
      "▁having": 1957,
      "▁ready": 1958,
      "▁_O": 1959,
      "night": 1960,
      "▁faith": 1961,
      "▁again,": 1962,
      "▁kept": 1963,
      "▁court": 1964,
      "▁course,": 1965,
      "▁breath": 1966,
      "KING": 1967,
      "KE:\n": 1968,
      "cess": 1969,
      "iat": 1970,
      "ring": 1971,
      "▁sight": 1972,
      "▁wall": 1973,
      "▁I'": 1974,
      "▁Are": 1975,
      "▁sto": 1976,
      "▁BUC": 1977,
      "▁deep": 1978,
      "▁Look": 1979,
      "ant:\n": 1980,
      "ement": 1981,
      "ERL": 1982,
      "....\"\n": 1983,
      "itting": 1984,
      "▁well,": 1985,
      "▁murder": 1986,
      "UTUS:\n": 1987,
      "▁BRUTUS:\n": 1988,
      "KINGHAM:\n": 1989,
      "▁BUCKINGHAM:\n": 1990,
      "BRO": 1991,
      "▁sing": 1992,
      "▁four": 1993,
      "▁crow": 1994,
      "▁I\n": 1995,
      "asya": 1996,
      "▁beat": 1997,
      "▁TRAN": 1998,
      "▁Ah,": 1999,
      "imov": 2000,
      "etov": 2001,
      "alt": 2002,
      "▁BOL": 2003,
      "▁her.": 2004,
      "am,": 2005,
      "ametov": 2006,
      "▁Did": 2007,
      "▁jud": 2008,
      "▁says": 2009,
      "INGBRO": 2010,
      "▁marri": 2011,
      "▁TRANIO:\n": 2012,
      "▁BOLINGBRO": 2013,
      "▁BOLINGBROKE:\n": 2014,
      "xe": 2015,
      "—t": 2016,
      "▁dan": 2017,
      "▁dress": 2018,
      "▁wel": 2019,
      "▁virt": 2020,
      "astasya": 2021,
      "▁along": 2022,
      "▁quar": 2023,
      "▁Rodion": 2024,
      "ESS": 2025,
      "utenberg": 2026,
      "▁Henry": 2027,
      "▁Nurse:\n": 2028,
      "king": 2029,
      "rance": 2030,
      "ouble": 2031,
      "▁pay": 2032,
      "▁requ": 2033,
      "▁weak": 2034,
      "▁vill": 2035,
      "▁god": 2036,
      "▁didn't": 2037,
      "▁come,": 2038,
      "▁times": 2039,
      "▁proud": 2040,
      "▁prove": 2041,
      "▁twenty": 2042,
      "▁close": 2043,
      "▁(R": 2044,
      "▁feeling": 2045,
      "▁Zametov": 2046,
      "ATH": 2047,
      "▁month": 2048,
      "SC": 2049,
      "ired": 2050,
      "ness,": 2051,
      "rel": 2052,
      "hap": 2053,
      "ndred": 2054,
      "▁occ": 2055,
      "▁cru": 2056,
      "▁past": 2057,
      "hat's": 2058,
      "▁of\n": 2059,
      "▁evid": 2060,
      "▁notic": 2061,
      "erved": 2062,
      "ossimov": 2063,
      "▁haste": 2064,
      "▁o'er": 2065,
      "▁to-day": 2066,
      "▁struck": 2067,
      "GAR": 2068,
      "ib": 2069,
      "ike": 2070,
      "▁tear": 2071,
      "▁opp": 2072,
      "▁fore": 2073,
      "▁cousin": 2074,
      "▁par": 2075,
      "▁it!": 2076,
      "▁it?": 2077,
      "▁More": 2078,
      "▁whis": 2079,
      "cket": 2080,
      "▁this,": 2081,
      "ice,": 2082,
      "▁Romanovitch": 2083,
      "▁Zossimov": 2084,
      "▁hundred": 2085,
      "▁country": 2086,
      "▁MARGAR": 2087,
      "ILL": 2088,
      "▁MARGARET:\n": 2089,
      "▁fire": 2090,
      "▁cur": 2091,
      "▁town": 2092,
      "▁pain": 2093,
      "ention": 2094,
      "▁real": 2095,
      "▁repe": 2096,
      "▁Prov": 2097,
      "▁Nastasya": 2098,
      "▁fault": 2099,
      "▁V.": 2100,
      "▁wanted": 2101,
      "▁Upon": 2102,
      "▁command": 2103,
      "AMILL": 2104,
      "▁foot": 2105,
      "ceive": 2106,
      "▁its": 2107,
      "▁on,": 2108,
      "▁see,": 2109,
      "▁Give": 2110,
      "▁leg": 2111,
      "▁sword": 2112,
      "▁swear": 2113,
      "▁happy": 2114,
      "▁minut": 2115,
      "urpr": 2116,
      "'re": 2117,
      "-d": 2118,
      "GEL": 2119,
      "hr": 2120,
      "ous,": 2121,
      "▁wret": 2122,
      "▁ma": 2123,
      "▁bad": 2124,
      "▁bur": 2125,
      "▁den": 2126,
      "ing._": 2127,
      "▁reven": 2128,
      "▁soft": 2129,
      "▁Gutenberg": 2130,
      "▁expect": 2131,
      "▁gracious": 2132,
      "▁ANGEL": 2133,
      "▁ANGELO:\n": 2134,
      "ION": 2135,
      "eech": 2136,
      "fe,": 2137,
      "of": 2138,
      "▁surpr": 2139,
      "▁wilt": 2140,
      "es.\n": 2141,
      "ctor": 2142,
      "ARINA:\n": 2143,
      "▁Though": 2144,
      "arence": 2145,
      "▁chair": 2146,
      "▁desire": 2147,
      "▁brother,": 2148,
      "EL:\n": 2149,
      "▁Sir,": 2150,
      "uri": 2151,
      "us,": 2152,
      "wh": 2153,
      "▁sk": 2154,
      "▁win": 2155,
      "▁book": 2156,
      "▁cross": 2157,
      "▁dam": 2158,
      "ution": 2159,
      "▁Hath": 2160,
      "▁\"G": 2161,
      "▁red": 2162,
      "ament": 2163,
      "ain,": 2164,
      "▁dost": 2165,
      "▁_K": 2166,
      "'d,\n": 2167,
      "▁KATH": 2168,
      "▁aff": 2169,
      "▁days": 2170,
      "▁Marci": 2171,
      "▁glad": 2172,
      "▁Clarence": 2173,
      "▁resol": 2174,
      "▁KATHARINA:\n": 2175,
      "io,": 2176,
      "shed": 2177,
      "▁wish": 2178,
      "▁cut": 2179,
      "▁pu": 2180,
      "▁pap": 2181,
      "▁Was": 2182,
      "▁us,": 2183,
      "▁Some": 2184,
      "▁POL": 2185,
      "▁sold": 2186,
      "▁knows": 2187,
      "ively": 2188,
      "cial": 2189,
      "▁Sonia,": 2190,
      "▁emb": 2191,
      "▁danger": 2192,
      "ned": 2193,
      "vo": 2194,
      "vour": 2195,
      "hes": 2196,
      "▁sense": 2197,
      "its": 2198,
      "▁he,": 2199,
      "▁eas": 2200,
      "▁doing": 2201,
      "▁them.": 2202,
      "▁blow": 2203,
      "ations": 2204,
      "▁Raskolnikov,": 2205,
      "▁pocket": 2206,
      "▁II.": 2207,
      "▁Petrovna": 2208,
      "▁himself,": 2209,
      "▁talking": 2210,
      "▁\"No,": 2211,
      "▁grow": 2212,
      "▁gaz": 2213,
      "▁Take": 2214,
      "▁known": 2215,
      "▁ESC": 2216,
      "▁out,": 2217,
      "▁lead": 2218,
      "▁become": 2219,
      "▁compan": 2220,
      "▁imag": 2221,
      "ALUS:\n": 2222,
      "▁Project": 2223,
      "▁fortune": 2224,
      "▁diffe": 2225,
      "▁secret": 2226,
      "▁ESCALUS:\n": 2227,
      "vious": 2228,
      "▁mo": 2229,
      "▁cal": 2230,
      "orter": 2231,
      "or._": 2232,
      "▁either": 2233,
      "▁deal": 2234,
      "▁sometimes": 2235,
      "▁_Hor._": 2236,
      "▁smil": 2237,
      "▁maj": 2238,
      "bur": 2239,
      "ms": 2240,
      "over": 2241,
      "ziat": 2242,
      "▁fast": 2243,
      "▁cry": 2244,
      "▁pity": 2245,
      "ang": 2246,
      "lete": 2247,
      "▁not\n": 2248,
      "▁Su": 2249,
      "▁Pl": 2250,
      "▁Duke": 2251,
      "▁Yes,": 2252,
      "▁uneas": 2253,
      "ost:\n": 2254,
      "▁few": 2255,
      "AND:\n": 2256,
      "ably": 2257,
      "beziat": 2258,
      "▁indeed,": 2259,
      "▁visit": 2260,
      "▁\"Oh,": 2261,
      "▁_King._": 2262,
      "beziatnikov": 2263,
      "aim": 2264,
      "gg": 2265,
      "▁bow": 2266,
      "erk": 2267,
      "ising": 2268,
      "idow": 2269,
      "▁life,": 2270,
      "ctly": 2271,
      "▁susp": 2272,
      "▁DUCH": 2273,
      "▁bless": 2274,
      "ation.": 2275,
      "ERC": 2276,
      "▁prep": 2277,
      "▁Marfa": 2278,
      "▁Angel": 2279,
      "▁Lebeziatnikov": 2280,
      "▁morning": 2281,
      "▁suspic": 2282,
      "hal": 2283,
      "▁five": 2284,
      "▁itself": 2285,
      "oof": 2286,
      "▁Mad": 2287,
      "▁deed": 2288,
      "ush": 2289,
      "▁gold": 2290,
      "▁there,": 2291,
      "iew": 2292,
      "▁somew": 2293,
      "▁prof": 2294,
      "ueen": 2295,
      "▁streng": 2296,
      "▁instant": 2297,
      "▁body": 2298,
      "▁behind": 2299,
      "▁tem": 2300,
      "▁touch": 2301,
      "ined": 2302,
      "▁sake": 2303,
      "▁cir": 2304,
      "▁pie": 2305,
      "vel": 2306,
      "▁note": 2307,
      "▁Re": 2308,
      "▁sovere": 2309,
      "▁lives": 2310,
      "▁_L": 2311,
      "▁what's": 2312,
      "▁val": 2313,
      "._]\n": 2314,
      "ump": 2315,
      "arent": 2316,
      "▁What's": 2317,
      "▁father,": 2318,
      "▁Sof": 2319,
      "▁address": 2320,
      "▁GRE": 2321,
      "▁traitor": 2322,
      "▁forgot": 2323,
      "▁draw": 2324,
      "▁crowd": 2325,
      "IA:\n": 2326,
      "host": 2327,
      "les": 2328,
      "oor": 2329,
      "ually": 2330,
      "▁often": 2331,
      "▁Pol": 2332,
      "▁CAMILL": 2333,
      "ENS": 2334,
      "▁lose": 2335,
      "▁again.": 2336,
      "ague": 2337,
      "▁scar": 2338,
      "onsense": 2339,
      "like": 2340,
      "▁service": 2341,
      "▁landl": 2342,
      "▁VI:\n": 2343,
      "▁suffer": 2344,
      "▁England": 2345,
      "▁majest": 2346,
      "▁Sofya": 2347,
      "▁CAMILLO:\n": 2348,
      "bro": 2349,
      "ies,": 2350,
      "uc": 2351,
      "was": 2352,
      "▁ed": 2353,
      "▁wound": 2354,
      "▁mer": 2355,
      "▁bound": 2356,
      "alth": 2357,
      "herd": 2358,
      "icular": 2359,
      "▁black": 2360,
      "▁again.\n": 2361,
      "▁thinking": 2362,
      "▁complete": 2363,
      "▁possible": 2364,
      "▁devil": 2365,
      "▁further": 2366,
      "▁general": 2367,
      "▁Semyonovna": 2368,
      "▁roubles": 2369,
      "▁_Pol": 2370,
      "▁DUCHESS": 2371,
      "-h": 2372,
      "ple": 2373,
      "▁no,": 2374,
      "▁HORT": 2375,
      "▁\"P": 2376,
      "▁Mur": 2377,
      "▁sum": 2378,
      "est,": 2379,
      "▁shalt": 2380,
      "ately": 2381,
      "▁clerk": 2382,
      "▁way,": 2383,
      "▁particular": 2384,
      "▁news": 2385,
      "▁utter": 2386,
      "RIAR": 2387,
      "▁i'": 2388,
      "▁HORTENS": 2389,
      "ka": 2390,
      "kes": 2391,
      "▁sad": 2392,
      "▁six": 2393,
      "▁foul": 2394,
      "▁fanc": 2395,
      "▁held": 2396,
      "▁lying": 2397,
      "▁porter": 2398,
      "▁Again": 2399,
      "ides": 2400,
      "▁\"L": 2401,
      "▁me;": 2402,
      "▁her.\n": 2403,
      "▁FRIAR": 2404,
      "rust": 2405,
      "▁Third": 2406,
      "▁trust": 2407,
      "▁consider": 2408,
      "▁getting": 2409,
      "▁holy": 2410,
      "▁account": 2411,
      "▁silence": 2412,
      "▁making": 2413,
      "▁beseech": 2414,
      "▁horse": 2415,
      "▁banish": 2416,
      "▁_Pol._": 2417,
      "▁HORTENSIO:\n": 2418,
      "-p": 2419,
      "aven": 2420,
      "fter": 2421,
      "pherd": 2422,
      "▁ought": 2423,
      "har": 2424,
      "▁oath": 2425,
      "ening": 2426,
      "on,": 2427,
      "▁hair": 2428,
      "irm": 2429,
      "▁forget": 2430,
      "▁star": 2431,
      "▁him;": 2432,
      "alia": 2433,
      "▁Bid": 2434,
      "▁BAP": 2435,
      "▁nonsense": 2436,
      "ions": 2437,
      "▁PRO": 2438,
      "ural": 2439,
      "ame,": 2440,
      "▁thou,": 2441,
      "▁def": 2442,
      "▁Can": 2443,
      "th,": 2444,
      "STA:\n": 2445,
      "▁remain": 2446,
      "▁Clown": 2447,
      "▁irrit": 2448,
      "▁wonder": 2449,
      "TISTA:\n": 2450,
      "▁muttered": 2451,
      "▁BAPTISTA:\n": 2452,
      "AU": 2453,
      "CUS:\n": 2454,
      "YCUS:\n": 2455,
      "dom": 2456,
      "uous": 2457,
      "▁fun": 2458,
      "▁creat": 2459,
      "▁ye": 2460,
      "▁throw": 2461,
      "▁Ty": 2462,
      "▁Tell": 2463,
      "▁AUT": 2464,
      "▁me\n": 2465,
      "outh": 2466,
      "▁COM": 2467,
      "▁Gentle": 2468,
      "▁Fare": 2469,
      "▁viol": 2470,
      "▁quiet": 2471,
      "▁spite": 2472,
      "OLYCUS:\n": 2473,
      "▁Were": 2474,
      "▁women": 2475,
      "▁warm": 2476,
      "▁report": 2477,
      "▁EDWARD:\n": 2478,
      "▁Marcius": 2479,
      "▁AUTOLYCUS:\n": 2480,
      "▁COMINIUS:\n": 2481,
      "iar": 2482,
      "vent": 2483,
      "▁move": 2484,
      "er._": 2485,
      "▁in\n": 2486,
      "▁me!": 2487,
      "rible": 2488,
      "▁May": 2489,
      "▁living": 2490,
      "▁sea": 2491,
      "▁save": 2492,
      "ARENCE:\n": 2493,
      "▁broke": 2494,
      "▁content": 2495,
      "▁friends": 2496,
      "ches": 2497,
      "▁certainly": 2498,
      "▁shouted": 2499,
      "ceived": 2500,
      "▁CLARENCE:\n": 2501,
      "▁Nikol": 2502,
      "racter": 2503,
      "-m": 2504,
      ".'": 2505,
      "OS": 2506,
      "cum": 2507,
      "▁fin": 2508,
      "▁fit": 2509,
      "▁di": 2510,
      "nock": 2511,
      "▁that\n": 2512,
      "ch,": 2513,
      "riar": 2514,
      "▁anx": 2515,
      "▁Com": 2516,
      "peci": 2517,
      "▁convers": 2518,
      "ENES:\n": 2519,
      "▁order": 2520,
      "▁disg": 2521,
      "▁\"Well,": 2522,
      "▁perfect": 2523,
      "▁character": 2524,
      "▁(L": 2525,
      "▁Ivanovna,": 2526,
      "▁opened": 2527,
      "upid": 2528,
      "▁spoke": 2529,
      "▁despair": 2530,
      "▁trembl": 2531,
      "▁Provost:\n": 2532,
      "SP": 2533,
      "VOL": 2534,
      "ape": 2535,
      "▁axe": 2536,
      "▁col": 2537,
      "▁din": 2538,
      "▁hot": 2539,
      "▁later": 2540,
      "▁you'll": 2541,
      "set": 2542,
      "▁BEN": 2543,
      "usic": 2544,
      "▁anyone": 2545,
      "▁mother,": 2546,
      "▁object": 2547,
      "▁\"Why,": 2548,
      "▁Amalia": 2549,
      "▁sovereign": 2550,
      "▁Clown:\n": 2551,
      "VOLIO:\n": 2552,
      "▁BENVOLIO:\n": 2553,
      "tle": 2554,
      "▁1": 2555,
      "▁bar": 2556,
      "▁yield": 2557,
      "at,": 2558,
      "▁Had": 2559,
      "▁me,\n": 2560,
      "▁PA": 2561,
      "▁MERC": 2562,
      "▁These": 2563,
      "▁deli": 2564,
      "ERO:\n": 2565,
      "▁eyes,": 2566,
      "▁import": 2567,
      "▁added": 2568,
      "UMIO:\n": 2569,
      "▁GRUMIO:\n": 2570,
      "derer:\n": 2571,
      "▁Angelo": 2572,
      "▁PROSP": 2573,
      "▁PROSPERO:\n": 2574,
      "UTIO:\n": 2575,
      "day,": 2576,
      "ec": 2577,
      "ev": 2578,
      "ures": 2579,
      "vol": 2580,
      "▁ve": 2581,
      "▁est": 2582,
      "▁tried": 2583,
      "ham": 2584,
      "▁pull": 2585,
      "▁inqu": 2586,
      "▁be,": 2587,
      "▁start": 2588,
      "▁lips": 2589,
      "essen": 2590,
      "▁Go,": 2591,
      "ift": 2592,
      "'d.\n": 2593,
      "ices": 2594,
      "used": 2595,
      "umber": 2596,
      "▁lock": 2597,
      "ure,": 2598,
      "▁sir.\n": 2599,
      "▁once,": 2600,
      "▁married": 2601,
      "▁rag": 2602,
      "▁room,": 2603,
      "▁tender": 2604,
      "▁change": 2605,
      "▁mistress": 2606,
      "▁especi": 2607,
      "▁heavy": 2608,
      "▁Murderer:\n": 2609,
      "▁MERCUTIO:\n": 2610,
      "-w": 2611,
      "C.)": 2612,
      "s!\n": 2613,
      "ys": 2614,
      "▁sur": 2615,
      "▁wis": 2616,
      "▁bat": 2617,
      "▁bold": 2618,
      "er.\n": 2619,
      "▁cri": 2620,
      "▁duty": 2621,
      "▁pen": 2622,
      "▁post": 2623,
      "▁Ar": 2624,
      "▁sofa": 2625,
      "▁lies": 2626,
      "▁_A": 2627,
      "▁_and": 2628,
      "▁fac": 2629,
      "▁ago": 2630,
      "▁more,": 2631,
      "▁prov": 2632,
      "▁clot": 2633,
      "▁Dounia,": 2634,
      "▁passed": 2635,
      "▁artic": 2636,
      "▁LUCENTIO:\n": 2637,
      "▁crim": 2638,
      "▁angry": 2639,
      "▁bitter": 2640,
      "▁welcome": 2641,
      "▁strength": 2642,
      "▁action": 2643,
      "▁sitting": 2644,
      "▁widow": 2645,
      "▁faint": 2646,
      "▁towards": 2647,
      "▁you,\n": 2648,
      "▁notice": 2649,
      "▁POM": 2650,
      "race": 2651,
      "▁_Q": 2652,
      "▁favour": 2653,
      "▁je": 2654,
      "▁Raskolnikov's": 2655,
      "avet": 2656,
      "▁sir;": 2657,
      "▁love,": 2658,
      "▁pret": 2659,
      "▁Therefore": 2660,
      "▁small": 2661,
      "izavet": 2662,
      "▁warrant": 2663,
      "▁entreat": 2664,
      "-by": 2665,
      "▁uncle": 2666,
      "▁Servant:\n": 2667,
      "▁scarce": 2668,
      "▁POMP": 2669,
      "US": 2670,
      "gar": 2671,
      "s'": 2672,
      "▁age": 2673,
      "▁mock": 2674,
      "▁city": 2675,
      "enator": 2676,
      "▁dri": 2677,
      "▁hide": 2678,
      "▁you?": 2679,
      "ster": 2680,
      "ided": 2681,
      "oose": 2682,
      "▁Ha": 2683,
      "▁stupid": 2684,
      "▁we'll": 2685,
      "▁Per": 2686,
      "▁why,": 2687,
      "▁allow": 2688,
      "▁_E": 2689,
      "resh": 2690,
      "▁Ex": 2691,
      "▁speech": 2692,
      "▁let's": 2693,
      "▁office": 2694,
      "▁\"The": 2695,
      "ULINA:\n": 2696,
      "▁position": 2697,
      "▁villain": 2698,
      "▁noticed": 2699,
      "▁PAULINA:\n": 2700,
      "essenger": 2701,
      ".[": 2702,
      "7:": 2703,
      "MIO:\n": 2704,
      "end": 2705,
      "ked": 2706,
      "ught": 2707,
      "uff": 2708,
      "▁squ": 2709,
      "▁bene": 2710,
      "erve": 2711,
      "▁fix": 2712,
      "▁div": 2713,
      "oop": 2714,
      "▁Bes": 2715,
      "▁knock": 2716,
      "▁so.\n": 2717,
      "▁farew": 2718,
      "▁unt": 2719,
      "▁'I": 2720,
      "▁lord,\n": 2721,
      "▁thee.\n": 2722,
      "age,": 2723,
      "▁God,": 2724,
      "▁Razumihin,": 2725,
      "rence": 2726,
      "▁writ": 2727,
      "▁dread": 2728,
      "▁instru": 2729,
      "▁terror": 2730,
      "▁different": 2731,
      "ueen._": 2732,
      "▁GREMIO:\n": 2733,
      "▁Nikolay": 2734,
      "▁POMPEY:\n": 2735,
      "IX": 2736,
      "NIA:\n": 2737,
      "balt": 2738,
      "ffect": 2739,
      "iver": 2740,
      "nat": 2741,
      "ung": 2742,
      "well": 2743,
      "▁able": 2744,
      "▁woe": 2745,
      "▁mod": 2746,
      "er:\n": 2747,
      "▁fr": 2748,
      "▁fing": 2749,
      "ing\n": 2750,
      "▁laid": 2751,
      "es;": 2752,
      "▁bell": 2753,
      "▁forward": 2754,
      "▁\"t": 2755,
      "▁is\n": 2756,
      "▁suit": 2757,
      "▁_M": 2758,
      "usion": 2759,
      "▁ne'er": 2760,
      "▁lea": 2761,
      "▁VOL": 2762,
      "were": 2763,
      "▁Jul": 2764,
      "▁seems": 2765,
      "▁\"How": 2766,
      "UMNIA:\n": 2767,
      "▁pleasure": 2768,
      "▁[_E": 2769,
      "-tm": 2770,
      "▁hardly": 2771,
      "▁harm": 2772,
      "▁POLIX": 2773,
      "▁especially": 2774,
      "▁VOLUMNIA:\n": 2775,
      "▁POLIXENES:\n": 2776,
      "!...": 2777,
      "FOR": 2778,
      "▁mal": 2779,
      "ities": 2780,
      "▁cas": 2781,
      "ingly": 2782,
      "ingman:\n": 2783,
      "▁pa": 2784,
      "asant": 2785,
      "cell": 2786,
      "irty": 2787,
      "▁HAST": 2788,
      "▁\"M": 2789,
      "▁him\n": 2790,
      "▁king,": 2791,
      "▁white": 2792,
      "▁Oh,": 2793,
      "peak": 2794,
      "▁concl": 2795,
      "▁themselves": 2796,
      "▁too.": 2797,
      "fection": 2798,
      "▁someone": 2799,
      "INGS:\n": 2800,
      "▁thee,\n": 2801,
      "▁fever": 2802,
      "▁grant": 2803,
      "▁delir": 2804,
      "▁waiting": 2805,
      "▁Servingman:\n": 2806,
      "▁\"It's": 2807,
      "▁beauty": 2808,
      "▁marriage": 2809,
      "▁Gutenberg-tm": 2810,
      "▁_and_": 2811,
      "▁HASTINGS:\n": 2812,
      "ID": 2813,
      "T:\n": 2814,
      "_;": 2815,
      "mer": 2816,
      "y;": 2817,
      "hel": 2818,
      "ins": 2819,
      "▁sle": 2820,
      "▁big": 2821,
      "▁fif": 2822,
      "▁frown": 2823,
      "▁be\n": 2824,
      "▁it\n": 2825,
      "▁und": 2826,
      "▁\"C": 2827,
      "▁his\n": 2828,
      "▁attend": 2829,
      "▁sever": 2830,
      "▁_I": 2831,
      "though": 2832,
      "pping": 2833,
      "▁thyself": 2834,
      "▁special": 2835,
      "▁seek": 2836,
      "ity.": 2837,
      "▁brother's": 2838,
      "▁\"That's": 2839,
      "▁fearful": 2840,
      "▁appro": 2841,
      "▁LAUR": 2842,
      "▁IV.": 2843,
      "▁charge": 2844,
      "▁esc": 2845,
      "▁Rodya,": 2846,
      "▁corner": 2847,
      "broke": 2848,
      "▁LAURENCE:\n": 2849,
      "BY:\n": 2850,
      "nter": 2851,
      "▁ver": 2852,
      "▁wo": 2853,
      "ers,": 2854,
      "ench": 2855,
      "▁youth": 2856,
      "as,": 2857,
      "▁effect": 2858,
      "▁not.\n": 2859,
      "▁stor": 2860,
      "▁stir": 2861,
      "▁reck": 2862,
      "▁PR": 2863,
      "▁Pr": 2864,
      "▁seven": 2865,
      "▁succ": 2866,
      "▁Lizavet": 2867,
      "olk": 2868,
      "▁Don't": 2869,
      "▁fail": 2870,
      "▁Whose": 2871,
      "▁saying": 2872,
      "▁worse": 2873,
      "▁slow": 2874,
      "▁contempt": 2875,
      "clock": 2876,
      "claim": 2877,
      "▁bloody": 2878,
      "▁o'clock": 2879,
      "▁chance": 2880,
      "▁cheek": 2881,
      "▁satis": 2882,
      "▁III.1": 2883,
      "▁acqu": 2884,
      "▁extrem": 2885,
      "▁circum": 2886,
      "▁landlady": 2887,
      "▁Tybalt": 2888,
      "▁_Queen._": 2889,
      "BERL": 2890,
      "HUM": 2891,
      "hood": 2892,
      "so": 2893,
      "oured": 2894,
      "▁med": 2895,
      "▁bos": 2896,
      "▁fan": 2897,
      "▁dest": 2898,
      "▁hell": 2899,
      "▁you;": 2900,
      "arm": 2901,
      "▁giv": 2902,
      "▁that.": 2903,
      "ides,": 2904,
      "▁Hast": 2905,
      "▁lip": 2906,
      "▁self": 2907,
      "▁Like": 2908,
      "▁NORT": 2909,
      "▁conce": 2910,
      "▁man's": 2911,
      "▁among": 2912,
      "umb": 2913,
      "▁above": 2914,
      "▁hand,": 2915,
      "▁speaking": 2916,
      "▁away,": 2917,
      "▁contr": 2918,
      "▁turning": 2919,
      "▁consci": 2920,
      "LIF": 2921,
      "▁trouble": 2922,
      "▁adm": 2923,
      "▁called": 2924,
      "▁Petrovitch,": 2925,
      "▁MARC": 2926,
      "▁priv": 2927,
      "▁Should": 2928,
      "▁I'm": 2929,
      "BERLAND:\n": 2930,
      "HUMBERLAND:\n": 2931,
      "▁bosom": 2932,
      "▁NORTHUMBERLAND:\n": 2933,
      "[2": 2934,
      "apt": 2935,
      "fic": 2936,
      "ted": 2937,
      "you": 2938,
      "▁wood": 2939,
      "▁mouth": 2940,
      "▁born": 2941,
      "▁fo": 2942,
      "▁fat": 2943,
      "enc": 2944,
      "▁loud": 2945,
      "▁gar": 2946,
      "▁Till": 2947,
      "oward": 2948,
      "▁meant": 2949,
      "▁was,": 2950,
      "▁Both": 2951,
      "▁Gl": 2952,
      "▁will,": 2953,
      "ersbur": 2954,
      "▁pluck": 2955,
      "▁broken": 2956,
      "▁speak,": 2957,
      "▁down,": 2958,
      "▁thought,": 2959,
      "▁There's": 2960,
      "▁face,": 2961,
      "▁God's": 2962,
      "▁night,": 2963,
      "▁terrible": 2964,
      "▁beside": 2965,
      "centio": 2966,
      "▁lodg": 2967,
      "▁posit": 2968,
      "▁PRINC": 2969,
      "ersburg": 2970,
      "1:": 2971,
      "NE:\n": 2972,
      "bit": 2973,
      "cri": 2974,
      "ghed": 2975,
      "ron": 2976,
      "—and": 2977,
      "▁tit": 2978,
      "▁trying": 2979,
      "read": 2980,
      "▁mor": 2981,
      "▁fut": 2982,
      "▁firm": 2983,
      "▁hop": 2984,
      "▁gall": 2985,
      "▁Away": 2986,
      "ide,": 2987,
      "▁me:": 2988,
      "▁Part": 2989,
      "▁Mont": 2990,
      "▁decl": 2991,
      "▁but,": 2992,
      "▁she's": 2993,
      "▁go,": 2994,
      "aud": 2995,
      "igni": 2996,
      "▁seeing": 2997,
      "▁flow": 2998,
      "▁poison": 2999,
      "▁enem": 3000,
      "▁Petersburg": 3001,
      "▁enter": 3002,
      "ached": 3003,
      "▁tea": 3004,
      "▁ANNE:\n": 3005,
      "▁taking": 3006,
      ".H.]\n": 3007,
      "▁moved": 3008,
      "▁revenge": 3009,
      "-ha": 3010,
      "cul": 3011,
      "ex": 3012,
      "ued": 3013,
      "inary": 3014,
      "ital": 3015,
      "▁fill": 3016,
      "ona": 3017,
      "▁you?\n": 3018,
      "▁with\n": 3019,
      "▁Bi": 3020,
      "▁Cam": 3021,
      "oling": 3022,
      "▁Heaven": 3023,
      "ifford": 3024,
      "▁rid": 3025,
      "▁lord?\n": 3026,
      "ERD": 3027,
      "▁well.\n": 3028,
      "▁day,": 3029,
      "▁brain": 3030,
      "▁cloud": 3031,
      "▁everyone": 3032,
      "▁death,": 3033,
      "▁right,": 3034,
      "▁presence": 3035,
      "▁Clifford": 3036,
      "▁happened": 3037,
      "bered": 3038,
      "▁arms": 3039,
      "▁serious": 3040,
      "IAN:\n": 3041,
      "▁publ": 3042,
      "▁piece": 3043,
      "▁farewell": 3044,
      "▁Juliet": 3045,
      "▁circumst": 3046,
      "ignior": 3047,
      "2:": 3048,
      "iant": 3049,
      "ium": 3050,
      "miss": 3051,
      "ue,": 3052,
      "ude": 3053,
      "▁tran": 3054,
      "▁wild": 3055,
      "▁fet": 3056,
      "▁ce": 3057,
      "▁cop": 3058,
      "oriol": 3059,
      "▁heir": 3060,
      "▁offend": 3061,
      "asure": 3062,
      "▁third": 3063,
      "iment": 3064,
      "▁one,": 3065,
      "▁Boling": 3066,
      "▁MI": 3067,
      "▁Make": 3068,
      "pered": 3069,
      "▁_B": 3070,
      "ific": 3071,
      "uss": 3072,
      "teen": 3073,
      "aunt": 3074,
      "▁rushed": 3075,
      "▁earn": 3076,
      "▁remembered": 3077,
      "▁apparent": 3078,
      "▁murderer": 3079,
      "▁servant": 3080,
      "▁laughed": 3081,
      "▁Edward's": 3082,
      "▁loved": 3083,
      "▁human": 3084,
      "▁possess": 3085,
      "mitri": 3086,
      "▁strike": 3087,
      "▁_The": 3088,
      "FORD:\n": 3089,
      "▁Bolingbroke": 3090,
      "3:": 3091,
      "[4": 3092,
      "bour": 3093,
      "how": 3094,
      "mel": 3095,
      "▁try": 3096,
      "▁tale": 3097,
      "▁boot": 3098,
      "▁brief": 3099,
      "▁op": 3100,
      "erm": 3101,
      "▁fly": 3102,
      "▁fond": 3103,
      "▁dish": 3104,
      "▁you've": 3105,
      "asp": 3106,
      "▁gro": 3107,
      "'s,": 3108,
      "▁Signior": 3109,
      "▁mem": 3110,
      "▁me?\n": 3111,
      "▁asleep": 3112,
      "▁anci": 3113,
      "pend": 3114,
      "▁Dmitri": 3115,
      "ically": 3116,
      "ellow": 3117,
      "▁vow": 3118,
      "▁unw": 3119,
      "▁compl": 3120,
      "▁except": 3121,
      "osition": 3122,
      "▁prob": 3123,
      "▁plain": 3124,
      "▁happen": 3125,
      "▁delight": 3126,
      "uthor": 3127,
      "▁learn": 3128,
      "▁_La": 3129,
      "▁colour": 3130,
      "▁_Enter": 3131,
      "-g": 3132,
      "5:": 3133,
      "gment": 3134,
      "▁id": 3135,
      "▁burn": 3136,
      "▁friar": 3137,
      "▁he\n": 3138,
      "▁pract": 3139,
      "▁thin": 3140,
      "▁thro": 3141,
      "ats": 3142,
      "▁nurse": 3143,
      "▁Master": 3144,
      "▁liber": 3145,
      "▁seiz": 3146,
      "▁Coriol": 3147,
      "▁govern": 3148,
      "▁agre": 3149,
      "▁exec": 3150,
      "aret": 3151,
      "▁flatter": 3152,
      "▁marry": 3153,
      "▁glo": 3154,
      "▁impress": 3155,
      "▁son,": 3156,
      "▁Then,": 3157,
      ".)\n": 3158,
      "▁place,": 3159,
      "▁empt": 3160,
      "▁silent": 3161,
      "▁assist": 3162,
      "▁witness": 3163,
      "▁interrupt": 3164,
      "▁worthy": 3165,
      "▁hurried": 3166,
      "▁quickly": 3167,
      "ph._": 3168,
      "▁_Oph._": 3169,
      "▁stopped": 3170,
      "▁paper": 3171,
      "▁dangerous": 3172,
      "▁Against": 3173,
      "▁conversation": 3174,
      "▁_Laer._": 3175,
      "4:": 3176,
      "bid": 3177,
      "under": 3178,
      "▁ty": 3179,
      "▁avo": 3180,
      "▁author": 3181,
      "iness,": 3182,
      "▁sy": 3183,
      "▁sor": 3184,
      "▁sank": 3185,
      "▁woo": 3186,
      "▁cast": 3187,
      "▁daught": 3188,
      "▁low": 3189,
      "▁in,": 3190,
      "▁inno": 3191,
      "▁eff": 3192,
      "▁Such": 3193,
      "▁Senator": 3194,
      "▁Speak": 3195,
      "▁iss": 3196,
      "▁him,\n": 3197,
      "uring": 3198,
      "▁so.": 3199,
      "ustom": 3200,
      "nown": 3201,
      "▁them.\n": 3202,
      "▁unk": 3203,
      "▁agree": 3204,
      "▁canst": 3205,
      "▁prin": 3206,
      "▁lord;": 3207,
      "ager": 3208,
      "▁before,": 3209,
      "▁mother's": 3210,
      "▁justice": 3211,
      "▁consent": 3212,
      "▁sister,": 3213,
      "urious": 3214,
      "▁success": 3215,
      "▁Lizaveta": 3216,
      "▁opin": 3217,
      "6:": 3218,
      "FID": 3219,
      "IS": 3220,
      "LORI": 3221,
      "UFID": 3222,
      "ZEL:\n": 3223,
      "[3": 3224,
      "cester": 3225,
      "udd": 3226,
      "▁wak": 3227,
      "▁brow": 3228,
      "▁fresh": 3229,
      "▁caught": 3230,
      "▁pick": 3231,
      "arl": 3232,
      "▁AUFID": 3233,
      "▁story": 3234,
      "▁SE": 3235,
      "ion.": 3236,
      "▁Pres": 3237,
      "▁Messenger": 3238,
      "▁_G": 3239,
      "▁_R": 3240,
      "▁FLORI": 3241,
      "ility": 3242,
      "▁looks": 3243,
      "ortal": 3244,
      "▁arri": 3245,
      "▁death.\n": 3246,
      "▁death,\n": 3247,
      "▁Bec": 3248,
      "▁Lord:\n": 3249,
      "▁wife,": 3250,
      "▁breast": 3251,
      "▁intell": 3252,
      "medi": 3253,
      "▁\"Why": 3254,
      "▁rich": 3255,
      "▁behold": 3256,
      "▁observed": 3257,
      "▁ladies": 3258,
      "▁tavern": 3259,
      "iddle": 3260,
      "▁Romanovitch,": 3261,
      "▁minutes": 3262,
      "▁gazed": 3263,
      "▁scarcely": 3264,
      "▁future": 3265,
      "▁AUFIDIUS:\n": 3266,
      "▁Messenger:\n": 3267,
      "▁FLORIZEL:\n": 3268,
      "-l": 3269,
      "0:": 3270,
      "9:": 3271,
      "TON": 3272,
      "but": 3273,
      "du": 3274,
      "s?": 3275,
      "inal": 3276,
      "▁wed": 3277,
      "▁bon": 3278,
      "▁bright": 3279,
      "▁cand": 3280,
      "▁top": 3281,
      "ings,": 3282,
      "ed,\n": 3283,
      "▁lin": 3284,
      "▁beha": 3285,
      "▁Ab": 3286,
      "▁it;": 3287,
      "adov": 3288,
      "ady,": 3289,
      "▁Most": 3290,
      "▁dog": 3291,
      "▁doctor": 3292,
      "▁Ne": 3293,
      "▁necess": 3294,
      "▁vict": 3295,
      "▁view": 3296,
      "▁excell": 3297,
      "▁time.": 3298,
      "▁enc": 3299,
      "▁(_": 3300,
      "▁glass": 3301,
      "▁room.": 3302,
      "▁Claud": 3303,
      "▁honourable": 3304,
      "▁drew": 3305,
      "ixt": 3306,
      "▁hung": 3307,
      "▁killed": 3308,
      "▁counsel": 3309,
      "▁several": 3310,
      "▁reckon": 3311,
      "▁fanci": 3312,
      "1st": 3313,
      "ges": 3314,
      "ily,": 3315,
      "oly": 3316,
      "o._": 3317,
      "spect": 3318,
      "und": 3319,
      "vil": 3320,
      "oucester": 3321,
      "erable": 3322,
      "ise,": 3323,
      "▁cup": 3324,
      "▁curs": 3325,
      "▁drown": 3326,
      "▁hid": 3327,
      "▁press": 3328,
      "▁intend": 3329,
      "▁gate": 3330,
      "▁grie": 3331,
      "▁After": 3332,
      "▁Well": 3333,
      "▁Since": 3334,
      "▁kna": 3335,
      "amp": 3336,
      "▁have\n": 3337,
      "ott": 3338,
      "▁suc": 3339,
      "'t.\n": 3340,
      "iful": 3341,
      "▁France": 3342,
      "thing,": 3343,
      "ard,": 3344,
      "▁neck": 3345,
      "▁neither": 3346,
      "ally,": 3347,
      "▁exa": 3348,
      "▁blame": 3349,
      "▁madam": 3350,
      "▁rose": 3351,
      "▁hands,": 3352,
      "▁chur": 3353,
      "▁twice": 3354,
      "▁think,": 3355,
      "▁raised": 3356,
      "▁gentlemen": 3357,
      "▁Clo._": 3358,
      "▁to-night": 3359,
      "▁visitor": 3360,
      "ethink": 3361,
      "▁accept": 3362,
      "▁depart": 3363,
      "▁serve": 3364,
      "mpet": 3365,
      "▁patience": 3366,
      "▁frightened": 3367,
      "▁(R.)": 3368,
      "▁wretched": 3369,
      "▁Gentleman:\n": 3370,
      "▁escape": 3371,
      "▁acquaint": 3372,
      "▁Gloucester": 3373,
      "▁Senator:\n": 3374,
      "8:": 3375,
      "BAST": 3376,
      "OW": 3377,
      "bly": 3378,
      "ead": 3379,
      "ience": 3380,
      "▁ven": 3381,
      "▁tort": 3382,
      "▁sigh": 3383,
      "▁mount": 3384,
      "▁music": 3385,
      "▁field": 3386,
      "▁coward": 3387,
      "▁dust": 3388,
      "▁home,": 3389,
      "▁yes,": 3390,
      "▁ph": 3391,
      "▁pur": 3392,
      "▁thri": 3393,
      "▁incl": 3394,
      "▁TH": 3395,
      "▁eat": 3396,
      "▁\"and": 3397,
      "▁store": 3398,
      "▁stop": 3399,
      "▁nerv": 3400,
      "▁Me": 3401,
      "▁all.\n": 3402,
      "▁deg": 3403,
      "▁Chr": 3404,
      "▁_1st": 3405,
      "▁He's": 3406,
      "▁const": 3407,
      "▁uns": 3408,
      "▁also": 3409,
      "▁exam": 3410,
      "▁lords,": 3411,
      "▁however": 3412,
      "itted": 3413,
      "▁Shepherd": 3414,
      "ments": 3415,
      "▁slain": 3416,
      "▁RICHARD:\n": 3417,
      "aces": 3418,
      "▁immedi": 3419,
      "▁cheer": 3420,
      "▁crime": 3421,
      "▁brave": 3422,
      "▁determ": 3423,
      "▁mercy": 3424,
      "▁repeated": 3425,
      "▁affair": 3426,
      "▁somewhere": 3427,
      "▁creature": 3428,
      "▁dinner": 3429,
      "▁deliver": 3430,
      "▁SEBAST": 3431,
      "▁succeed": 3432,
      "▁SEBASTIAN:\n": 3433,
      ",--": 3434,
      ",--\n": 3435,
      "-st": 3436,
      "IT": 3437,
      "fid": 3438,
      "mand": 3439,
      "ses": 3440,
      "ues": 3441,
      "head": 3442,
      "ream": 3443,
      "▁middle": 3444,
      "▁ble": 3445,
      "itude": 3446,
      "▁fash": 3447,
      "▁catch": 3448,
      "▁I'd": 3449,
      "ingham": 3450,
      "▁pal": 3451,
      "aring": 3452,
      "▁gard": 3453,
      "▁Wel": 3454,
      "▁Say": 3455,
      "▁seat": 3456,
      "▁Con": 3457,
      "ols": 3458,
      "ilty": 3459,
      "antage": 3460,
      "ume": 3461,
      "▁now.": 3462,
      "▁didst": 3463,
      "ation.\n": 3464,
      "▁couldn't": 3465,
      "▁floor": 3466,
      "▁chief": 3467,
      "ful,": 3468,
      "ness.": 3469,
      "▁king.\n": 3470,
      "▁king,\n": 3471,
      "▁Joe": 3472,
      "▁coat": 3473,
      "ighbour": 3474,
      "▁See": 3475,
      "▁trib": 3476,
      "▁former": 3477,
      "▁Warwick,": 3478,
      "▁lodging": 3479,
      "▁whispered": 3480,
      "▁Madam,": 3481,
      "▁fancy": 3482,
      "▁conscience": 3483,
      "▁MARCIUS:\n": 3484,
      "▁Camill": 3485,
      "▁_Enter_": 3486,
      "▁Shepherd:\n": 3487,
      "),": 3488,
      "AG": 3489,
      "DELL": 3490,
      "OP": 3491,
      "cher": 3492,
      "come,": 3493,
      "lish": 3494,
      "men,": 3495,
      "rp": 3496,
      "uct": 3497,
      "▁bab": 3498,
      "▁paint": 3499,
      "et,": 3500,
      "▁it,\"": 3501,
      "chool": 3502,
      "▁fors": 3503,
      "▁me;\n": 3504,
      "▁received": 3505,
      "▁him:": 3506,
      "▁Buck": 3507,
      "▁BION": 3508,
      "ion.\n": 3509,
      "▁sol": 3510,
      "other": 3511,
      "▁Cap": 3512,
      "olog": 3513,
      "▁up.": 3514,
      "ilst": 3515,
      "▁amaz": 3516,
      "▁ord": 3517,
      "▁Kate": 3518,
      "▁Thus": 3519,
      "nto": 3520,
      "▁us.\n": 3521,
      "▁offer": 3522,
      "dered": 3523,
      "▁himself.": 3524,
      "▁Jo": 3525,
      "▁slight": 3526,
      "▁Marmel": 3527,
      "▁obe": 3528,
      "▁cope": 3529,
      "▁woman's": 3530,
      "▁talked": 3531,
      "▁moment,": 3532,
      "▁withal": 3533,
      "▁listen": 3534,
      "▁laughing": 3535,
      "▁steps": 3536,
      "▁explain": 3537,
      "▁condition": 3538,
      "▁direct": 3539,
      "▁patient": 3540,
      "▁quarrel": 3541,
      "▁request": 3542,
      "▁occas": 3543,
      "▁calm": 3544,
      "▁Polen": 3545,
      "▁pretty": 3546,
      "▁fixed": 3547,
      "▁President": 3548,
      "DELLO:\n": 3549,
      "▁Buckingham": 3550,
      "▁BIONDELLO:\n": 3551,
      "▁Marmeladov": 3552,
      "'en": 3553,
      "?'": 3554,
      "[5": 3555,
      "chan": 3556,
      "ires": 3557,
      "iers": 3558,
      "iction": 3559,
      "wixt": 3560,
      "iter": 3561,
      "eness": 3562,
      "▁health": 3563,
      "▁lack": 3564,
      "▁you're": 3565,
      "ashed": 3566,
      "▁ele": 3567,
      "▁for,": 3568,
      "▁\"F": 3569,
      "▁stone": 3570,
      "▁revol": 3571,
      "▁Bo": 3572,
      "▁Pe": 3573,
      "▁sole": 3574,
      "▁Chap": 3575,
      "'t,": 3576,
      "▁Norf": 3577,
      "▁unp": 3578,
      "▁out.\n": 3579,
      "▁now!": 3580,
      "▁Vols": 3581,
      "▁begun": 3582,
      "ance.": 3583,
      "▁speak.\n": 3584,
      "▁perform": 3585,
      "▁king's": 3586,
      "▁'twere": 3587,
      "▁Marry,": 3588,
      "▁rage": 3589,
      "▁suddenly,": 3590,
      "▁sworn": 3591,
      "▁myself,": 3592,
      "▁impati": 3593,
      "▁Before": 3594,
      "▁door,": 3595,
      "▁\"Then": 3596,
      "▁house,": 3597,
      "▁Roman": 3598,
      "▁hours": 3599,
      "▁guilty": 3600,
      "▁assure": 3601,
      "▁\"Not": 3602,
      "▁natural": 3603,
      "▁mistake": 3604,
      "▁suppose": 3605,
      "▁drunken": 3606,
      "▁diffic": 3607,
      "▁family": 3608,
      "▁particularly": 3609,
      "▁funer": 3610,
      "-bye": 3611,
      "▁copeck": 3612,
      "▁Chapter": 3613,
      "▁Norfolk": 3614,
      "!'": 3615,
      "-r": 3616,
      "av": 3617,
      "fit": 3618,
      "kin": 3619,
      "sy": 3620,
      "▁tor": 3621,
      "▁wide": 3622,
      "▁mour": 3623,
      "▁ow": 3624,
      "▁fig": 3625,
      "▁dign": 3626,
      "▁to,": 3627,
      "▁lim": 3628,
      "▁pun": 3629,
      "arch": 3630,
      "▁inj": 3631,
      "atic": 3632,
      "ative": 3633,
      "▁Tran": 3634,
      "▁AUM": 3635,
      "lease": 3636,
      "ety": 3637,
      "ly\n": 3638,
      "▁elect": 3639,
      "▁Bl": 3640,
      "▁Pray": 3641,
      "▁Call": 3642,
      "▁De": 3643,
      "▁sharp": 3644,
      "▁vent": 3645,
      "▁proof": 3646,
      "▁here's": 3647,
      "▁speed": 3648,
      "▁Raskolnikov.": 3649,
      "▁spent": 3650,
      "▁thoughts": 3651,
      "▁enemy": 3652,
      "▁heart,": 3653,
      "▁away.\n": 3654,
      "▁head,": 3655,
      "▁admit": 3656,
      "ances": 3657,
      "▁woman,": 3658,
      "▁guess": 3659,
      "▁ANTON": 3660,
      "▁loving": 3661,
      "▁excuse": 3662,
      "▁regard": 3663,
      "▁promise": 3664,
      "ERLE:\n": 3665,
      "▁virtue": 3666,
      "▁completely": 3667,
      "▁trembling": 3668,
      "▁1.": 3669,
      "▁pawn": 3670,
      "▁fetch": 3671,
      "▁ancient": 3672,
      "▁gloom": 3673,
      "▁effort": 3674,
      "▁AUMERLE:\n": 3675,
      "▁ANTONIO:\n": 3676,
      ",'": 3677,
      "LET": 3678,
      "ZAL": 3679,
      "[6": 3680,
      "_\n": 3681,
      "bod": 3682,
      "ny": 3683,
      "she": 3684,
      "ua": 3685,
      "ug": 3686,
      "ze": 3687,
      "▁3": 3688,
      "hem": 3689,
      "happ": 3690,
      "▁base": 3691,
      "▁baw": 3692,
      "er.": 3693,
      "▁fle": 3694,
      "▁curse": 3695,
      "▁died": 3696,
      "▁done,": 3697,
      "▁loss": 3698,
      "▁latter": 3699,
      "ary,": 3700,
      "▁thick": 3701,
      "omp": 3702,
      "▁beast": 3703,
      "▁it.\"\n": 3704,
      "▁evil": 3705,
      "▁for\n": 3706,
      "▁reached": 3707,
      "▁week": 3708,
      "▁Par": 3709,
      "▁Must": 3710,
      "raw": 3711,
      "▁defend": 3712,
      "▁Lanc": 3713,
      "▁GON": 3714,
      "▁shed": 3715,
      "▁neighbour": 3716,
      "▁vice": 3717,
      "▁manner": 3718,
      "▁goes": 3719,
      "▁wouldn't": 3720,
      "...\"": 3721,
      "▁jump": 3722,
      "▁spend": 3723,
      "▁arg": 3724,
      "▁plan": 3725,
      "▁peasant": 3726,
      "▁telling": 3727,
      "▁perhap": 3728,
      "▁sland": 3729,
      "▁asking": 3730,
      "▁stands": 3731,
      "▁men,": 3732,
      "▁people,": 3733,
      "▁children,": 3734,
      "▁foolish": 3735,
      "▁Only": 3736,
      "▁stairs": 3737,
      "▁observ": 3738,
      "▁student": 3739,
      "▁cried,": 3740,
      "▁title": 3741,
      "▁enemies": 3742,
      "▁Bianc": 3743,
      "▁Because": 3744,
      "ZALO:\n": 3745,
      "▁Lancaster": 3746,
      "▁GONZALO:\n": 3747,
      "ait": 3748,
      "joy": 3749,
      "uish": 3750,
      "xit": 3751,
      "▁'s": 3752,
      "ine,": 3753,
      "▁wise": 3754,
      "▁bank": 3755,
      "▁odd": 3756,
      "er's": 3757,
      "erman": 3758,
      "▁cun": 3759,
      "ing;": 3760,
      "▁laughter": 3761,
      "▁purs": 3762,
      "▁threat": 3763,
      "▁Tw": 3764,
      "▁Tru": 3765,
      "sequ": 3766,
      "▁eight": 3767,
      "irth": 3768,
      "▁HER": 3769,
      "▁receive": 3770,
      "▁Rich": 3771,
      "▁Pom": 3772,
      "▁Their": 3773,
      "▁lift": 3774,
      "▁lived": 3775,
      "▁all.": 3776,
      "▁super": 3777,
      "▁this?\n": 3778,
      "▁Ye": 3779,
      "thy": 3780,
      "▁out.": 3781,
      "osing": 3782,
      "▁'W": 3783,
      "▁Raskolnikov.\n": 3784,
      "▁prot": 3785,
      "itten": 3786,
      "▁fles": 3787,
      "▁cho": 3788,
      "▁desper": 3789,
      "▁away.": 3790,
      "▁We'll": 3791,
      "▁scene": 3792,
      "▁'twas": 3793,
      "▁Mark": 3794,
      "▁rap": 3795,
      "▁prayers": 3796,
      "▁yourself,": 3797,
      "▁loves": 3798,
      "▁I.1": 3799,
      "▁priest": 3800,
      "▁running": 3801,
      "▁CLAU": 3802,
      "▁deny": 3803,
      "▁vex": 3804,
      "▁pulled": 3805,
      "▁[_Exit": 3806,
      "_;]": 3807,
      "▁positively": 3808,
      "▁trans": 3809,
      "▁avoid": 3810,
      "▁Claudio": 3811,
      "▁CLAUD": 3812,
      "MION": 3813,
      "with": 3814,
      "▁aim": 3815,
      "ining": 3816,
      "oup": 3817,
      "hamed": 3818,
      "▁match": 3819,
      "▁fre": 3820,
      "onour": 3821,
      "▁da": 3822,
      "▁lar": 3823,
      "▁pet": 3824,
      "▁you:": 3825,
      "ass,": 3826,
      "▁thirty": 3827,
      "▁inform": 3828,
      "▁haven": 3829,
      "▁Au": 3830,
      "▁it?\"\n": 3831,
      "▁eld": 3832,
      "▁on.": 3833,
      "▁ashamed": 3834,
      "▁soci": 3835,
      "▁Could": 3836,
      "▁CLIF": 3837,
      "▁do,": 3838,
      "▁LOR": 3839,
      "▁Never": 3840,
      "▁vile": 3841,
      "ument": 3842,
      "▁Think": 3843,
      "▁more.\n": 3844,
      "el,": 3845,
      "▁come.\n": 3846,
      "▁timid": 3847,
      "▁beggar": 3848,
      "▁love,\n": 3849,
      "▁word,": 3850,
      "▁Petru": 3851,
      "▁kingdom": 3852,
      "bled": 3853,
      "ON:\n": 3854,
      "▁design": 3855,
      "▁precious": 3856,
      "▁slave": 3857,
      "▁hearing": 3858,
      "▁obvious": 3859,
      "▁\"Ah,": 3860,
      "▁troubl": 3861,
      "inted": 3862,
      "▁Being": 3863,
      "▁Let's": 3864,
      "▁followed": 3865,
      "▁chest": 3866,
      "▁Lucentio": 3867,
      "▁meeting": 3868,
      "▁insult": 3869,
      "▁English": 3870,
      "▁drop": 3871,
      "▁judge": 3872,
      "▁dressed": 3873,
      "▁\"Good": 3874,
      "▁addressing": 3875,
      "▁Biden": 3876,
      "▁PRINCE": 3877,
      "ronic": 3878,
      "▁public": 3879,
      "▁probably": 3880,
      "▁empty": 3881,
      "▁HERMION": 3882,
      "▁flesh": 3883,
      "▁CLAUDIO:\n": 3884,
      "▁CLIFFORD:\n": 3885,
      "▁LORD": 3886,
      "▁HERMIONE:\n": 3887,
      "DA:\n": 3888,
      "HN": 3889,
      "OHN": 3890,
      "ky": 3891,
      "mber": 3892,
      "rain": 3893,
      "yond": 3894,
      "—\"": 3895,
      "▁wine": 3896,
      "rey": 3897,
      "▁mortal": 3898,
      "▁dry": 3899,
      "▁pow": 3900,
      "▁pill": 3901,
      "▁phr": 3902,
      "▁gain": 3903,
      "▁Ap": 3904,
      "lya": 3905,
      "▁it,\n": 3906,
      "▁ur": 3907,
      "▁Saint": 3908,
      "vert": 3909,
      "▁as\n": 3910,
      "▁kit": 3911,
      "▁Merc": 3912,
      "▁Lady": 3913,
      "olute": 3914,
      "▁Fren": 3915,
      "▁conc": 3916,
      "ushed": 3917,
      "ress,": 3918,
      "▁EL": 3919,
      "▁Kat": 3920,
      "▁were,": 3921,
      "▁aloud": 3922,
      "▁alone,": 3923,
      "▁alarm": 3924,
      "▁Whom": 3925,
      "els": 3926,
      "▁pled": 3927,
      "▁affect": 3928,
      "▁sir,\n": 3929,
      "▁love.\n": 3930,
      "▁feast": 3931,
      "▁bride": 3932,
      "▁env": 3933,
      "▁nothing.": 3934,
      "▁still,": 3935,
      "▁last,": 3936,
      "▁sli": 3937,
      "▁\"Yes": 3938,
      "▁consul": 3939,
      "▁write": 3940,
      "▁back,": 3941,
      "▁Ivanovna's": 3942,
      "▁understood": 3943,
      "▁showed": 3944,
      "▁terms": 3945,
      "▁attent": 3946,
      "RANDA:\n": 3947,
      "▁beginning": 3948,
      "▁highness": 3949,
      "▁letters": 3950,
      "ogn": 3951,
      "▁\"Don't": 3952,
      "▁crack": 3953,
      "▁expression": 3954,
      "▁conviction": 3955,
      "▁Look,": 3956,
      "▁judgment": 3957,
      "▁evidence": 3958,
      "▁moon": 3959,
      "▁MIRANDA:\n": 3960,
      "▁sorry": 3961,
      "▁Aufid": 3962,
      "▁Petruch": 3963,
      ".'\n": 3964,
      "ILI": 3965,
      "SON:\n": 3966,
      "crib": 3967,
      "hn": 3968,
      "hile": 3969,
      "ior": 3970,
      "ious,": 3971,
      "lu": 3972,
      "ners": 3973,
      "well,": 3974,
      "▁treat": 3975,
      "▁fine": 3976,
      "orous": 3977,
      "▁yellow": 3978,
      "▁pat": 3979,
      "▁you!": 3980,
      "▁oft": 3981,
      "ane": 3982,
      "▁bew": 3983,
      "▁gone,": 3984,
      "▁gates": 3985,
      "ets": 3986,
      "▁equ": 3987,
      "▁HAM": 3988,
      "▁mere": 3989,
      "▁reb": 3990,
      "▁kn": 3991,
      "amm": 3992,
      "▁anger": 3993,
      "raord": 3994,
      "▁debt": 3995,
      "peare": 3996,
      "▁_W": 3997,
      "iliar": 3998,
      "aken": 3999
    },
    "merges": [
      [
        "▁",
        "t"
      ],
      [
        "h",
        "e"
      ],
      [
        "▁",
        "a"
      ],
      [
        "i",
        "n"
      ],
      [
        "▁",
        "s"
      ],
      [
        "o",
        "u"
      ],
      [
        "▁",
        "w"
      ],
      [
        "r",
        "e"
      ],
      [
        "h",
        "a"
      ],
      [
        "▁t",
        "he"
      ],
      [
        "▁",
        "m"
      ],
      [
        "n",
        "d"
      ],
      [
        "▁",
        "b"
      ],
      [
        "▁",
        "o"
      ],
      [
        "e",
        "r"
      ],
      [
        "i",
        "t"
      ],
      [
        "i",
        "s"
      ],
      [
        "▁",
        "f"
      ],
      [
        "▁",
        "c"
      ],
      [
        "▁",
        "\n"
      ],
      [
        "e",
        "n"
      ],
      [
        "o",
        "r"
      ],
      [
        "▁",
        "I"
      ],
      [
        "l",
        "l"
      ],
      [
        "o",
        "n"
      ],
      [
        "▁",
        "d"
      ],
      [
        "▁t",
        "o"
      ],
      [
        "in",
        "g"
      ],
      [
        "e",
        "d"
      ],
      [
        "▁",
        "he"
      ],
      [
        "▁",
        "h"
      ],
      [
        "▁",
        "l"
      ],
      [
        "▁",
        "y"
      ],
      [
        "▁a",
        "nd"
      ],
      [
        "n",
        "o"
      ],
      [
        "e",
        "s"
      ],
      [
        "▁",
        "p"
      ],
      [
        "▁y",
        "ou"
      ],
      [
        "ha",
        "t"
      ],
      [
        ".",
        "\n"
      ],
      [
        "a",
        "r"
      ],
      [
        ":",
        "\n"
      ],
      [
        "▁o",
        "f"
      ],
      [
        "a",
        "s"
      ],
      [
        "a",
        "n"
      ],
      [
        "▁t",
        "h"
      ],
      [
        "o",
        "m"
      ],
      [
        "▁",
        "in"
      ],
      [
        "a",
        "t"
      ],
      [
        "▁",
        "no"
      ],
      [
        "▁",
        "ha"
      ],
      [
        "▁b",
        "e"
      ],
      [
        "v",
        "e"
      ],
      [
        "▁",
        "g"
      ],
      [
        "▁",
        "T"
      ],
      [
        "s",
        "t"
      ],
      [
        "▁",
        "A"
      ],
      [
        ",",
        "\n"
      ],
      [
        "l",
        "e"
      ],
      [
        "i",
        "m"
      ],
      [
        "u",
        "t"
      ],
      [
        "c",
        "e"
      ],
      [
        "s",
        "e"
      ],
      [
        "a",
        "y"
      ],
      [
        "e",
        "t"
      ],
      [
        "▁t",
        "hat"
      ],
      [
        "l",
        "y"
      ],
      [
        "o",
        "w"
      ],
      [
        "l",
        "d"
      ],
      [
        "▁",
        "it"
      ],
      [
        "g",
        "h"
      ],
      [
        "▁",
        "e"
      ],
      [
        "▁no",
        "t"
      ],
      [
        "i",
        "d"
      ],
      [
        "it",
        "h"
      ],
      [
        "o",
        "o"
      ],
      [
        "i",
        "r"
      ],
      [
        "▁",
        "W"
      ],
      [
        "▁",
        "u"
      ],
      [
        "c",
        "h"
      ],
      [
        "▁o",
        "n"
      ],
      [
        "en",
        "t"
      ],
      [
        ".",
        "."
      ],
      [
        "▁m",
        "y"
      ],
      [
        "▁",
        "H"
      ],
      [
        "▁f",
        "or"
      ],
      [
        "▁",
        "\""
      ],
      [
        "▁s",
        "t"
      ],
      [
        "▁w",
        "ith"
      ],
      [
        "'",
        "s"
      ],
      [
        "▁",
        "S"
      ],
      [
        "▁m",
        "e"
      ],
      [
        "▁",
        "is"
      ],
      [
        "r",
        "o"
      ],
      [
        "▁h",
        "is"
      ],
      [
        "r",
        "i"
      ],
      [
        "▁w",
        "as"
      ],
      [
        "▁",
        "re"
      ],
      [
        "▁w",
        "e"
      ],
      [
        "k",
        "e"
      ],
      [
        "▁h",
        "im"
      ],
      [
        "a",
        "d"
      ],
      [
        "gh",
        "t"
      ],
      [
        "i",
        "ll"
      ],
      [
        "a",
        "l"
      ],
      [
        "v",
        "er"
      ],
      [
        "he",
        "r"
      ],
      [
        "▁a",
        "s"
      ],
      [
        "▁",
        "B"
      ],
      [
        "▁",
        "n"
      ],
      [
        "i",
        "on"
      ],
      [
        "▁",
        "R"
      ],
      [
        "om",
        "e"
      ],
      [
        "▁he",
        "r"
      ],
      [
        "ou",
        "r"
      ],
      [
        "▁a",
        "t"
      ],
      [
        "▁",
        "P"
      ],
      [
        "t",
        "er"
      ],
      [
        "▁",
        "k"
      ],
      [
        "▁A",
        "nd"
      ],
      [
        "u",
        "r"
      ],
      [
        "ou",
        "ld"
      ],
      [
        "a",
        "m"
      ],
      [
        "▁you",
        "r"
      ],
      [
        "▁ha",
        "ve"
      ],
      [
        "▁",
        "M"
      ],
      [
        "▁s",
        "o"
      ],
      [
        "▁T",
        "he"
      ],
      [
        "▁l",
        "i"
      ],
      [
        "a",
        "in"
      ],
      [
        "▁th",
        "ou"
      ],
      [
        "▁w",
        "h"
      ],
      [
        "o",
        "t"
      ],
      [
        "▁s",
        "e"
      ],
      [
        "ou",
        "t"
      ],
      [
        "s",
        ","
      ],
      [
        "c",
        "k"
      ],
      [
        "▁a",
        "n"
      ],
      [
        "c",
        "t"
      ],
      [
        "▁a",
        "ll"
      ],
      [
        "o",
        "re"
      ],
      [
        "r",
        "a"
      ],
      [
        "▁d",
        "e"
      ],
      [
        "▁",
        "C"
      ],
      [
        "▁s",
        "u"
      ],
      [
        "▁d",
        "o"
      ],
      [
        "▁b",
        "ut"
      ],
      [
        "▁",
        "L"
      ],
      [
        "▁th",
        "is"
      ],
      [
        "▁",
        "O"
      ],
      [
        "?",
        "\n"
      ],
      [
        "p",
        "e"
      ],
      [
        "o",
        "l"
      ],
      [
        "▁ha",
        "d"
      ],
      [
        "▁",
        "_"
      ],
      [
        "\"",
        "\n"
      ],
      [
        "a",
        "nd"
      ],
      [
        "es",
        "s"
      ],
      [
        "oo",
        "d"
      ],
      [
        "▁H",
        "e"
      ],
      [
        "or",
        "d"
      ],
      [
        "▁",
        "G"
      ],
      [
        "'",
        "t"
      ],
      [
        ";",
        "\n"
      ],
      [
        "▁s",
        "he"
      ],
      [
        "i",
        "f"
      ],
      [
        "o",
        "v"
      ],
      [
        "e",
        ","
      ],
      [
        "▁",
        "F"
      ],
      [
        "y",
        ","
      ],
      [
        "r",
        "u"
      ],
      [
        "'",
        "d"
      ],
      [
        "▁a",
        "re"
      ],
      [
        "▁",
        "N"
      ],
      [
        "▁w",
        "ill"
      ],
      [
        "▁",
        "D"
      ],
      [
        "es",
        "t"
      ],
      [
        "▁",
        "Y"
      ],
      [
        "r",
        "om"
      ],
      [
        "▁s",
        "h"
      ],
      [
        "l",
        "f"
      ],
      [
        "i",
        "c"
      ],
      [
        "t",
        "h"
      ],
      [
        "▁u",
        "p"
      ],
      [
        "i",
        "l"
      ],
      [
        "▁c",
        "on"
      ],
      [
        "e",
        "ll"
      ],
      [
        "▁w",
        "hat"
      ],
      [
        "▁s",
        "ha"
      ],
      [
        "O",
        ":\n"
      ],
      [
        "an",
        "t"
      ],
      [
        "q",
        "u"
      ],
      [
        "u",
        "s"
      ],
      [
        "E",
        "N"
      ],
      [
        "a",
        "k"
      ],
      [
        "u",
        "l"
      ],
      [
        "e",
        "m"
      ],
      [
        "b",
        "le"
      ],
      [
        "ar",
        "d"
      ],
      [
        "a",
        "ke"
      ],
      [
        "g",
        "e"
      ],
      [
        "▁b",
        "y"
      ],
      [
        "n",
        "i"
      ],
      [
        "▁f",
        "a"
      ],
      [
        "ou",
        "s"
      ],
      [
        "▁n",
        "e"
      ],
      [
        "u",
        "st"
      ],
      [
        "!",
        "\n"
      ],
      [
        "I",
        "N"
      ],
      [
        "▁f",
        "rom"
      ],
      [
        "t",
        "her"
      ],
      [
        "re",
        "d"
      ],
      [
        "v",
        "en"
      ],
      [
        "se",
        "lf"
      ],
      [
        "no",
        "w"
      ],
      [
        "re",
        "s"
      ],
      [
        "oo",
        "k"
      ],
      [
        "▁",
        "v"
      ],
      [
        "▁m",
        "an"
      ],
      [
        "▁B",
        "ut"
      ],
      [
        "▁a",
        "m"
      ],
      [
        ".",
        "_"
      ],
      [
        "ha",
        "n"
      ],
      [
        "S",
        ":\n"
      ],
      [
        "i",
        "ght"
      ],
      [
        "▁w",
        "he"
      ],
      [
        "▁o",
        "r"
      ],
      [
        "a",
        "ll"
      ],
      [
        "t",
        "e"
      ],
      [
        "▁the",
        "m"
      ],
      [
        "▁g",
        "o"
      ],
      [
        "on",
        "e"
      ],
      [
        "ar",
        "t"
      ],
      [
        "▁u",
        "n"
      ],
      [
        "▁k",
        "now"
      ],
      [
        "o",
        "st"
      ],
      [
        "as",
        "t"
      ],
      [
        "▁the",
        "re"
      ],
      [
        "ver",
        "y"
      ],
      [
        "▁",
        "E"
      ],
      [
        "i",
        "ve"
      ],
      [
        "u",
        "m"
      ],
      [
        "▁s",
        "a"
      ],
      [
        "▁",
        "K"
      ],
      [
        "▁w",
        "ould"
      ],
      [
        "A",
        "R"
      ],
      [
        "in",
        "d"
      ],
      [
        "p",
        "p"
      ],
      [
        "..",
        "."
      ],
      [
        "▁we",
        "re"
      ],
      [
        "▁th",
        "y"
      ],
      [
        "▁T",
        "h"
      ],
      [
        "▁c",
        "om"
      ],
      [
        "o",
        "d"
      ],
      [
        "▁the",
        "y"
      ],
      [
        "▁a",
        "l"
      ],
      [
        "▁W",
        "h"
      ],
      [
        "▁a",
        "g"
      ],
      [
        "▁",
        "out"
      ],
      [
        "a",
        "u"
      ],
      [
        "i",
        "ch"
      ],
      [
        "▁no",
        "w"
      ],
      [
        "on",
        "g"
      ],
      [
        "▁sha",
        "ll"
      ],
      [
        "e",
        "ar"
      ],
      [
        "▁to",
        "o"
      ],
      [
        "I",
        "O:\n"
      ],
      [
        "▁e",
        "x"
      ],
      [
        "▁",
        "r"
      ],
      [
        "▁m",
        "ore"
      ],
      [
        "ow",
        "n"
      ],
      [
        "▁",
        "qu"
      ],
      [
        "▁",
        "if"
      ],
      [
        "▁c",
        "an"
      ],
      [
        "e",
        "l"
      ],
      [
        "▁a",
        "b"
      ],
      [
        "is",
        "t"
      ],
      [
        "i",
        "e"
      ],
      [
        "▁",
        "our"
      ],
      [
        "▁T",
        "o"
      ],
      [
        "o",
        "s"
      ],
      [
        "am",
        "e"
      ],
      [
        "▁on",
        "e"
      ],
      [
        "▁",
        "j"
      ],
      [
        "ed",
        ","
      ],
      [
        "e",
        "p"
      ],
      [
        "▁l",
        "ook"
      ],
      [
        "▁l",
        "e"
      ],
      [
        "f",
        "e"
      ],
      [
        "'",
        "ll"
      ],
      [
        "in",
        "k"
      ],
      [
        "▁d",
        "id"
      ],
      [
        "▁s",
        "ay"
      ],
      [
        "h",
        "ing"
      ],
      [
        "]",
        "\n"
      ],
      [
        "▁g",
        "ood"
      ],
      [
        "▁T",
        "hat"
      ],
      [
        "es",
        ","
      ],
      [
        "or",
        "t"
      ],
      [
        "er",
        "s"
      ],
      [
        "a",
        "re"
      ],
      [
        "U",
        "S:\n"
      ],
      [
        "i",
        "g"
      ],
      [
        "▁c",
        "ome"
      ],
      [
        "▁li",
        "ke"
      ],
      [
        "k",
        "ov"
      ],
      [
        "▁W",
        "hat"
      ],
      [
        "▁b",
        "l"
      ],
      [
        "▁t",
        "im"
      ],
      [
        "k",
        "ol"
      ],
      [
        "r",
        "y"
      ],
      [
        "▁w",
        "or"
      ],
      [
        "at",
        "ion"
      ],
      [
        "ni",
        "kov"
      ],
      [
        "ou",
        "nd"
      ],
      [
        ",",
        "\""
      ],
      [
        "▁s",
        "ome"
      ],
      [
        "▁l",
        "o"
      ],
      [
        "i",
        "ce"
      ],
      [
        "re",
        "at"
      ],
      [
        "n",
        "a"
      ],
      [
        "n",
        "t"
      ],
      [
        "▁the",
        "n"
      ],
      [
        "at",
        "e"
      ],
      [
        "▁",
        "'"
      ],
      [
        "▁p",
        "r"
      ],
      [
        "▁wh",
        "o"
      ],
      [
        "▁Y",
        "ou"
      ],
      [
        "▁he",
        "re"
      ],
      [
        "▁ag",
        "ain"
      ],
      [
        "u",
        "re"
      ],
      [
        "▁be",
        "en"
      ],
      [
        "p",
        "t"
      ],
      [
        "f",
        "ore"
      ],
      [
        "in",
        "e"
      ],
      [
        "▁s",
        "pe"
      ],
      [
        "as",
        "kol"
      ],
      [
        "askol",
        "nikov"
      ],
      [
        "▁",
        "V"
      ],
      [
        ".",
        "\"\n"
      ],
      [
        "▁R",
        "askolnikov"
      ],
      [
        "▁u",
        "s"
      ],
      [
        "o",
        "nd"
      ],
      [
        "▁p",
        "ro"
      ],
      [
        "t",
        "o"
      ],
      [
        "w",
        "ay"
      ],
      [
        "c",
        "i"
      ],
      [
        "▁l",
        "ord"
      ],
      [
        "▁h",
        "ow"
      ],
      [
        "▁a",
        "r"
      ],
      [
        "a",
        "ve"
      ],
      [
        "▁se",
        "e"
      ],
      [
        "E",
        "R"
      ],
      [
        "▁the",
        "ir"
      ],
      [
        "at",
        "her"
      ],
      [
        "IN",
        "G"
      ],
      [
        "U",
        "C"
      ],
      [
        "-",
        "-"
      ],
      [
        "▁s",
        "p"
      ],
      [
        "d",
        "d"
      ],
      [
        "▁m",
        "ust"
      ],
      [
        "en",
        "ce"
      ],
      [
        "▁m",
        "ad"
      ],
      [
        "▁t",
        "han"
      ],
      [
        "O",
        "R"
      ],
      [
        "n",
        "g"
      ],
      [
        "▁l",
        "et"
      ],
      [
        "▁p",
        "l"
      ],
      [
        "oo",
        "t"
      ],
      [
        "▁wh",
        "ich"
      ],
      [
        "▁m",
        "ay"
      ],
      [
        "▁whe",
        "n"
      ],
      [
        "ing",
        ","
      ],
      [
        "id",
        "e"
      ],
      [
        "▁the",
        "e"
      ],
      [
        "▁",
        "ro"
      ],
      [
        "at",
        "h"
      ],
      [
        "E",
        "T"
      ],
      [
        "n",
        "e"
      ],
      [
        "..",
        ".."
      ],
      [
        "▁ha",
        "nd"
      ],
      [
        "▁I",
        "t"
      ],
      [
        "▁",
        "["
      ],
      [
        "it",
        "t"
      ],
      [
        "▁c",
        "ould"
      ],
      [
        "▁sh",
        "ould"
      ],
      [
        "▁\"",
        "I"
      ],
      [
        "is",
        "h"
      ],
      [
        "r",
        "ow"
      ],
      [
        "▁",
        "very"
      ],
      [
        "▁an",
        "y"
      ],
      [
        "o",
        "se"
      ],
      [
        "▁sa",
        "id"
      ],
      [
        "a",
        "ble"
      ],
      [
        "ou",
        "gh"
      ],
      [
        "▁F",
        "or"
      ],
      [
        "▁ab",
        "out"
      ],
      [
        "▁a",
        "f"
      ],
      [
        "ir",
        "st"
      ],
      [
        "▁",
        "hat"
      ],
      [
        "▁f",
        "l"
      ],
      [
        "▁of",
        "f"
      ],
      [
        "▁be",
        "g"
      ],
      [
        "v",
        "na"
      ],
      [
        "i",
        "a"
      ],
      [
        "he",
        "d"
      ],
      [
        "▁I",
        "'ll"
      ],
      [
        "a",
        "g"
      ],
      [
        "ur",
        "n"
      ],
      [
        "an",
        "ce"
      ],
      [
        "▁c",
        "h"
      ],
      [
        "▁tim",
        "e"
      ],
      [
        "▁m",
        "ake"
      ],
      [
        "nd",
        "er"
      ],
      [
        "o",
        ","
      ],
      [
        "it",
        "y"
      ],
      [
        "on",
        "'t"
      ],
      [
        "w",
        "e"
      ],
      [
        "▁s",
        "ir"
      ],
      [
        "▁p",
        "o"
      ],
      [
        "ri",
        "e"
      ],
      [
        "▁we",
        "ll"
      ],
      [
        "w",
        "n"
      ],
      [
        "ot",
        "h"
      ],
      [
        "res",
        "s"
      ],
      [
        "▁su",
        "ch"
      ],
      [
        "A",
        ":\n"
      ],
      [
        "▁d",
        "is"
      ],
      [
        "a",
        "ck"
      ],
      [
        "▁t",
        "w"
      ],
      [
        "o",
        "p"
      ],
      [
        "▁you",
        ","
      ],
      [
        "?",
        "\"\n"
      ],
      [
        "▁th",
        "ink"
      ],
      [
        "▁d",
        "ay"
      ],
      [
        "f",
        "ul"
      ],
      [
        "o",
        "ld"
      ],
      [
        "▁S",
        "he"
      ],
      [
        "▁lo",
        "ve"
      ],
      [
        "i",
        "ck"
      ],
      [
        ".",
        "]\n"
      ],
      [
        "it",
        "e"
      ],
      [
        "▁W",
        "he"
      ],
      [
        "▁p",
        "e"
      ],
      [
        "▁b",
        "ro"
      ],
      [
        "▁spe",
        "ak"
      ],
      [
        "a",
        "no"
      ],
      [
        "▁e",
        "y"
      ],
      [
        "ly",
        ","
      ],
      [
        "▁f",
        "e"
      ],
      [
        "ri",
        "ght"
      ],
      [
        "▁M",
        "y"
      ],
      [
        "er",
        "v"
      ],
      [
        "it",
        "ch"
      ],
      [
        "▁thou",
        "gh"
      ],
      [
        "O",
        "L"
      ],
      [
        "A",
        "N"
      ],
      [
        "▁b",
        "r"
      ],
      [
        "im",
        "p"
      ],
      [
        "d",
        "e"
      ],
      [
        "▁c",
        "l"
      ],
      [
        "▁in",
        "to"
      ],
      [
        "▁\"",
        "W"
      ],
      [
        "as",
        "s"
      ],
      [
        "b",
        "er"
      ],
      [
        "▁t",
        "ell"
      ],
      [
        "I",
        "C"
      ],
      [
        "a",
        "z"
      ],
      [
        "▁p",
        "er"
      ],
      [
        "▁be",
        "fore"
      ],
      [
        "s",
        ",\n"
      ],
      [
        "al",
        "k"
      ],
      [
        "▁up",
        "on"
      ],
      [
        "▁w",
        "ord"
      ],
      [
        "▁d",
        "own"
      ],
      [
        "a",
        "p"
      ],
      [
        "▁thou",
        "ght"
      ],
      [
        "ri",
        "ed"
      ],
      [
        "u",
        "ll"
      ],
      [
        "u",
        "e"
      ],
      [
        "▁A",
        "s"
      ],
      [
        "▁",
        "en"
      ],
      [
        "▁I",
        "I"
      ],
      [
        "▁on",
        "ly"
      ],
      [
        "▁K",
        "ING"
      ],
      [
        "i",
        "le"
      ],
      [
        "u",
        "ch"
      ],
      [
        "w",
        "ard"
      ],
      [
        "i",
        "ld"
      ],
      [
        "oot",
        "no"
      ],
      [
        "h",
        "in"
      ],
      [
        "ootno",
        "te"
      ],
      [
        "▁ha",
        "s"
      ],
      [
        "F",
        "ootnote"
      ],
      [
        "▁[",
        "Footnote"
      ],
      [
        "m",
        "an"
      ],
      [
        "▁P",
        "et"
      ],
      [
        "a",
        "ce"
      ],
      [
        "▁f",
        "ather"
      ],
      [
        "▁be",
        "t"
      ],
      [
        "n",
        "ess"
      ],
      [
        "s",
        "."
      ],
      [
        "s",
        ".\n"
      ],
      [
        "AR",
        "D"
      ],
      [
        "▁him",
        "self"
      ],
      [
        "c",
        "c"
      ],
      [
        "I",
        "US:\n"
      ],
      [
        "om",
        "et"
      ],
      [
        "r",
        "an"
      ],
      [
        "▁me",
        ","
      ],
      [
        "▁I",
        "f"
      ],
      [
        "▁he",
        "art"
      ],
      [
        "▁e",
        "very"
      ],
      [
        "▁w",
        "ay"
      ],
      [
        "▁I",
        "n"
      ],
      [
        "▁k",
        "ing"
      ],
      [
        "b",
        "l"
      ],
      [
        "▁on",
        "ce"
      ],
      [
        "▁mad",
        "e"
      ],
      [
        "O",
        "N"
      ],
      [
        "S",
        "T"
      ],
      [
        "s",
        "\n"
      ],
      [
        "▁e",
        "ven"
      ],
      [
        "i",
        "re"
      ],
      [
        "m",
        "ent"
      ],
      [
        "▁c",
        "ha"
      ],
      [
        "▁re",
        "m"
      ],
      [
        "▁",
        "J"
      ],
      [
        "▁u",
        "nder"
      ],
      [
        "▁d",
        "es"
      ],
      [
        "ad",
        "y"
      ],
      [
        "?",
        "\""
      ],
      [
        "re",
        "e"
      ],
      [
        "▁o",
        "ver"
      ],
      [
        "i",
        "es"
      ],
      [
        "itt",
        "le"
      ],
      [
        "▁m",
        "ot"
      ],
      [
        "▁o",
        "ther"
      ],
      [
        "or",
        "n"
      ],
      [
        "f",
        "t"
      ],
      [
        "▁s",
        "omet"
      ],
      [
        "▁g",
        "ra"
      ],
      [
        "ig",
        "n"
      ],
      [
        "y",
        "a"
      ],
      [
        "▁t",
        "ake"
      ],
      [
        "u",
        "n"
      ],
      [
        "▁th",
        "ing"
      ],
      [
        "all",
        "y"
      ],
      [
        "▁a",
        "way"
      ],
      [
        "at",
        "er"
      ],
      [
        "▁l",
        "ittle"
      ],
      [
        "▁hat",
        "h"
      ],
      [
        "▁m",
        "ar"
      ],
      [
        "E",
        ":\n"
      ],
      [
        "▁g",
        "reat"
      ],
      [
        "ano",
        "vna"
      ],
      [
        "▁m",
        "uch"
      ],
      [
        "▁W",
        "e"
      ],
      [
        "▁whe",
        "re"
      ],
      [
        "▁",
        "("
      ],
      [
        "▁t",
        "ru"
      ],
      [
        "▁s",
        "c"
      ],
      [
        "i",
        "ous"
      ],
      [
        "▁",
        "ru"
      ],
      [
        "h",
        ","
      ],
      [
        "ro",
        "v"
      ],
      [
        "▁S",
        "o"
      ],
      [
        "as",
        "e"
      ],
      [
        "▁not",
        "hing"
      ],
      [
        "▁S",
        "on"
      ],
      [
        "▁_",
        "H"
      ],
      [
        "▁o",
        "wn"
      ],
      [
        "▁h",
        "on"
      ],
      [
        "▁y",
        "et"
      ],
      [
        "ent",
        "le"
      ],
      [
        "er",
        "t"
      ],
      [
        "▁w",
        "om"
      ],
      [
        "▁m",
        "ost"
      ],
      [
        "▁p",
        "re"
      ],
      [
        "▁p",
        "art"
      ],
      [
        "▁",
        "ke"
      ],
      [
        "▁the",
        "se"
      ],
      [
        "▁se",
        "em"
      ],
      [
        "▁me",
        "an"
      ],
      [
        "▁st",
        "ill"
      ],
      [
        "▁him",
        ","
      ],
      [
        "▁it",
        ","
      ],
      [
        "ct",
        "ion"
      ],
      [
        "▁Son",
        "ia"
      ],
      [
        "in",
        "ce"
      ],
      [
        "is",
        "e"
      ],
      [
        "▁g",
        "ive"
      ],
      [
        "▁mot",
        "her"
      ],
      [
        "▁he",
        "ad"
      ],
      [
        "▁l",
        "ast"
      ],
      [
        "▁j",
        "ust"
      ],
      [
        "▁o",
        "ld"
      ],
      [
        "▁de",
        "ath"
      ],
      [
        "i",
        "v"
      ],
      [
        "er",
        ","
      ],
      [
        "▁e",
        "ar"
      ],
      [
        "a",
        "ge"
      ],
      [
        "▁s",
        "l"
      ],
      [
        "dd",
        "en"
      ],
      [
        "▁w",
        "ant"
      ],
      [
        "▁bro",
        "ther"
      ],
      [
        "▁",
        "'t"
      ],
      [
        "▁as",
        "k"
      ],
      [
        "n",
        "'t"
      ],
      [
        "▁con",
        "t"
      ],
      [
        "au",
        "se"
      ],
      [
        "▁he",
        "ar"
      ],
      [
        "▁The",
        "re"
      ],
      [
        "c",
        "l"
      ],
      [
        "ay",
        ","
      ],
      [
        "▁fa",
        "ce"
      ],
      [
        "▁w",
        "ent"
      ],
      [
        "▁Th",
        "is"
      ],
      [
        "E",
        "L"
      ],
      [
        "▁d",
        "on't"
      ],
      [
        "▁M",
        "ar"
      ],
      [
        "!",
        "\"\n"
      ],
      [
        "▁l",
        "ong"
      ],
      [
        "▁t",
        "urn"
      ],
      [
        "▁G",
        "od"
      ],
      [
        "▁H",
        "ow"
      ],
      [
        "▁",
        "ra"
      ],
      [
        "rie",
        "nd"
      ],
      [
        "▁\"",
        "Y"
      ],
      [
        "au",
        "ght"
      ],
      [
        "p",
        "s"
      ],
      [
        "▁con",
        "s"
      ],
      [
        "▁ne",
        "ver"
      ],
      [
        "▁af",
        "ter"
      ],
      [
        "▁s",
        "m"
      ],
      [
        "▁f",
        "irst"
      ],
      [
        "▁he",
        "a"
      ],
      [
        "f",
        "f"
      ],
      [
        "▁p",
        "ut"
      ],
      [
        "um",
        "i"
      ],
      [
        "▁c",
        "our"
      ],
      [
        "▁su",
        "dden"
      ],
      [
        "umi",
        "hin"
      ],
      [
        "▁R",
        "az"
      ],
      [
        "▁tw",
        "o"
      ],
      [
        "▁ey",
        "es"
      ],
      [
        "▁s",
        "w"
      ],
      [
        "▁f",
        "riend"
      ],
      [
        "u",
        "d"
      ],
      [
        "▁Raz",
        "umihin"
      ],
      [
        "p",
        "l"
      ],
      [
        "▁W",
        "ith"
      ],
      [
        "▁",
        "right"
      ],
      [
        "▁g",
        "l"
      ],
      [
        "e",
        "ct"
      ],
      [
        "o",
        "ll"
      ],
      [
        "▁be",
        "l"
      ],
      [
        "T",
        "IO:\n"
      ],
      [
        "!",
        "\""
      ],
      [
        "ou",
        "se"
      ],
      [
        "ou",
        "nt"
      ],
      [
        "os",
        "s"
      ],
      [
        "O",
        "M"
      ],
      [
        "▁g",
        "et"
      ],
      [
        "re",
        "n"
      ],
      [
        "▁bl",
        "ood"
      ],
      [
        "▁somet",
        "hing"
      ],
      [
        "L",
        "I"
      ],
      [
        "▁o",
        "b"
      ],
      [
        "v",
        "id"
      ],
      [
        "▁ne",
        "w"
      ],
      [
        "▁\"",
        "A"
      ],
      [
        "ET",
        ":\n"
      ],
      [
        "▁I",
        "v"
      ],
      [
        "▁ch",
        "ild"
      ],
      [
        "▁m",
        "ight"
      ],
      [
        "▁ro",
        "om"
      ],
      [
        "▁c",
        "ame"
      ],
      [
        "▁st",
        "and"
      ],
      [
        "ni",
        "a"
      ],
      [
        "▁t",
        "r"
      ],
      [
        "ou",
        "nia"
      ],
      [
        "at",
        "ter"
      ],
      [
        "it",
        "her"
      ],
      [
        "▁my",
        "self"
      ],
      [
        "▁li",
        "fe"
      ],
      [
        "▁w",
        "r"
      ],
      [
        "▁g",
        "entle"
      ],
      [
        "r",
        "own"
      ],
      [
        "a",
        "b"
      ],
      [
        "▁",
        "U"
      ],
      [
        "▁h",
        "o"
      ],
      [
        "▁a",
        "d"
      ],
      [
        "▁O",
        ","
      ],
      [
        "v",
        "es"
      ],
      [
        "ou",
        "l"
      ],
      [
        "▁be",
        "c"
      ],
      [
        "ome",
        ","
      ],
      [
        "▁D",
        "ounia"
      ],
      [
        "▁p",
        "res"
      ],
      [
        "c",
        "he"
      ],
      [
        "▁ha",
        "st"
      ],
      [
        "▁",
        "imp"
      ],
      [
        "ain",
        "t"
      ],
      [
        "ell",
        ","
      ],
      [
        "o",
        "y"
      ],
      [
        "▁b",
        "ack"
      ],
      [
        "▁I",
        "s"
      ],
      [
        "▁n",
        "ight"
      ],
      [
        "▁Iv",
        "anovna"
      ],
      [
        "in",
        "t"
      ],
      [
        "p",
        "er"
      ],
      [
        "th",
        "ing"
      ],
      [
        "a",
        "ir"
      ],
      [
        "ou",
        "ght"
      ],
      [
        "▁O",
        "f"
      ],
      [
        "--",
        "\n"
      ],
      [
        "i",
        "z"
      ],
      [
        "p",
        "en"
      ],
      [
        "▁s",
        "on"
      ],
      [
        "K",
        ":\n"
      ],
      [
        "▁m",
        "en"
      ],
      [
        "▁p",
        "ass"
      ],
      [
        "▁com",
        "m"
      ],
      [
        "▁look",
        "ed"
      ],
      [
        "▁ar",
        "t"
      ],
      [
        "an",
        "c"
      ],
      [
        "▁II",
        "I"
      ],
      [
        "rov",
        "itch"
      ],
      [
        "▁c",
        "o"
      ],
      [
        "▁B",
        "e"
      ],
      [
        "▁C",
        "l"
      ],
      [
        "▁do",
        "or"
      ],
      [
        "▁c",
        "all"
      ],
      [
        "▁with",
        "out"
      ],
      [
        "no",
        "t"
      ],
      [
        "no",
        "ther"
      ],
      [
        "IC",
        "H"
      ],
      [
        "▁R",
        "ICH"
      ],
      [
        "▁wom",
        "an"
      ],
      [
        "j",
        "ect"
      ],
      [
        "▁re",
        "s"
      ],
      [
        "K",
        "E"
      ],
      [
        "▁m",
        "ine"
      ],
      [
        "'",
        "ve"
      ],
      [
        "▁D",
        "U"
      ],
      [
        "i",
        "gh"
      ],
      [
        "▁DU",
        "KE"
      ],
      [
        "a",
        "ch"
      ],
      [
        "▁w",
        "ar"
      ],
      [
        "▁Pet",
        "rovitch"
      ],
      [
        "▁t",
        "alk"
      ],
      [
        "▁Wh",
        "ich"
      ],
      [
        "▁\"",
        "T"
      ],
      [
        "▁hon",
        "our"
      ],
      [
        "t",
        "y"
      ],
      [
        "op",
        "le"
      ],
      [
        "▁_H",
        "am"
      ],
      [
        "m",
        "ost"
      ],
      [
        "ed",
        "."
      ],
      [
        "▁",
        "Q"
      ],
      [
        "▁an",
        "s"
      ],
      [
        "▁_Ham",
        "._"
      ],
      [
        "at",
        "ch"
      ],
      [
        "▁The",
        "y"
      ],
      [
        "l",
        "ess"
      ],
      [
        "▁p",
        "le"
      ],
      [
        "▁k",
        "ne"
      ],
      [
        "▁bet",
        "ter"
      ],
      [
        "▁RICH",
        "ARD"
      ],
      [
        "pe",
        "ct"
      ],
      [
        "▁N",
        "ow"
      ],
      [
        "EN",
        "TIO:\n"
      ],
      [
        "v",
        "ing"
      ],
      [
        "▁a",
        "nother"
      ],
      [
        "▁f",
        "ear"
      ],
      [
        "ER",
        ":\n"
      ],
      [
        "or",
        "row"
      ],
      [
        "▁be",
        "ing"
      ],
      [
        "▁beg",
        "an"
      ],
      [
        "▁sir",
        ","
      ],
      [
        "▁a",
        "cc"
      ],
      [
        "▁m",
        "ind"
      ],
      [
        "▁Whe",
        "re"
      ],
      [
        "Y",
        ":\n"
      ],
      [
        "▁g",
        "r"
      ],
      [
        "▁S",
        "e"
      ],
      [
        "▁wor",
        "k"
      ],
      [
        "▁pe",
        "ople"
      ],
      [
        "c",
        "ond"
      ],
      [
        "re",
        "t"
      ],
      [
        "IN",
        "C"
      ],
      [
        "▁s",
        "et"
      ],
      [
        "en",
        "s"
      ],
      [
        "▁b",
        "oth"
      ],
      [
        "▁o",
        "'"
      ],
      [
        "g",
        "er"
      ],
      [
        "in",
        "a"
      ],
      [
        "ed",
        ".\n"
      ],
      [
        "a",
        "w"
      ],
      [
        "▁com",
        "p"
      ],
      [
        "r",
        "d"
      ],
      [
        "▁",
        "ent"
      ],
      [
        "▁F",
        "irst"
      ],
      [
        "i",
        "p"
      ],
      [
        "▁d",
        "re"
      ],
      [
        "ing",
        "."
      ],
      [
        "▁Whe",
        "n"
      ],
      [
        "▁bel",
        "ie"
      ],
      [
        "▁it",
        "'s"
      ],
      [
        "▁him",
        "."
      ],
      [
        "▁he",
        "ard"
      ],
      [
        "on",
        "s"
      ],
      [
        "ar",
        "k"
      ],
      [
        "▁ha",
        "pp"
      ],
      [
        "▁that",
        "'s"
      ],
      [
        "▁The",
        "n"
      ],
      [
        "E",
        "EN"
      ],
      [
        "▁to",
        "-"
      ],
      [
        "▁you",
        "ng"
      ],
      [
        "▁under",
        "st"
      ],
      [
        "▁h",
        "ouse"
      ],
      [
        "ri",
        "g"
      ],
      [
        "▁re",
        "st"
      ],
      [
        "▁m",
        "in"
      ],
      [
        "is",
        "ter"
      ],
      [
        "▁th",
        "r"
      ],
      [
        "▁H",
        "is"
      ],
      [
        "▁ke",
        "ep"
      ],
      [
        "A",
        "M"
      ],
      [
        "n",
        "ce"
      ],
      [
        "▁sh",
        "ow"
      ],
      [
        "d",
        "ay"
      ],
      [
        "▁st",
        "ran"
      ],
      [
        "▁re",
        "p"
      ],
      [
        "▁con",
        "f"
      ],
      [
        "i",
        "o"
      ],
      [
        "▁e",
        "nd"
      ],
      [
        "a",
        "c"
      ],
      [
        "ou",
        "d"
      ],
      [
        "or",
        "f"
      ],
      [
        "ut",
        "e"
      ],
      [
        "▁it",
        "."
      ],
      [
        "▁hea",
        "ven"
      ],
      [
        "i",
        "ly"
      ],
      [
        "▁f",
        "ell"
      ],
      [
        "ar",
        "y"
      ],
      [
        "▁can",
        "not"
      ],
      [
        "U",
        "EEN"
      ],
      [
        "is",
        "s"
      ],
      [
        "as",
        "ter"
      ],
      [
        "▁st",
        "re"
      ],
      [
        "in",
        "ess"
      ],
      [
        "▁d",
        "one"
      ],
      [
        "▁L",
        "ord"
      ],
      [
        "▁Q",
        "UEEN"
      ],
      [
        "▁R",
        "om"
      ],
      [
        "▁Wh",
        "y,"
      ],
      [
        "b",
        "e"
      ],
      [
        "o",
        "ve"
      ],
      [
        "oo",
        "l"
      ],
      [
        "▁wh",
        "y"
      ],
      [
        "▁al",
        "most"
      ],
      [
        "▁in",
        "de"
      ],
      [
        "ow",
        "er"
      ],
      [
        "▁Th",
        "ou"
      ],
      [
        "L",
        "O"
      ],
      [
        "g",
        "et"
      ],
      [
        "▁th",
        "ose"
      ],
      [
        "▁fa",
        "ir"
      ],
      [
        "ear",
        "s"
      ],
      [
        "E",
        "ST"
      ],
      [
        "ur",
        "p"
      ],
      [
        "A",
        "B"
      ],
      [
        "▁f",
        "ind"
      ],
      [
        "we",
        "et"
      ],
      [
        "o",
        "ck"
      ],
      [
        "▁de",
        "ad"
      ],
      [
        "▁O",
        "F"
      ],
      [
        "▁le",
        "ave"
      ],
      [
        "▁'",
        "T"
      ],
      [
        "▁o",
        "pen"
      ],
      [
        "at",
        "ed"
      ],
      [
        "UC",
        "H"
      ],
      [
        "▁rem",
        "em"
      ],
      [
        "a",
        "le"
      ],
      [
        "aught",
        "er"
      ],
      [
        "'",
        "st"
      ],
      [
        "▁m",
        "om"
      ],
      [
        "▁\"W",
        "hat"
      ],
      [
        "▁sudden",
        "ly"
      ],
      [
        "▁mom",
        "ent"
      ],
      [
        "it",
        "ion"
      ],
      [
        "▁ar",
        "m"
      ],
      [
        "ed",
        "\n"
      ],
      [
        "▁him",
        ".\n"
      ],
      [
        "▁s",
        "oul"
      ],
      [
        "▁e",
        "ver"
      ],
      [
        "▁n",
        "or"
      ],
      [
        "▁li",
        "ve"
      ],
      [
        "▁He",
        "re"
      ],
      [
        "▁G",
        "LO"
      ],
      [
        "▁Y",
        "our"
      ],
      [
        "UC",
        "EST"
      ],
      [
        "▁GLO",
        "UCEST"
      ],
      [
        "▁GLOUCEST",
        "ER:\n"
      ],
      [
        "▁he",
        "l"
      ],
      [
        "▁wor",
        "ld"
      ],
      [
        "ert",
        "ain"
      ],
      [
        "▁'t",
        "is"
      ],
      [
        "▁w",
        "a"
      ],
      [
        "▁p",
        "ers"
      ],
      [
        "l",
        "i"
      ],
      [
        "l",
        "ov"
      ],
      [
        "▁L",
        "et"
      ],
      [
        "es",
        "s,"
      ],
      [
        "_",
        ","
      ],
      [
        "f",
        "or"
      ],
      [
        "▁c",
        "ried"
      ],
      [
        "ing",
        "s"
      ],
      [
        "▁sa",
        "w"
      ],
      [
        "▁fe",
        "el"
      ],
      [
        "oll",
        "ow"
      ],
      [
        "▁belie",
        "ve"
      ],
      [
        "a",
        "ï"
      ],
      [
        "i",
        "x"
      ],
      [
        "re",
        "m"
      ],
      [
        "en",
        ","
      ],
      [
        "▁\"",
        "H"
      ],
      [
        "ul",
        "t"
      ],
      [
        "▁tru",
        "e"
      ],
      [
        "▁s",
        "ame"
      ],
      [
        "▁in",
        "st"
      ],
      [
        "ur",
        "se"
      ],
      [
        "▁lord",
        ","
      ],
      [
        "▁underst",
        "and"
      ],
      [
        "a",
        ","
      ],
      [
        "▁V",
        "INC"
      ],
      [
        "ater",
        "ina"
      ],
      [
        "▁cour",
        "se"
      ],
      [
        "▁VINC",
        "ENTIO:\n"
      ],
      [
        "▁now",
        ","
      ],
      [
        "▁pr",
        "ay"
      ],
      [
        "▁d",
        "ist"
      ],
      [
        "▁h",
        "our"
      ],
      [
        "▁man",
        "y"
      ],
      [
        ".",
        ")"
      ],
      [
        "▁t",
        "e"
      ],
      [
        "▁a",
        "p"
      ],
      [
        "▁a",
        "dd"
      ],
      [
        "▁po",
        "or"
      ],
      [
        "U",
        "M"
      ],
      [
        "se",
        "l"
      ],
      [
        "▁O",
        "r"
      ],
      [
        "▁K",
        "aterina"
      ],
      [
        "vid",
        "rig"
      ],
      [
        "aï",
        "lov"
      ],
      [
        "vidrig",
        "aïlov"
      ],
      [
        "▁n",
        "ame"
      ],
      [
        "▁R",
        "od"
      ],
      [
        "es",
        "ter"
      ],
      [
        "▁g",
        "u"
      ],
      [
        "▁A",
        "t"
      ],
      [
        "▁again",
        "st"
      ],
      [
        "▁b",
        "us"
      ],
      [
        "▁be",
        "ar"
      ],
      [
        "▁S",
        "vidrigaïlov"
      ],
      [
        "▁m",
        "atter"
      ],
      [
        "▁c",
        "le"
      ],
      [
        "▁de",
        "ar"
      ],
      [
        "orf",
        "ir"
      ],
      [
        "▁a",
        "pp"
      ],
      [
        "▁s",
        "weet"
      ],
      [
        "▁too",
        "k"
      ],
      [
        "▁pl",
        "ace"
      ],
      [
        "est",
        "ion"
      ],
      [
        "R",
        "Y"
      ],
      [
        "a",
        "id"
      ],
      [
        "▁look",
        "ing"
      ],
      [
        "i",
        "ed"
      ],
      [
        "s",
        "h"
      ],
      [
        "▁t",
        "ri"
      ],
      [
        "en",
        "se"
      ],
      [
        "▁e",
        "l"
      ],
      [
        "ro",
        "vna"
      ],
      [
        "▁R",
        "ome"
      ],
      [
        "s",
        "s"
      ],
      [
        "is",
        "on"
      ],
      [
        "▁e",
        "m"
      ],
      [
        "▁re",
        "c"
      ],
      [
        "▁D",
        "o"
      ],
      [
        "▁qu",
        "e"
      ],
      [
        "▁H",
        "EN"
      ],
      [
        "▁P",
        "orfir"
      ],
      [
        "▁HEN",
        "RY"
      ],
      [
        "▁c",
        "han"
      ],
      [
        "▁no",
        "ble"
      ],
      [
        "▁A",
        "N"
      ],
      [
        "▁your",
        "self"
      ],
      [
        "el",
        "t"
      ],
      [
        "b",
        "t"
      ],
      [
        "g",
        "ed"
      ],
      [
        "▁w",
        "alk"
      ],
      [
        "▁f",
        "ar"
      ],
      [
        "▁st",
        "ood"
      ],
      [
        "i",
        "ble"
      ],
      [
        "v",
        "ed"
      ],
      [
        "y",
        ".\n"
      ],
      [
        "▁s",
        "ister"
      ],
      [
        "▁w",
        "if"
      ],
      [
        "▁m",
        "ur"
      ],
      [
        "ly",
        ".\n"
      ],
      [
        "▁thr",
        "ough"
      ],
      [
        "▁A",
        "n"
      ],
      [
        "▁W",
        "ell,"
      ],
      [
        "▁too",
        ","
      ],
      [
        "▁b",
        "re"
      ],
      [
        "OR",
        "I"
      ],
      [
        "▁t",
        "er"
      ],
      [
        "▁go",
        "ing"
      ],
      [
        "▁le",
        "ft"
      ],
      [
        "a",
        "red"
      ],
      [
        "f",
        "a"
      ],
      [
        "▁",
        "im"
      ],
      [
        "▁L",
        "A"
      ],
      [
        "▁ne",
        "ed"
      ],
      [
        "c",
        "ed"
      ],
      [
        "▁s",
        "il"
      ],
      [
        "▁th",
        "ree"
      ],
      [
        "▁B",
        "y"
      ],
      [
        "▁li",
        "ght"
      ],
      [
        "fe",
        "ct"
      ],
      [
        "u",
        "ke"
      ],
      [
        "▁",
        "ill"
      ],
      [
        "E",
        "S:\n"
      ],
      [
        "y",
        "."
      ],
      [
        "▁",
        "Z"
      ],
      [
        "▁s",
        "erv"
      ],
      [
        "▁qu",
        "estion"
      ],
      [
        "▁\"Y",
        "ou"
      ],
      [
        "▁hel",
        "p"
      ],
      [
        "▁m",
        "ak"
      ],
      [
        "▁as",
        "s"
      ],
      [
        "▁k",
        "ind"
      ],
      [
        "▁the",
        "\n"
      ],
      [
        "is",
        "ed"
      ],
      [
        "▁to",
        "ld"
      ],
      [
        "▁in",
        "t"
      ],
      [
        "▁at",
        "t"
      ],
      [
        "▁Y",
        "OR"
      ],
      [
        "ci",
        "ous"
      ],
      [
        "▁YOR",
        "K:\n"
      ],
      [
        "A",
        "T"
      ],
      [
        "t",
        "ing"
      ],
      [
        "ha",
        "ps"
      ],
      [
        "▁m",
        "one"
      ],
      [
        "▁b",
        "es"
      ],
      [
        "▁pres",
        "ent"
      ],
      [
        "▁stran",
        "ge"
      ],
      [
        "n",
        "k"
      ],
      [
        "he",
        "re"
      ],
      [
        "▁A",
        "ll"
      ],
      [
        "▁C",
        "ome,"
      ],
      [
        "▁seem",
        "ed"
      ],
      [
        "▁g",
        "one"
      ],
      [
        "u",
        "p"
      ],
      [
        "▁s",
        "imp"
      ],
      [
        "▁w",
        "ind"
      ],
      [
        "er",
        "c"
      ],
      [
        "▁d",
        "oth"
      ],
      [
        "▁g",
        "ot"
      ],
      [
        "IN",
        "IUS:\n"
      ],
      [
        "▁t",
        "ill"
      ],
      [
        "▁f",
        "ollow"
      ],
      [
        "▁d",
        "ru"
      ],
      [
        "▁h",
        "u"
      ],
      [
        "le",
        "t"
      ],
      [
        "le",
        "ep"
      ],
      [
        "▁c",
        "are"
      ],
      [
        "▁\"",
        "N"
      ],
      [
        "o",
        "e"
      ],
      [
        "▁c",
        "he"
      ],
      [
        "▁I",
        "V"
      ],
      [
        "▁S",
        "t"
      ],
      [
        "▁do",
        "es"
      ],
      [
        "▁Wh",
        "y"
      ],
      [
        "▁P",
        "ET"
      ],
      [
        "▁N",
        "ot"
      ],
      [
        "▁N",
        "o,"
      ],
      [
        "EL",
        "L"
      ],
      [
        "▁f",
        "ull"
      ],
      [
        "▁her",
        ","
      ],
      [
        "▁G",
        "R"
      ],
      [
        "▁v",
        "o"
      ],
      [
        "▁qu",
        "ite"
      ],
      [
        "▁s",
        "at"
      ],
      [
        "▁f",
        "elt"
      ],
      [
        "en",
        "ed"
      ],
      [
        "▁l",
        "au"
      ],
      [
        "D",
        "W"
      ],
      [
        "▁t",
        "ak"
      ],
      [
        "▁s",
        "ince"
      ],
      [
        "on",
        "t"
      ],
      [
        "▁E",
        "DW"
      ],
      [
        "▁turn",
        "ed"
      ],
      [
        "▁EDW",
        "ARD"
      ],
      [
        "d",
        "er"
      ],
      [
        "▁h",
        "ome"
      ],
      [
        "▁n",
        "at"
      ],
      [
        "▁N",
        "o"
      ],
      [
        "l",
        "and"
      ],
      [
        "▁\"",
        "B"
      ],
      [
        "▁li",
        "e"
      ],
      [
        "R",
        "O"
      ],
      [
        "▁b",
        "reat"
      ],
      [
        "▁l",
        "and"
      ],
      [
        "as",
        "on"
      ],
      [
        "▁L",
        "u"
      ],
      [
        "y",
        "ot"
      ],
      [
        "▁m",
        "ist"
      ],
      [
        "▁A",
        "y,"
      ],
      [
        "▁su",
        "b"
      ],
      [
        "▁L",
        "UC"
      ],
      [
        "▁Wh",
        "o"
      ],
      [
        "▁fell",
        "ow"
      ],
      [
        "yot",
        "r"
      ],
      [
        "U",
        "T"
      ],
      [
        "▁h",
        "us"
      ],
      [
        "▁and",
        ","
      ],
      [
        "▁kne",
        "w"
      ],
      [
        "A",
        "L"
      ],
      [
        "▁c",
        "ount"
      ],
      [
        "▁st",
        "ay"
      ],
      [
        "▁se",
        "en"
      ],
      [
        "▁po",
        "int"
      ],
      [
        "▁c",
        "ertain"
      ],
      [
        "▁wh",
        "ile"
      ],
      [
        "▁bec",
        "ause"
      ],
      [
        "▁s",
        "ent"
      ],
      [
        "on",
        "e,"
      ],
      [
        "i",
        "et"
      ],
      [
        "r",
        "y,"
      ],
      [
        "w",
        "er"
      ],
      [
        "re",
        "st"
      ],
      [
        "▁d",
        "ou"
      ],
      [
        "▁P",
        "ro"
      ],
      [
        "▁child",
        "ren"
      ],
      [
        "▁el",
        "se"
      ],
      [
        "▁h",
        "old"
      ],
      [
        "▁so",
        "on"
      ],
      [
        "▁E",
        "d"
      ],
      [
        "-",
        "b"
      ],
      [
        "_",
        "]"
      ],
      [
        "c",
        "hed"
      ],
      [
        "▁a",
        "w"
      ],
      [
        "▁m",
        "on"
      ],
      [
        "▁d",
        "aughter"
      ],
      [
        "▁th",
        "us"
      ],
      [
        "n",
        "ing"
      ],
      [
        "▁b",
        "est"
      ],
      [
        "le",
        "x"
      ],
      [
        "ly",
        "."
      ],
      [
        "▁P",
        "yotr"
      ],
      [
        "▁k",
        "ill"
      ],
      [
        "te",
        "nd"
      ],
      [
        "▁br",
        "ing"
      ],
      [
        "▁ho",
        "pe"
      ],
      [
        "▁Porfir",
        "y"
      ],
      [
        "A",
        "P"
      ],
      [
        "u",
        "ck"
      ],
      [
        "▁T",
        "han"
      ],
      [
        "▁re",
        "ad"
      ],
      [
        "▁Ed",
        "ward"
      ],
      [
        "E",
        "O:\n"
      ],
      [
        "ou",
        "n"
      ],
      [
        "▁d",
        "r"
      ],
      [
        "ro",
        "ss"
      ],
      [
        "▁R",
        "OM"
      ],
      [
        "▁M",
        "AR"
      ],
      [
        "▁G",
        "ood"
      ],
      [
        "▁remem",
        "ber"
      ],
      [
        "▁ROM",
        "EO:\n"
      ],
      [
        "▁w",
        "it"
      ],
      [
        "▁f",
        "ool"
      ],
      [
        "▁re",
        "t"
      ],
      [
        "▁M",
        "EN"
      ],
      [
        "il",
        "t"
      ],
      [
        "EN",
        "IUS:\n"
      ],
      [
        "▁com",
        "es"
      ],
      [
        "▁MEN",
        "ENIUS:\n"
      ],
      [
        "a",
        "il"
      ],
      [
        "▁l",
        "aw"
      ],
      [
        "an",
        "k"
      ],
      [
        "▁de",
        "l"
      ],
      [
        "▁hand",
        "s"
      ],
      [
        "rie",
        "f"
      ],
      [
        "f",
        "ort"
      ],
      [
        "i",
        "er"
      ],
      [
        "▁t",
        "ra"
      ],
      [
        "at",
        "i"
      ],
      [
        "▁it",
        ".\n"
      ],
      [
        "▁c",
        "r"
      ],
      [
        "▁S",
        "ha"
      ],
      [
        "▁And",
        ","
      ],
      [
        "R",
        "UCH"
      ],
      [
        "U",
        "L"
      ],
      [
        "b",
        "and"
      ],
      [
        "ver",
        "s"
      ],
      [
        "▁gra",
        "ce"
      ],
      [
        "▁ple",
        "as"
      ],
      [
        "▁PET",
        "RUCH"
      ],
      [
        "▁PETRUCH",
        "IO:\n"
      ],
      [
        "▁v",
        "is"
      ],
      [
        "way",
        "s"
      ],
      [
        "R",
        "AN"
      ],
      [
        "f",
        "ull"
      ],
      [
        "l",
        "ed"
      ],
      [
        "▁me",
        "et"
      ],
      [
        "▁pl",
        "ay"
      ],
      [
        "▁ask",
        "ed"
      ],
      [
        "▁s",
        "it"
      ],
      [
        "re",
        "w"
      ],
      [
        "▁l",
        "ov"
      ],
      [
        "ut",
        "h"
      ],
      [
        "▁not",
        ","
      ],
      [
        "▁su",
        "pp"
      ],
      [
        "▁r",
        "ather"
      ],
      [
        "get",
        "her"
      ],
      [
        "▁ap",
        "pe"
      ],
      [
        "▁hus",
        "band"
      ],
      [
        "u",
        "se"
      ],
      [
        "▁h",
        "um"
      ],
      [
        "▁that",
        ","
      ],
      [
        "▁wh",
        "om"
      ],
      [
        "▁say",
        ","
      ],
      [
        "▁ear",
        "th"
      ],
      [
        "en",
        "er"
      ],
      [
        "ir",
        "d"
      ],
      [
        "▁u",
        "se"
      ],
      [
        "▁L",
        "e"
      ],
      [
        "ON",
        "T"
      ],
      [
        "E",
        "S"
      ],
      [
        "i",
        "al"
      ],
      [
        "or",
        "y"
      ],
      [
        "▁dre",
        "am"
      ],
      [
        "▁que",
        "en"
      ],
      [
        "▁wif",
        "e"
      ],
      [
        "▁s",
        "ort"
      ],
      [
        "▁h",
        "or"
      ],
      [
        "es",
        "."
      ],
      [
        "et",
        "h"
      ],
      [
        "▁Se",
        "cond"
      ],
      [
        "s",
        "and"
      ],
      [
        "▁c",
        "ar"
      ],
      [
        "▁g",
        "ave"
      ],
      [
        "▁her",
        "self"
      ],
      [
        "▁C",
        "ORI"
      ],
      [
        "pp",
        "ed"
      ],
      [
        "OL",
        "AN"
      ],
      [
        "▁word",
        "s"
      ],
      [
        "▁'T",
        "is"
      ],
      [
        "▁CORI",
        "OLAN"
      ],
      [
        "it",
        "iz"
      ],
      [
        "▁I",
        "'ve"
      ],
      [
        "▁p",
        "ol"
      ],
      [
        "▁in",
        "s"
      ],
      [
        "ir",
        "t"
      ],
      [
        "▁thou",
        "sand"
      ],
      [
        "▁O",
        "n"
      ],
      [
        "▁[",
        "_"
      ],
      [
        "▁CORIOLAN",
        "US:\n"
      ],
      [
        "▁m",
        "is"
      ],
      [
        "it",
        "or"
      ],
      [
        "es",
        "\n"
      ],
      [
        "▁p",
        "oss"
      ],
      [
        "▁al",
        "ways"
      ],
      [
        "▁pers",
        "on"
      ],
      [
        "▁t",
        "ong"
      ],
      [
        "ir",
        "l"
      ],
      [
        "▁st",
        "ra"
      ],
      [
        "em",
        "y"
      ],
      [
        "▁beg",
        "in"
      ],
      [
        "▁ans",
        "wer"
      ],
      [
        "▁",
        "ide"
      ],
      [
        "▁b",
        "u"
      ],
      [
        "▁you",
        ".\n"
      ],
      [
        "▁H",
        "ave"
      ],
      [
        "▁L",
        "E"
      ],
      [
        "▁r",
        "ound"
      ],
      [
        "▁who",
        "le"
      ],
      [
        "▁dru",
        "nk"
      ],
      [
        "e",
        "ch"
      ],
      [
        "m",
        "e"
      ],
      [
        "▁d",
        "ie"
      ],
      [
        "▁ha",
        "lf"
      ],
      [
        "ce",
        "pt"
      ],
      [
        "▁V",
        "I"
      ],
      [
        "▁III",
        "."
      ],
      [
        "s",
        ";"
      ],
      [
        "y",
        "ing"
      ],
      [
        "▁h",
        "igh"
      ],
      [
        "▁S",
        "ir"
      ],
      [
        "▁them",
        ","
      ],
      [
        "▁dis",
        "c"
      ],
      [
        "i",
        "ven"
      ],
      [
        "▁c",
        "rown"
      ],
      [
        "▁than",
        "k"
      ],
      [
        "▁mone",
        "y"
      ],
      [
        "▁I",
        "."
      ],
      [
        "▁st",
        "e"
      ],
      [
        "EN",
        "C"
      ],
      [
        "i",
        "."
      ],
      [
        "▁l",
        "ess"
      ],
      [
        "IN",
        "A:\n"
      ],
      [
        "▁wr",
        "ong"
      ],
      [
        "-",
        "t"
      ],
      [
        "es",
        ",\n"
      ],
      [
        "▁p",
        "ri"
      ],
      [
        "▁p",
        "ower"
      ],
      [
        "▁for",
        "g"
      ],
      [
        "▁dou",
        "bt"
      ],
      [
        "D",
        ":\n"
      ],
      [
        "i",
        "an"
      ],
      [
        "m",
        "ed"
      ],
      [
        "s",
        "!"
      ],
      [
        "▁t",
        "able"
      ],
      [
        "▁f",
        "ound"
      ],
      [
        "▁l",
        "ay"
      ],
      [
        "▁st",
        "r"
      ],
      [
        "te",
        "red"
      ],
      [
        "▁cha",
        "r"
      ],
      [
        "▁bus",
        "iness"
      ],
      [
        "e",
        "._"
      ],
      [
        "▁\"",
        "O"
      ],
      [
        "▁N",
        "ay,"
      ],
      [
        "▁ru",
        "n"
      ],
      [
        "▁gentle",
        "man"
      ],
      [
        "▁III",
        ":\n"
      ],
      [
        "f",
        "ord"
      ],
      [
        "ou",
        "bl"
      ],
      [
        "re",
        "r"
      ],
      [
        "▁and",
        "\n"
      ],
      [
        "▁W",
        "ar"
      ],
      [
        "▁fa",
        "ct"
      ],
      [
        "▁ex",
        "p"
      ],
      [
        "▁dr",
        "ink"
      ],
      [
        "▁b",
        "od"
      ],
      [
        "▁I",
        ","
      ],
      [
        "▁l",
        "ist"
      ],
      [
        "▁H",
        "er"
      ],
      [
        "ion",
        ","
      ],
      [
        "ur",
        "s"
      ],
      [
        "▁_",
        "i."
      ],
      [
        "▁un",
        "c"
      ],
      [
        "▁there",
        "fore"
      ],
      [
        "▁sp",
        "o"
      ],
      [
        "▁en",
        "ough"
      ],
      [
        "▁every",
        "thing"
      ],
      [
        "▁the",
        "e,"
      ],
      [
        "▁d",
        "ra"
      ],
      [
        "at",
        "ing"
      ],
      [
        "▁g",
        "irl"
      ],
      [
        "ent",
        ","
      ],
      [
        "▁fa",
        "ll"
      ],
      [
        "▁al",
        "re"
      ],
      [
        "▁_i.",
        "e._"
      ],
      [
        "w",
        "ick"
      ],
      [
        "▁c",
        "ause"
      ],
      [
        "▁y",
        "ester"
      ],
      [
        "▁in",
        "ter"
      ],
      [
        "▁for",
        "m"
      ],
      [
        "▁for",
        "t"
      ],
      [
        "▁any",
        "thing"
      ],
      [
        "▁wa",
        "it"
      ],
      [
        "u",
        "ne"
      ],
      [
        "▁A",
        "lex"
      ],
      [
        "▁W",
        "ill"
      ],
      [
        "▁per",
        "haps"
      ],
      [
        "_,",
        "]"
      ],
      [
        "t",
        "en"
      ],
      [
        "▁",
        "ir"
      ],
      [
        "▁ha",
        "rd"
      ],
      [
        "▁de",
        "v"
      ],
      [
        "▁pe",
        "ace"
      ],
      [
        "▁\"W",
        "h"
      ],
      [
        "▁War",
        "wick"
      ],
      [
        "▁Alex",
        "and"
      ],
      [
        "ing",
        ".\n"
      ],
      [
        "ut",
        "y"
      ],
      [
        "▁sh",
        "out"
      ],
      [
        "▁ad",
        "v"
      ],
      [
        "▁stre",
        "et"
      ],
      [
        "▁you",
        "."
      ],
      [
        "man",
        ":\n"
      ],
      [
        "'",
        "er"
      ],
      [
        "S",
        "AB"
      ],
      [
        "▁f",
        "ur"
      ],
      [
        "▁I",
        "SAB"
      ],
      [
        "▁A",
        "m"
      ],
      [
        "▁\"",
        "S"
      ],
      [
        "ard",
        "on"
      ],
      [
        "ie",
        "ld"
      ],
      [
        "▁wor",
        "th"
      ],
      [
        "▁let",
        "ter"
      ],
      [
        "▁It",
        "'s"
      ],
      [
        "▁thing",
        "s"
      ],
      [
        "▁\"A",
        "nd"
      ],
      [
        "ELL",
        "A:\n"
      ],
      [
        "▁ISAB",
        "ELLA:\n"
      ],
      [
        "▁su",
        "re"
      ],
      [
        "▁can",
        "'t"
      ],
      [
        "▁pr",
        "ince"
      ],
      [
        "m",
        "orrow"
      ],
      [
        "x",
        "t"
      ],
      [
        "▁s",
        "leep"
      ],
      [
        "▁h",
        "ur"
      ],
      [
        "▁l",
        "ost"
      ],
      [
        "▁l",
        "ady"
      ],
      [
        "▁ha",
        "r"
      ],
      [
        "ain",
        "ed"
      ],
      [
        "▁What",
        ","
      ],
      [
        "▁\"B",
        "ut"
      ],
      [
        "▁",
        "ri"
      ],
      [
        "▁m",
        "aster"
      ],
      [
        "▁is",
        ","
      ],
      [
        "▁re",
        "ally"
      ],
      [
        "▁ex",
        "c"
      ],
      [
        "▁r",
        "an"
      ],
      [
        "▁then",
        ","
      ],
      [
        "▁simp",
        "ly"
      ],
      [
        "U",
        "LI"
      ],
      [
        "k",
        "en"
      ],
      [
        "▁a",
        "c"
      ],
      [
        "▁a",
        "ct"
      ],
      [
        "▁s",
        "ound"
      ],
      [
        "▁in",
        "c"
      ],
      [
        "▁F",
        "rom"
      ],
      [
        "▁J",
        "ULI"
      ],
      [
        "che",
        "ri"
      ],
      [
        "ONT",
        "ES:\n"
      ],
      [
        "▁stra",
        "ight"
      ],
      [
        "▁LE",
        "ONTES:\n"
      ],
      [
        "▁_i.e._",
        ","
      ],
      [
        "▁JULI",
        "ET:\n"
      ],
      [
        "[",
        "1"
      ],
      [
        "s",
        "p"
      ],
      [
        "▁y",
        "ears"
      ],
      [
        "▁be",
        "h"
      ],
      [
        "▁g",
        "ener"
      ],
      [
        "im",
        "e"
      ],
      [
        "▁for",
        "th"
      ],
      [
        "▁re",
        "ason"
      ],
      [
        "▁so",
        ","
      ],
      [
        "em",
        "pt"
      ],
      [
        "OR",
        "T"
      ],
      [
        "▁br",
        "ought"
      ],
      [
        "▁lau",
        "gh"
      ],
      [
        "D",
        "Y"
      ],
      [
        "c",
        "ent"
      ],
      [
        "n",
        "er"
      ],
      [
        "▁",
        "es"
      ],
      [
        "▁w",
        "on't"
      ],
      [
        "le",
        ","
      ],
      [
        "▁me",
        ".\n"
      ],
      [
        "▁P",
        "ul"
      ],
      [
        "▁an",
        "g"
      ],
      [
        "▁N",
        "or"
      ],
      [
        "▁Y",
        "et"
      ],
      [
        "ry",
        "ing"
      ],
      [
        "▁Alexand",
        "rovna"
      ],
      [
        "cheri",
        "a"
      ],
      [
        "▁Pul",
        "cheria"
      ],
      [
        "e",
        "ver"
      ],
      [
        "ha",
        "rd"
      ],
      [
        "▁b",
        "o"
      ],
      [
        "▁c",
        "ap"
      ],
      [
        "as",
        "h"
      ],
      [
        "▁LA",
        "DY"
      ],
      [
        "▁vo",
        "ice"
      ],
      [
        "i",
        "ol"
      ],
      [
        "he",
        "n"
      ],
      [
        "▁f",
        "ree"
      ],
      [
        "or",
        "k"
      ],
      [
        "ent",
        "ly"
      ],
      [
        "ra",
        "ct"
      ],
      [
        "▁cle",
        "ar"
      ],
      [
        "ENC",
        "E:\n"
      ],
      [
        "c",
        "es"
      ],
      [
        "m",
        "it"
      ],
      [
        "r",
        "ant"
      ],
      [
        "y",
        ",\n"
      ],
      [
        "▁to",
        "gether"
      ],
      [
        "▁he",
        "nce"
      ],
      [
        "▁l",
        "od"
      ],
      [
        "▁S",
        "erv"
      ],
      [
        "▁re",
        "f"
      ],
      [
        "▁re",
        "g"
      ],
      [
        "▁un",
        "to"
      ],
      [
        "ance",
        ","
      ],
      [
        "-",
        "he"
      ],
      [
        "r",
        "."
      ],
      [
        "▁d",
        "if"
      ],
      [
        "▁l",
        "ate"
      ],
      [
        "▁p",
        "urp"
      ],
      [
        "ul",
        "ar"
      ],
      [
        "▁Th",
        "y"
      ],
      [
        "▁tong",
        "ue"
      ],
      [
        "▁w",
        "ond"
      ],
      [
        "it",
        "y,"
      ],
      [
        "▁f",
        "al"
      ],
      [
        "▁c",
        "a"
      ],
      [
        "▁all",
        ","
      ],
      [
        "▁pr",
        "ison"
      ],
      [
        "▁who",
        "se"
      ],
      [
        "'",
        "\n"
      ],
      [
        "d",
        "ot"
      ],
      [
        "e",
        "k"
      ],
      [
        "▁S",
        "IC"
      ],
      [
        "▁we",
        "ep"
      ],
      [
        "▁de",
        "p"
      ],
      [
        "▁C",
        "itiz"
      ],
      [
        "▁mean",
        "s"
      ],
      [
        "▁Rod",
        "ya"
      ],
      [
        "▁alre",
        "ady"
      ],
      [
        "▁SIC",
        "INIUS:\n"
      ],
      [
        "g",
        "ing"
      ],
      [
        "▁s",
        "ign"
      ],
      [
        "▁p",
        "os"
      ],
      [
        "▁su",
        "n"
      ],
      [
        "▁That",
        "'s"
      ],
      [
        ".",
        "H"
      ],
      [
        "v",
        "dot"
      ],
      [
        "▁t",
        "en"
      ],
      [
        "▁s",
        "er"
      ],
      [
        "▁se",
        "cond"
      ],
      [
        "we",
        "red"
      ],
      [
        "▁Rom",
        "anovna"
      ],
      [
        "sel",
        "ves"
      ],
      [
        "vdot",
        "ya"
      ],
      [
        "H",
        ":\n"
      ],
      [
        "I",
        "L"
      ],
      [
        "T",
        "I"
      ],
      [
        "s",
        ":\n"
      ],
      [
        "y",
        "\n"
      ],
      [
        "er",
        "ing"
      ],
      [
        "▁p",
        "ale"
      ],
      [
        "▁st",
        "ate"
      ],
      [
        "▁st",
        "air"
      ],
      [
        "▁su",
        "ff"
      ],
      [
        "▁qu",
        "ick"
      ],
      [
        "▁ans",
        "wered"
      ],
      [
        "-",
        "s"
      ],
      [
        "E",
        "Y:\n"
      ],
      [
        "m",
        "p"
      ],
      [
        "z",
        "hin"
      ],
      [
        "▁ha",
        "ng"
      ],
      [
        "▁g",
        "re"
      ],
      [
        "▁me",
        "."
      ],
      [
        "▁ne",
        "ar"
      ],
      [
        "▁know",
        ","
      ],
      [
        "▁said",
        ","
      ],
      [
        "de",
        "rer"
      ],
      [
        "▁Now",
        ","
      ],
      [
        "e",
        "as"
      ],
      [
        "m",
        "en"
      ],
      [
        "o",
        "g"
      ],
      [
        "r",
        "ay"
      ],
      [
        "▁a",
        "ir"
      ],
      [
        "ou",
        "ch"
      ],
      [
        "▁b",
        "ed"
      ],
      [
        "ce",
        "iv"
      ],
      [
        "▁st",
        "ri"
      ],
      [
        "▁B",
        "R"
      ],
      [
        "ic",
        "al"
      ],
      [
        "...",
        "\"\n"
      ],
      [
        "▁com",
        "fort"
      ],
      [
        "▁j",
        "oy"
      ],
      [
        "▁le",
        "ast"
      ],
      [
        "▁\"H",
        "e"
      ],
      [
        "▁nat",
        "ure"
      ],
      [
        "▁Lu",
        "zhin"
      ],
      [
        "▁ret",
        "urn"
      ],
      [
        "y",
        "al"
      ],
      [
        "▁a",
        "\n"
      ],
      [
        "▁w",
        "atch"
      ],
      [
        "▁p",
        "rom"
      ],
      [
        "▁A",
        "vdotya"
      ],
      [
        "ri",
        "b"
      ],
      [
        "▁R",
        "ic"
      ],
      [
        "▁al",
        "one"
      ],
      [
        "▁gra",
        "ve"
      ],
      [
        "▁LUC",
        "IO:\n"
      ],
      [
        "▁th",
        "ine"
      ],
      [
        "▁e",
        "ach"
      ],
      [
        "ent",
        "y"
      ],
      [
        "▁\"",
        "D"
      ],
      [
        "▁de",
        "c"
      ],
      [
        "▁C",
        "L"
      ],
      [
        "▁\"I",
        "t"
      ],
      [
        "we",
        "en"
      ],
      [
        "▁mak",
        "es"
      ],
      [
        "▁IV",
        ":\n"
      ],
      [
        "▁Ric",
        "hard"
      ],
      [
        "i",
        "ct"
      ],
      [
        "i",
        "us"
      ],
      [
        "▁",
        "ut"
      ],
      [
        "▁b",
        "id"
      ],
      [
        "▁c",
        "old"
      ],
      [
        "▁y",
        "ear"
      ],
      [
        "▁in",
        "f"
      ],
      [
        "ve",
        "re"
      ],
      [
        "▁se",
        "c"
      ],
      [
        "▁_",
        "T"
      ],
      [
        "▁E",
        "ng"
      ],
      [
        "full",
        "y"
      ],
      [
        "▁pol",
        "ice"
      ],
      [
        "v",
        "itch"
      ],
      [
        "▁m",
        "ut"
      ],
      [
        "▁m",
        "orn"
      ],
      [
        "ut",
        "en"
      ],
      [
        "ir",
        "it"
      ],
      [
        "▁H",
        "en"
      ],
      [
        "ation",
        ","
      ],
      [
        "▁lord",
        ".\n"
      ],
      [
        "▁des",
        "p"
      ],
      [
        "▁\"Y",
        "es,"
      ],
      [
        "emy",
        "on"
      ],
      [
        "l",
        "t"
      ],
      [
        "p",
        "h"
      ],
      [
        "▁d",
        "uke"
      ],
      [
        "at",
        "e,"
      ],
      [
        "▁st",
        "ru"
      ],
      [
        "▁st",
        "ep"
      ],
      [
        "▁se",
        "nd"
      ],
      [
        "▁Y",
        "ork"
      ],
      [
        "▁ob",
        "s"
      ],
      [
        "r",
        "it"
      ],
      [
        "r",
        "or"
      ],
      [
        "u",
        "red"
      ],
      [
        "▁b",
        "it"
      ],
      [
        "▁b",
        "ra"
      ],
      [
        "en",
        "e"
      ],
      [
        "▁l",
        "ad"
      ],
      [
        "▁in",
        "d"
      ],
      [
        "▁g",
        "rief"
      ],
      [
        "ver",
        "n"
      ],
      [
        "ous",
        "in"
      ],
      [
        "._",
        "]"
      ],
      [
        "▁ex",
        "pl"
      ],
      [
        "ie",
        "f"
      ],
      [
        "▁fl",
        "at"
      ],
      [
        "▁wind",
        "ow"
      ],
      [
        "Z",
        "AB"
      ],
      [
        "▁t",
        "re"
      ],
      [
        "▁s",
        "ide"
      ],
      [
        "▁m",
        "et"
      ],
      [
        "er",
        "n"
      ],
      [
        "▁c",
        "ond"
      ],
      [
        "at",
        "or"
      ],
      [
        "ce",
        "ed"
      ],
      [
        "▁S",
        "emyon"
      ],
      [
        "▁re",
        "l"
      ],
      [
        "ge",
        "l"
      ],
      [
        "▁E",
        "LI"
      ],
      [
        "▁sp",
        "irit"
      ],
      [
        "ET",
        "H:\n"
      ],
      [
        "▁conf",
        "ess"
      ],
      [
        "for",
        "m"
      ],
      [
        "▁Sha",
        "ll"
      ],
      [
        "ZAB",
        "ETH:\n"
      ],
      [
        "▁ELI",
        "ZABETH:\n"
      ],
      [
        "A",
        "ST"
      ],
      [
        "I",
        "AN"
      ],
      [
        "U",
        "R"
      ],
      [
        "▁t",
        "a"
      ],
      [
        "▁d",
        "ro"
      ],
      [
        "▁d",
        "ire"
      ],
      [
        "▁p",
        "ati"
      ],
      [
        "▁g",
        "iven"
      ],
      [
        "▁man",
        ","
      ],
      [
        "▁com",
        "ing"
      ],
      [
        "▁ab",
        "s"
      ],
      [
        "ano",
        "vitch"
      ],
      [
        "▁min",
        "ute"
      ],
      [
        "is",
        "hed"
      ],
      [
        "▁c",
        "ra"
      ],
      [
        "▁d",
        "ark"
      ],
      [
        "▁he",
        "'s"
      ],
      [
        "id",
        "d"
      ],
      [
        "▁W",
        "AR"
      ],
      [
        "▁M",
        "r."
      ],
      [
        "'d",
        "\n"
      ],
      [
        "▁sh",
        "ort"
      ],
      [
        "▁inde",
        "ed"
      ],
      [
        "s",
        ":"
      ],
      [
        "▁f",
        "am"
      ],
      [
        "▁c",
        "or"
      ],
      [
        "▁in",
        "te"
      ],
      [
        "id",
        "ent"
      ],
      [
        "ad",
        "e"
      ],
      [
        "al",
        ","
      ],
      [
        "▁k",
        "iss"
      ],
      [
        "'d",
        ","
      ],
      [
        "ence",
        ","
      ],
      [
        "▁dis",
        "p"
      ],
      [
        "▁bet",
        "ween"
      ],
      [
        "sh",
        "ip"
      ],
      [
        "▁sub",
        "ject"
      ],
      [
        "▁exp",
        "ress"
      ],
      [
        "▁purp",
        "ose"
      ],
      [
        "H",
        "AM"
      ],
      [
        "l",
        "ing"
      ],
      [
        "▁t",
        "ears"
      ],
      [
        "▁w",
        "ater"
      ],
      [
        "er",
        "y"
      ],
      [
        "en",
        ":\n"
      ],
      [
        "▁W",
        "ould"
      ],
      [
        "▁G",
        "o"
      ],
      [
        "▁E",
        "ven"
      ],
      [
        "▁ex",
        "t"
      ],
      [
        "▁hea",
        "v"
      ],
      [
        "▁res",
        "pect"
      ],
      [
        "c",
        "ome"
      ],
      [
        "▁s",
        "orrow"
      ],
      [
        "▁b",
        "oy"
      ],
      [
        "im",
        "es"
      ],
      [
        "▁H",
        "am"
      ],
      [
        "▁with",
        "in"
      ],
      [
        "ra",
        "id"
      ],
      [
        "▁O",
        "ne"
      ],
      [
        "▁sha",
        "me"
      ],
      [
        "▁ne",
        "xt"
      ],
      [
        "▁But",
        ","
      ],
      [
        "ward",
        "s"
      ],
      [
        "▁sm",
        "ile"
      ],
      [
        "▁U",
        "n"
      ],
      [
        "W",
        "IC"
      ],
      [
        "▁b",
        "an"
      ],
      [
        "▁father",
        "'s"
      ],
      [
        "▁mar",
        "k"
      ],
      [
        "▁Rome",
        "o"
      ],
      [
        "▁yester",
        "day"
      ],
      [
        "▁WAR",
        "WIC"
      ],
      [
        "▁WARWIC",
        "K:\n"
      ],
      [
        "▁m",
        "ov"
      ],
      [
        "▁d",
        "et"
      ],
      [
        "▁O",
        "ur"
      ],
      [
        "os",
        "ed"
      ],
      [
        "▁tim",
        "e,"
      ],
      [
        "▁us",
        "ed"
      ],
      [
        "▁II",
        ":\n"
      ],
      [
        "▁ple",
        "ase"
      ],
      [
        "▁gr",
        "ound"
      ],
      [
        "▁walk",
        "ed"
      ],
      [
        "▁tak",
        "en"
      ],
      [
        "▁appe",
        "ar"
      ],
      [
        "▁Citiz",
        "en:\n"
      ],
      [
        "it",
        "ed"
      ],
      [
        "▁c",
        "ase"
      ],
      [
        "▁d",
        "are"
      ],
      [
        "▁p",
        "ardon"
      ],
      [
        "▁you",
        "\n"
      ],
      [
        "at",
        "es"
      ],
      [
        "▁K",
        "ing"
      ],
      [
        "▁pro",
        "p"
      ],
      [
        "▁ey",
        "e"
      ],
      [
        "▁cont",
        "in"
      ],
      [
        "▁Ham",
        "let"
      ],
      [
        "R",
        "I"
      ],
      [
        "▁s",
        "in"
      ],
      [
        "▁s",
        "ens"
      ],
      [
        "▁c",
        "orn"
      ],
      [
        "▁A",
        "l"
      ],
      [
        "▁n",
        "one"
      ],
      [
        "▁N",
        "urse"
      ],
      [
        "▁ro",
        "yal"
      ],
      [
        "▁hon",
        "est"
      ],
      [
        "▁Semyon",
        "ov"
      ],
      [
        "HAM",
        ":\n"
      ],
      [
        "e",
        "red"
      ],
      [
        "p",
        "on"
      ],
      [
        "re",
        "nt"
      ],
      [
        "▁f",
        "right"
      ],
      [
        "le",
        "ct"
      ],
      [
        "▁S",
        "h"
      ],
      [
        "▁C",
        "AP"
      ],
      [
        "ru",
        "pt"
      ],
      [
        "▁N",
        "i"
      ],
      [
        "▁con",
        "v"
      ],
      [
        "▁r",
        "oubl"
      ],
      [
        "▁comm",
        "on"
      ],
      [
        "▁to-",
        "morrow"
      ],
      [
        "UL",
        "ET:\n"
      ],
      [
        "▁inte",
        "rest"
      ],
      [
        "▁CAP",
        "ULET:\n"
      ],
      [
        "b",
        "b"
      ],
      [
        "s",
        ";\n"
      ],
      [
        "u",
        "nt"
      ],
      [
        "▁",
        "i"
      ],
      [
        "▁s",
        "ick"
      ],
      [
        "▁m",
        "erc"
      ],
      [
        "▁to",
        "\n"
      ],
      [
        "▁st",
        "ud"
      ],
      [
        "▁C",
        "ome"
      ],
      [
        "▁_",
        "P"
      ],
      [
        "▁up",
        ","
      ],
      [
        "▁j",
        "o"
      ],
      [
        "▁here",
        ","
      ],
      [
        "▁af",
        "raid"
      ],
      [
        "▁hat",
        "e"
      ],
      [
        "ber",
        "g"
      ],
      [
        "▁stand",
        "ing"
      ],
      [
        "▁tr",
        "uth"
      ],
      [
        "▁ide",
        "a"
      ],
      [
        "-",
        "f"
      ],
      [
        ".",
        "\""
      ],
      [
        "g",
        "ain"
      ],
      [
        "g",
        "e,"
      ],
      [
        "▁f",
        "ight"
      ],
      [
        "▁h",
        "ither"
      ],
      [
        "▁be",
        "a"
      ],
      [
        "▁e",
        "re"
      ],
      [
        "id",
        "er"
      ],
      [
        "▁we",
        "ar"
      ],
      [
        "ra",
        "c"
      ],
      [
        "▁whe",
        "ther"
      ],
      [
        "▁there",
        "'s"
      ],
      [
        "fe",
        "nd"
      ],
      [
        "▁off",
        "ic"
      ],
      [
        "▁bre",
        "ak"
      ],
      [
        "▁str",
        "ong"
      ],
      [
        "▁fal",
        "se"
      ],
      [
        "-",
        "c"
      ],
      [
        "s",
        "?\n"
      ],
      [
        "u",
        "al"
      ],
      [
        "▁t",
        "rem"
      ],
      [
        "▁m",
        "aid"
      ],
      [
        "▁c",
        "oun"
      ],
      [
        "▁l",
        "ear"
      ],
      [
        "▁in",
        "v"
      ],
      [
        "▁ha",
        "ving"
      ],
      [
        "▁re",
        "ady"
      ],
      [
        "▁_",
        "O"
      ],
      [
        "ni",
        "ght"
      ],
      [
        "▁fa",
        "ith"
      ],
      [
        "▁again",
        ","
      ],
      [
        "▁ke",
        "pt"
      ],
      [
        "▁cour",
        "t"
      ],
      [
        "▁course",
        ","
      ],
      [
        "▁breat",
        "h"
      ],
      [
        "K",
        "ING"
      ],
      [
        "K",
        "E:\n"
      ],
      [
        "c",
        "ess"
      ],
      [
        "i",
        "at"
      ],
      [
        "r",
        "ing"
      ],
      [
        "▁s",
        "ight"
      ],
      [
        "▁w",
        "all"
      ],
      [
        "▁I",
        "'"
      ],
      [
        "▁A",
        "re"
      ],
      [
        "▁st",
        "o"
      ],
      [
        "▁B",
        "UC"
      ],
      [
        "▁de",
        "ep"
      ],
      [
        "▁L",
        "ook"
      ],
      [
        "ant",
        ":\n"
      ],
      [
        "em",
        "ent"
      ],
      [
        "ER",
        "L"
      ],
      [
        "....",
        "\"\n"
      ],
      [
        "itt",
        "ing"
      ],
      [
        "▁well",
        ","
      ],
      [
        "▁mur",
        "der"
      ],
      [
        "UT",
        "US:\n"
      ],
      [
        "▁BR",
        "UTUS:\n"
      ],
      [
        "KING",
        "HAM:\n"
      ],
      [
        "▁BUC",
        "KINGHAM:\n"
      ],
      [
        "B",
        "RO"
      ],
      [
        "▁s",
        "ing"
      ],
      [
        "▁f",
        "our"
      ],
      [
        "▁c",
        "row"
      ],
      [
        "▁I",
        "\n"
      ],
      [
        "as",
        "ya"
      ],
      [
        "▁be",
        "at"
      ],
      [
        "▁T",
        "RAN"
      ],
      [
        "▁A",
        "h,"
      ],
      [
        "im",
        "ov"
      ],
      [
        "et",
        "ov"
      ],
      [
        "al",
        "t"
      ],
      [
        "▁B",
        "OL"
      ],
      [
        "▁her",
        "."
      ],
      [
        "am",
        ","
      ],
      [
        "am",
        "etov"
      ],
      [
        "▁D",
        "id"
      ],
      [
        "▁j",
        "ud"
      ],
      [
        "▁say",
        "s"
      ],
      [
        "ING",
        "BRO"
      ],
      [
        "▁mar",
        "ri"
      ],
      [
        "▁TRAN",
        "IO:\n"
      ],
      [
        "▁BOL",
        "INGBRO"
      ],
      [
        "▁BOLINGBRO",
        "KE:\n"
      ],
      [
        "x",
        "e"
      ],
      [
        "—",
        "t"
      ],
      [
        "▁d",
        "an"
      ],
      [
        "▁d",
        "ress"
      ],
      [
        "▁we",
        "l"
      ],
      [
        "▁v",
        "irt"
      ],
      [
        "ast",
        "asya"
      ],
      [
        "▁al",
        "ong"
      ],
      [
        "▁qu",
        "ar"
      ],
      [
        "▁Rod",
        "ion"
      ],
      [
        "ES",
        "S"
      ],
      [
        "uten",
        "berg"
      ],
      [
        "▁Hen",
        "ry"
      ],
      [
        "▁Nurse",
        ":\n"
      ],
      [
        "k",
        "ing"
      ],
      [
        "r",
        "ance"
      ],
      [
        "ou",
        "ble"
      ],
      [
        "▁p",
        "ay"
      ],
      [
        "▁re",
        "qu"
      ],
      [
        "▁we",
        "ak"
      ],
      [
        "▁v",
        "ill"
      ],
      [
        "▁go",
        "d"
      ],
      [
        "▁did",
        "n't"
      ],
      [
        "▁come",
        ","
      ],
      [
        "▁tim",
        "es"
      ],
      [
        "▁pr",
        "oud"
      ],
      [
        "▁pro",
        "ve"
      ],
      [
        "▁tw",
        "enty"
      ],
      [
        "▁cl",
        "ose"
      ],
      [
        "▁(",
        "R"
      ],
      [
        "▁feel",
        "ing"
      ],
      [
        "▁Z",
        "ametov"
      ],
      [
        "AT",
        "H"
      ],
      [
        "▁mon",
        "th"
      ],
      [
        "S",
        "C"
      ],
      [
        "i",
        "red"
      ],
      [
        "n",
        "ess,"
      ],
      [
        "re",
        "l"
      ],
      [
        "ha",
        "p"
      ],
      [
        "nd",
        "red"
      ],
      [
        "▁o",
        "cc"
      ],
      [
        "▁c",
        "ru"
      ],
      [
        "▁p",
        "ast"
      ],
      [
        "hat",
        "'s"
      ],
      [
        "▁of",
        "\n"
      ],
      [
        "▁e",
        "vid"
      ],
      [
        "▁not",
        "ic"
      ],
      [
        "erv",
        "ed"
      ],
      [
        "oss",
        "imov"
      ],
      [
        "▁hast",
        "e"
      ],
      [
        "▁o'",
        "er"
      ],
      [
        "▁to-",
        "day"
      ],
      [
        "▁stru",
        "ck"
      ],
      [
        "G",
        "AR"
      ],
      [
        "i",
        "b"
      ],
      [
        "i",
        "ke"
      ],
      [
        "▁t",
        "ear"
      ],
      [
        "▁o",
        "pp"
      ],
      [
        "▁f",
        "ore"
      ],
      [
        "▁c",
        "ousin"
      ],
      [
        "▁p",
        "ar"
      ],
      [
        "▁it",
        "!"
      ],
      [
        "▁it",
        "?"
      ],
      [
        "▁M",
        "ore"
      ],
      [
        "▁wh",
        "is"
      ],
      [
        "ck",
        "et"
      ],
      [
        "▁this",
        ","
      ],
      [
        "ice",
        ","
      ],
      [
        "▁Rom",
        "anovitch"
      ],
      [
        "▁Z",
        "ossimov"
      ],
      [
        "▁hu",
        "ndred"
      ],
      [
        "▁count",
        "ry"
      ],
      [
        "▁MAR",
        "GAR"
      ],
      [
        "IL",
        "L"
      ],
      [
        "▁MARGAR",
        "ET:\n"
      ],
      [
        "▁f",
        "ire"
      ],
      [
        "▁c",
        "ur"
      ],
      [
        "▁to",
        "wn"
      ],
      [
        "▁p",
        "ain"
      ],
      [
        "ent",
        "ion"
      ],
      [
        "▁re",
        "al"
      ],
      [
        "▁re",
        "pe"
      ],
      [
        "▁P",
        "rov"
      ],
      [
        "▁N",
        "astasya"
      ],
      [
        "▁fa",
        "ult"
      ],
      [
        "▁V",
        "."
      ],
      [
        "▁want",
        "ed"
      ],
      [
        "▁U",
        "pon"
      ],
      [
        "▁comm",
        "and"
      ],
      [
        "AM",
        "ILL"
      ],
      [
        "▁f",
        "oot"
      ],
      [
        "ce",
        "ive"
      ],
      [
        "▁it",
        "s"
      ],
      [
        "▁on",
        ","
      ],
      [
        "▁se",
        "e,"
      ],
      [
        "▁G",
        "ive"
      ],
      [
        "▁le",
        "g"
      ],
      [
        "▁sw",
        "ord"
      ],
      [
        "▁sw",
        "ear"
      ],
      [
        "▁happ",
        "y"
      ],
      [
        "▁min",
        "ut"
      ],
      [
        "urp",
        "r"
      ],
      [
        "'",
        "re"
      ],
      [
        "-",
        "d"
      ],
      [
        "G",
        "EL"
      ],
      [
        "h",
        "r"
      ],
      [
        "ou",
        "s,"
      ],
      [
        "▁w",
        "ret"
      ],
      [
        "▁m",
        "a"
      ],
      [
        "▁b",
        "ad"
      ],
      [
        "▁b",
        "ur"
      ],
      [
        "▁d",
        "en"
      ],
      [
        "ing",
        "._"
      ],
      [
        "▁re",
        "ven"
      ],
      [
        "▁so",
        "ft"
      ],
      [
        "▁G",
        "utenberg"
      ],
      [
        "▁ex",
        "pect"
      ],
      [
        "▁gra",
        "cious"
      ],
      [
        "▁AN",
        "GEL"
      ],
      [
        "▁ANGEL",
        "O:\n"
      ],
      [
        "I",
        "ON"
      ],
      [
        "e",
        "ech"
      ],
      [
        "f",
        "e,"
      ],
      [
        "o",
        "f"
      ],
      [
        "▁s",
        "urpr"
      ],
      [
        "▁w",
        "ilt"
      ],
      [
        "es",
        ".\n"
      ],
      [
        "ct",
        "or"
      ],
      [
        "AR",
        "INA:\n"
      ],
      [
        "▁Th",
        "ough"
      ],
      [
        "are",
        "nce"
      ],
      [
        "▁cha",
        "ir"
      ],
      [
        "▁des",
        "ire"
      ],
      [
        "▁brother",
        ","
      ],
      [
        "EL",
        ":\n"
      ],
      [
        "▁Sir",
        ","
      ],
      [
        "u",
        "ri"
      ],
      [
        "u",
        "s,"
      ],
      [
        "w",
        "h"
      ],
      [
        "▁s",
        "k"
      ],
      [
        "▁w",
        "in"
      ],
      [
        "▁b",
        "ook"
      ],
      [
        "▁c",
        "ross"
      ],
      [
        "▁d",
        "am"
      ],
      [
        "ut",
        "ion"
      ],
      [
        "▁H",
        "ath"
      ],
      [
        "▁\"",
        "G"
      ],
      [
        "▁re",
        "d"
      ],
      [
        "am",
        "ent"
      ],
      [
        "ain",
        ","
      ],
      [
        "▁do",
        "st"
      ],
      [
        "▁_",
        "K"
      ],
      [
        "'d",
        ",\n"
      ],
      [
        "▁K",
        "ATH"
      ],
      [
        "▁af",
        "f"
      ],
      [
        "▁day",
        "s"
      ],
      [
        "▁Mar",
        "ci"
      ],
      [
        "▁gl",
        "ad"
      ],
      [
        "▁Cl",
        "arence"
      ],
      [
        "▁res",
        "ol"
      ],
      [
        "▁KATH",
        "ARINA:\n"
      ],
      [
        "i",
        "o,"
      ],
      [
        "s",
        "hed"
      ],
      [
        "▁w",
        "ish"
      ],
      [
        "▁c",
        "ut"
      ],
      [
        "▁p",
        "u"
      ],
      [
        "▁p",
        "ap"
      ],
      [
        "▁W",
        "as"
      ],
      [
        "▁u",
        "s,"
      ],
      [
        "▁S",
        "ome"
      ],
      [
        "▁P",
        "OL"
      ],
      [
        "▁so",
        "ld"
      ],
      [
        "▁know",
        "s"
      ],
      [
        "ive",
        "ly"
      ],
      [
        "ci",
        "al"
      ],
      [
        "▁Sonia",
        ","
      ],
      [
        "▁em",
        "b"
      ],
      [
        "▁dan",
        "ger"
      ],
      [
        "n",
        "ed"
      ],
      [
        "v",
        "o"
      ],
      [
        "v",
        "our"
      ],
      [
        "he",
        "s"
      ],
      [
        "▁s",
        "ense"
      ],
      [
        "it",
        "s"
      ],
      [
        "▁he",
        ","
      ],
      [
        "▁e",
        "as"
      ],
      [
        "▁do",
        "ing"
      ],
      [
        "▁them",
        "."
      ],
      [
        "▁bl",
        "ow"
      ],
      [
        "ation",
        "s"
      ],
      [
        "▁Raskolnikov",
        ","
      ],
      [
        "▁po",
        "cket"
      ],
      [
        "▁II",
        "."
      ],
      [
        "▁Pet",
        "rovna"
      ],
      [
        "▁himself",
        ","
      ],
      [
        "▁talk",
        "ing"
      ],
      [
        "▁\"N",
        "o,"
      ],
      [
        "▁g",
        "row"
      ],
      [
        "▁g",
        "az"
      ],
      [
        "▁T",
        "ake"
      ],
      [
        "▁know",
        "n"
      ],
      [
        "▁E",
        "SC"
      ],
      [
        "▁out",
        ","
      ],
      [
        "▁le",
        "ad"
      ],
      [
        "▁bec",
        "ome"
      ],
      [
        "▁comp",
        "an"
      ],
      [
        "▁im",
        "ag"
      ],
      [
        "AL",
        "US:\n"
      ],
      [
        "▁Pro",
        "ject"
      ],
      [
        "▁fort",
        "une"
      ],
      [
        "▁dif",
        "fe"
      ],
      [
        "▁sec",
        "ret"
      ],
      [
        "▁ESC",
        "ALUS:\n"
      ],
      [
        "v",
        "ious"
      ],
      [
        "▁m",
        "o"
      ],
      [
        "▁c",
        "al"
      ],
      [
        "or",
        "ter"
      ],
      [
        "or",
        "._"
      ],
      [
        "▁e",
        "ither"
      ],
      [
        "▁de",
        "al"
      ],
      [
        "▁somet",
        "imes"
      ],
      [
        "▁_H",
        "or._"
      ],
      [
        "▁sm",
        "il"
      ],
      [
        "▁ma",
        "j"
      ],
      [
        "b",
        "ur"
      ],
      [
        "m",
        "s"
      ],
      [
        "o",
        "ver"
      ],
      [
        "z",
        "iat"
      ],
      [
        "▁f",
        "ast"
      ],
      [
        "▁c",
        "ry"
      ],
      [
        "▁p",
        "ity"
      ],
      [
        "an",
        "g"
      ],
      [
        "le",
        "te"
      ],
      [
        "▁not",
        "\n"
      ],
      [
        "▁S",
        "u"
      ],
      [
        "▁P",
        "l"
      ],
      [
        "▁D",
        "uke"
      ],
      [
        "▁Y",
        "es,"
      ],
      [
        "▁un",
        "eas"
      ],
      [
        "ost",
        ":\n"
      ],
      [
        "▁fe",
        "w"
      ],
      [
        "AN",
        "D:\n"
      ],
      [
        "ab",
        "ly"
      ],
      [
        "be",
        "ziat"
      ],
      [
        "▁inde",
        "ed,"
      ],
      [
        "▁vis",
        "it"
      ],
      [
        "▁\"O",
        "h,"
      ],
      [
        "▁_K",
        "ing._"
      ],
      [
        "beziat",
        "nikov"
      ],
      [
        "a",
        "im"
      ],
      [
        "g",
        "g"
      ],
      [
        "▁b",
        "ow"
      ],
      [
        "er",
        "k"
      ],
      [
        "is",
        "ing"
      ],
      [
        "id",
        "ow"
      ],
      [
        "▁li",
        "fe,"
      ],
      [
        "ct",
        "ly"
      ],
      [
        "▁su",
        "sp"
      ],
      [
        "▁D",
        "UCH"
      ],
      [
        "▁bl",
        "ess"
      ],
      [
        "ation",
        "."
      ],
      [
        "ER",
        "C"
      ],
      [
        "▁pre",
        "p"
      ],
      [
        "▁Mar",
        "fa"
      ],
      [
        "▁An",
        "gel"
      ],
      [
        "▁Le",
        "beziatnikov"
      ],
      [
        "▁morn",
        "ing"
      ],
      [
        "▁susp",
        "ic"
      ],
      [
        "ha",
        "l"
      ],
      [
        "▁f",
        "ive"
      ],
      [
        "▁it",
        "self"
      ],
      [
        "oo",
        "f"
      ],
      [
        "▁M",
        "ad"
      ],
      [
        "▁de",
        "ed"
      ],
      [
        "us",
        "h"
      ],
      [
        "▁go",
        "ld"
      ],
      [
        "▁there",
        ","
      ],
      [
        "ie",
        "w"
      ],
      [
        "▁some",
        "w"
      ],
      [
        "▁pro",
        "f"
      ],
      [
        "ue",
        "en"
      ],
      [
        "▁stre",
        "ng"
      ],
      [
        "▁inst",
        "ant"
      ],
      [
        "▁bod",
        "y"
      ],
      [
        "▁beh",
        "ind"
      ],
      [
        "▁t",
        "em"
      ],
      [
        "▁t",
        "ouch"
      ],
      [
        "in",
        "ed"
      ],
      [
        "▁s",
        "ake"
      ],
      [
        "▁c",
        "ir"
      ],
      [
        "▁p",
        "ie"
      ],
      [
        "ve",
        "l"
      ],
      [
        "▁not",
        "e"
      ],
      [
        "▁R",
        "e"
      ],
      [
        "▁so",
        "vere"
      ],
      [
        "▁li",
        "ves"
      ],
      [
        "▁_",
        "L"
      ],
      [
        "▁what",
        "'s"
      ],
      [
        "▁v",
        "al"
      ],
      [
        "._",
        "]\n"
      ],
      [
        "um",
        "p"
      ],
      [
        "are",
        "nt"
      ],
      [
        "▁What",
        "'s"
      ],
      [
        "▁father",
        ","
      ],
      [
        "▁So",
        "f"
      ],
      [
        "▁add",
        "ress"
      ],
      [
        "▁GR",
        "E"
      ],
      [
        "▁tra",
        "itor"
      ],
      [
        "▁forg",
        "ot"
      ],
      [
        "▁dra",
        "w"
      ],
      [
        "▁crow",
        "d"
      ],
      [
        "I",
        "A:\n"
      ],
      [
        "h",
        "ost"
      ],
      [
        "l",
        "es"
      ],
      [
        "o",
        "or"
      ],
      [
        "u",
        "ally"
      ],
      [
        "▁of",
        "ten"
      ],
      [
        "▁P",
        "ol"
      ],
      [
        "▁C",
        "AMILL"
      ],
      [
        "EN",
        "S"
      ],
      [
        "▁lo",
        "se"
      ],
      [
        "▁again",
        "."
      ],
      [
        "ag",
        "ue"
      ],
      [
        "▁sc",
        "ar"
      ],
      [
        "ons",
        "ense"
      ],
      [
        "li",
        "ke"
      ],
      [
        "▁serv",
        "ice"
      ],
      [
        "▁land",
        "l"
      ],
      [
        "▁VI",
        ":\n"
      ],
      [
        "▁suff",
        "er"
      ],
      [
        "▁Eng",
        "land"
      ],
      [
        "▁maj",
        "est"
      ],
      [
        "▁Sof",
        "ya"
      ],
      [
        "▁CAMILL",
        "O:\n"
      ],
      [
        "b",
        "ro"
      ],
      [
        "i",
        "es,"
      ],
      [
        "u",
        "c"
      ],
      [
        "w",
        "as"
      ],
      [
        "▁",
        "ed"
      ],
      [
        "▁w",
        "ound"
      ],
      [
        "▁m",
        "er"
      ],
      [
        "▁b",
        "ound"
      ],
      [
        "al",
        "th"
      ],
      [
        "her",
        "d"
      ],
      [
        "ic",
        "ular"
      ],
      [
        "▁bl",
        "ack"
      ],
      [
        "▁again",
        ".\n"
      ],
      [
        "▁think",
        "ing"
      ],
      [
        "▁comp",
        "lete"
      ],
      [
        "▁poss",
        "ible"
      ],
      [
        "▁dev",
        "il"
      ],
      [
        "▁fur",
        "ther"
      ],
      [
        "▁gener",
        "al"
      ],
      [
        "▁Semyonov",
        "na"
      ],
      [
        "▁roubl",
        "es"
      ],
      [
        "▁_P",
        "ol"
      ],
      [
        "▁DUCH",
        "ESS"
      ],
      [
        "-",
        "h"
      ],
      [
        "p",
        "le"
      ],
      [
        "▁no",
        ","
      ],
      [
        "▁H",
        "ORT"
      ],
      [
        "▁\"",
        "P"
      ],
      [
        "▁M",
        "ur"
      ],
      [
        "▁su",
        "m"
      ],
      [
        "est",
        ","
      ],
      [
        "▁sha",
        "lt"
      ],
      [
        "ate",
        "ly"
      ],
      [
        "▁cl",
        "erk"
      ],
      [
        "▁way",
        ","
      ],
      [
        "▁part",
        "icular"
      ],
      [
        "▁new",
        "s"
      ],
      [
        "▁ut",
        "ter"
      ],
      [
        "RI",
        "AR"
      ],
      [
        "▁i",
        "'"
      ],
      [
        "▁HORT",
        "ENS"
      ],
      [
        "k",
        "a"
      ],
      [
        "k",
        "es"
      ],
      [
        "▁s",
        "ad"
      ],
      [
        "▁s",
        "ix"
      ],
      [
        "▁f",
        "oul"
      ],
      [
        "▁f",
        "anc"
      ],
      [
        "▁he",
        "ld"
      ],
      [
        "▁l",
        "ying"
      ],
      [
        "▁p",
        "orter"
      ],
      [
        "▁A",
        "gain"
      ],
      [
        "id",
        "es"
      ],
      [
        "▁\"",
        "L"
      ],
      [
        "▁me",
        ";"
      ],
      [
        "▁her",
        ".\n"
      ],
      [
        "▁F",
        "RIAR"
      ],
      [
        "ru",
        "st"
      ],
      [
        "▁Th",
        "ird"
      ],
      [
        "▁tru",
        "st"
      ],
      [
        "▁cons",
        "ider"
      ],
      [
        "▁get",
        "ting"
      ],
      [
        "▁ho",
        "ly"
      ],
      [
        "▁acc",
        "ount"
      ],
      [
        "▁sil",
        "ence"
      ],
      [
        "▁mak",
        "ing"
      ],
      [
        "▁bes",
        "eech"
      ],
      [
        "▁hor",
        "se"
      ],
      [
        "▁ban",
        "ish"
      ],
      [
        "▁_Pol",
        "._"
      ],
      [
        "▁HORTENS",
        "IO:\n"
      ],
      [
        "-",
        "p"
      ],
      [
        "a",
        "ven"
      ],
      [
        "f",
        "ter"
      ],
      [
        "p",
        "herd"
      ],
      [
        "▁",
        "ought"
      ],
      [
        "ha",
        "r"
      ],
      [
        "▁o",
        "ath"
      ],
      [
        "en",
        "ing"
      ],
      [
        "on",
        ","
      ],
      [
        "▁ha",
        "ir"
      ],
      [
        "ir",
        "m"
      ],
      [
        "▁for",
        "get"
      ],
      [
        "▁st",
        "ar"
      ],
      [
        "▁him",
        ";"
      ],
      [
        "al",
        "ia"
      ],
      [
        "▁B",
        "id"
      ],
      [
        "▁B",
        "AP"
      ],
      [
        "▁n",
        "onsense"
      ],
      [
        "ion",
        "s"
      ],
      [
        "▁P",
        "RO"
      ],
      [
        "ur",
        "al"
      ],
      [
        "am",
        "e,"
      ],
      [
        "▁thou",
        ","
      ],
      [
        "▁de",
        "f"
      ],
      [
        "▁C",
        "an"
      ],
      [
        "th",
        ","
      ],
      [
        "ST",
        "A:\n"
      ],
      [
        "▁rem",
        "ain"
      ],
      [
        "▁Cl",
        "own"
      ],
      [
        "▁ir",
        "rit"
      ],
      [
        "▁wond",
        "er"
      ],
      [
        "TI",
        "STA:\n"
      ],
      [
        "▁mut",
        "tered"
      ],
      [
        "▁BAP",
        "TISTA:\n"
      ],
      [
        "A",
        "U"
      ],
      [
        "C",
        "US:\n"
      ],
      [
        "Y",
        "CUS:\n"
      ],
      [
        "d",
        "om"
      ],
      [
        "u",
        "ous"
      ],
      [
        "▁f",
        "un"
      ],
      [
        "▁c",
        "reat"
      ],
      [
        "▁y",
        "e"
      ],
      [
        "▁th",
        "row"
      ],
      [
        "▁T",
        "y"
      ],
      [
        "▁T",
        "ell"
      ],
      [
        "▁A",
        "UT"
      ],
      [
        "▁me",
        "\n"
      ],
      [
        "out",
        "h"
      ],
      [
        "▁C",
        "OM"
      ],
      [
        "▁G",
        "entle"
      ],
      [
        "▁F",
        "are"
      ],
      [
        "▁v",
        "iol"
      ],
      [
        "▁qu",
        "iet"
      ],
      [
        "▁sp",
        "ite"
      ],
      [
        "OL",
        "YCUS:\n"
      ],
      [
        "▁We",
        "re"
      ],
      [
        "▁wom",
        "en"
      ],
      [
        "▁war",
        "m"
      ],
      [
        "▁rep",
        "ort"
      ],
      [
        "▁EDWARD",
        ":\n"
      ],
      [
        "▁Marci",
        "us"
      ],
      [
        "▁AUT",
        "OLYCUS:\n"
      ],
      [
        "▁COM",
        "INIUS:\n"
      ],
      [
        "i",
        "ar"
      ],
      [
        "v",
        "ent"
      ],
      [
        "▁m",
        "ove"
      ],
      [
        "er",
        "._"
      ],
      [
        "▁in",
        "\n"
      ],
      [
        "▁me",
        "!"
      ],
      [
        "ri",
        "ble"
      ],
      [
        "▁M",
        "ay"
      ],
      [
        "▁li",
        "ving"
      ],
      [
        "▁se",
        "a"
      ],
      [
        "▁sa",
        "ve"
      ],
      [
        "AR",
        "ENCE:\n"
      ],
      [
        "▁bro",
        "ke"
      ],
      [
        "▁cont",
        "ent"
      ],
      [
        "▁friend",
        "s"
      ],
      [
        "che",
        "s"
      ],
      [
        "▁certain",
        "ly"
      ],
      [
        "▁shout",
        "ed"
      ],
      [
        "ceiv",
        "ed"
      ],
      [
        "▁CL",
        "ARENCE:\n"
      ],
      [
        "▁Ni",
        "kol"
      ],
      [
        "rac",
        "ter"
      ],
      [
        "-",
        "m"
      ],
      [
        ".",
        "'"
      ],
      [
        "O",
        "S"
      ],
      [
        "c",
        "um"
      ],
      [
        "▁f",
        "in"
      ],
      [
        "▁f",
        "it"
      ],
      [
        "▁d",
        "i"
      ],
      [
        "no",
        "ck"
      ],
      [
        "▁that",
        "\n"
      ],
      [
        "ch",
        ","
      ],
      [
        "ri",
        "ar"
      ],
      [
        "▁an",
        "x"
      ],
      [
        "▁C",
        "om"
      ],
      [
        "pe",
        "ci"
      ],
      [
        "▁con",
        "vers"
      ],
      [
        "EN",
        "ES:\n"
      ],
      [
        "▁or",
        "der"
      ],
      [
        "▁dis",
        "g"
      ],
      [
        "▁\"W",
        "ell,"
      ],
      [
        "▁per",
        "fect"
      ],
      [
        "▁cha",
        "racter"
      ],
      [
        "▁(",
        "L"
      ],
      [
        "▁Ivanovna",
        ","
      ],
      [
        "▁open",
        "ed"
      ],
      [
        "up",
        "id"
      ],
      [
        "▁spo",
        "ke"
      ],
      [
        "▁desp",
        "air"
      ],
      [
        "▁trem",
        "bl"
      ],
      [
        "▁Prov",
        "ost:\n"
      ],
      [
        "S",
        "P"
      ],
      [
        "V",
        "OL"
      ],
      [
        "a",
        "pe"
      ],
      [
        "▁a",
        "xe"
      ],
      [
        "▁c",
        "ol"
      ],
      [
        "▁d",
        "in"
      ],
      [
        "▁h",
        "ot"
      ],
      [
        "▁l",
        "ater"
      ],
      [
        "▁you",
        "'ll"
      ],
      [
        "se",
        "t"
      ],
      [
        "▁B",
        "EN"
      ],
      [
        "us",
        "ic"
      ],
      [
        "▁any",
        "one"
      ],
      [
        "▁mother",
        ","
      ],
      [
        "▁ob",
        "ject"
      ],
      [
        "▁\"Wh",
        "y,"
      ],
      [
        "▁Am",
        "alia"
      ],
      [
        "▁sovere",
        "ign"
      ],
      [
        "▁Clown",
        ":\n"
      ],
      [
        "VOL",
        "IO:\n"
      ],
      [
        "▁BEN",
        "VOLIO:\n"
      ],
      [
        "t",
        "le"
      ],
      [
        "▁",
        "1"
      ],
      [
        "▁b",
        "ar"
      ],
      [
        "▁y",
        "ield"
      ],
      [
        "at",
        ","
      ],
      [
        "▁H",
        "ad"
      ],
      [
        "▁me",
        ",\n"
      ],
      [
        "▁P",
        "A"
      ],
      [
        "▁M",
        "ERC"
      ],
      [
        "▁The",
        "se"
      ],
      [
        "▁de",
        "li"
      ],
      [
        "ER",
        "O:\n"
      ],
      [
        "▁ey",
        "es,"
      ],
      [
        "▁imp",
        "ort"
      ],
      [
        "▁add",
        "ed"
      ],
      [
        "UM",
        "IO:\n"
      ],
      [
        "▁GR",
        "UMIO:\n"
      ],
      [
        "derer",
        ":\n"
      ],
      [
        "▁Angel",
        "o"
      ],
      [
        "▁PRO",
        "SP"
      ],
      [
        "▁PROSP",
        "ERO:\n"
      ],
      [
        "U",
        "TIO:\n"
      ],
      [
        "d",
        "ay,"
      ],
      [
        "e",
        "c"
      ],
      [
        "e",
        "v"
      ],
      [
        "u",
        "res"
      ],
      [
        "v",
        "ol"
      ],
      [
        "▁",
        "ve"
      ],
      [
        "▁",
        "est"
      ],
      [
        "▁t",
        "ried"
      ],
      [
        "ha",
        "m"
      ],
      [
        "▁p",
        "ull"
      ],
      [
        "▁in",
        "qu"
      ],
      [
        "▁be",
        ","
      ],
      [
        "▁st",
        "art"
      ],
      [
        "▁li",
        "ps"
      ],
      [
        "ess",
        "en"
      ],
      [
        "▁G",
        "o,"
      ],
      [
        "if",
        "t"
      ],
      [
        "'d",
        ".\n"
      ],
      [
        "ic",
        "es"
      ],
      [
        "us",
        "ed"
      ],
      [
        "um",
        "ber"
      ],
      [
        "▁lo",
        "ck"
      ],
      [
        "ure",
        ","
      ],
      [
        "▁sir",
        ".\n"
      ],
      [
        "▁once",
        ","
      ],
      [
        "▁mar",
        "ried"
      ],
      [
        "▁ra",
        "g"
      ],
      [
        "▁room",
        ","
      ],
      [
        "▁te",
        "nder"
      ],
      [
        "▁chan",
        "ge"
      ],
      [
        "▁mist",
        "ress"
      ],
      [
        "▁es",
        "peci"
      ],
      [
        "▁heav",
        "y"
      ],
      [
        "▁Mur",
        "derer:\n"
      ],
      [
        "▁MERC",
        "UTIO:\n"
      ],
      [
        "-",
        "w"
      ],
      [
        "C",
        ".)"
      ],
      [
        "s",
        "!\n"
      ],
      [
        "y",
        "s"
      ],
      [
        "▁s",
        "ur"
      ],
      [
        "▁w",
        "is"
      ],
      [
        "▁b",
        "at"
      ],
      [
        "▁b",
        "old"
      ],
      [
        "er",
        ".\n"
      ],
      [
        "▁c",
        "ri"
      ],
      [
        "▁d",
        "uty"
      ],
      [
        "▁p",
        "en"
      ],
      [
        "▁p",
        "ost"
      ],
      [
        "▁A",
        "r"
      ],
      [
        "▁so",
        "fa"
      ],
      [
        "▁li",
        "es"
      ],
      [
        "▁_",
        "A"
      ],
      [
        "▁_",
        "and"
      ],
      [
        "▁fa",
        "c"
      ],
      [
        "▁ag",
        "o"
      ],
      [
        "▁more",
        ","
      ],
      [
        "▁pro",
        "v"
      ],
      [
        "▁cl",
        "ot"
      ],
      [
        "▁Dounia",
        ","
      ],
      [
        "▁pass",
        "ed"
      ],
      [
        "▁art",
        "ic"
      ],
      [
        "▁LUC",
        "ENTIO:\n"
      ],
      [
        "▁cr",
        "im"
      ],
      [
        "▁ang",
        "ry"
      ],
      [
        "▁bit",
        "ter"
      ],
      [
        "▁wel",
        "come"
      ],
      [
        "▁streng",
        "th"
      ],
      [
        "▁a",
        "ction"
      ],
      [
        "▁s",
        "itting"
      ],
      [
        "▁w",
        "idow"
      ],
      [
        "▁f",
        "aint"
      ],
      [
        "▁to",
        "wards"
      ],
      [
        "▁you",
        ",\n"
      ],
      [
        "▁not",
        "ice"
      ],
      [
        "▁P",
        "OM"
      ],
      [
        "ra",
        "ce"
      ],
      [
        "▁_",
        "Q"
      ],
      [
        "▁fa",
        "vour"
      ],
      [
        "▁j",
        "e"
      ],
      [
        "▁Raskolnikov",
        "'s"
      ],
      [
        "ave",
        "t"
      ],
      [
        "▁sir",
        ";"
      ],
      [
        "▁love",
        ","
      ],
      [
        "▁pre",
        "t"
      ],
      [
        "▁There",
        "fore"
      ],
      [
        "▁sm",
        "all"
      ],
      [
        "iz",
        "avet"
      ],
      [
        "▁war",
        "rant"
      ],
      [
        "▁ent",
        "reat"
      ],
      [
        "-b",
        "y"
      ],
      [
        "▁unc",
        "le"
      ],
      [
        "▁Serv",
        "ant:\n"
      ],
      [
        "▁scar",
        "ce"
      ],
      [
        "▁POM",
        "P"
      ],
      [
        "U",
        "S"
      ],
      [
        "g",
        "ar"
      ],
      [
        "s",
        "'"
      ],
      [
        "▁a",
        "ge"
      ],
      [
        "▁m",
        "ock"
      ],
      [
        "▁c",
        "ity"
      ],
      [
        "en",
        "ator"
      ],
      [
        "▁d",
        "ri"
      ],
      [
        "▁h",
        "ide"
      ],
      [
        "▁you",
        "?"
      ],
      [
        "st",
        "er"
      ],
      [
        "id",
        "ed"
      ],
      [
        "oo",
        "se"
      ],
      [
        "▁H",
        "a"
      ],
      [
        "▁st",
        "upid"
      ],
      [
        "▁we",
        "'ll"
      ],
      [
        "▁P",
        "er"
      ],
      [
        "▁wh",
        "y,"
      ],
      [
        "▁all",
        "ow"
      ],
      [
        "▁_",
        "E"
      ],
      [
        "res",
        "h"
      ],
      [
        "▁E",
        "x"
      ],
      [
        "▁spe",
        "ech"
      ],
      [
        "▁let",
        "'s"
      ],
      [
        "▁off",
        "ice"
      ],
      [
        "▁\"T",
        "he"
      ],
      [
        "UL",
        "INA:\n"
      ],
      [
        "▁pos",
        "ition"
      ],
      [
        "▁vill",
        "ain"
      ],
      [
        "▁notic",
        "ed"
      ],
      [
        "▁PA",
        "ULINA:\n"
      ],
      [
        "essen",
        "ger"
      ],
      [
        ".",
        "["
      ],
      [
        "7",
        ":"
      ],
      [
        "M",
        "IO:\n"
      ],
      [
        "e",
        "nd"
      ],
      [
        "k",
        "ed"
      ],
      [
        "u",
        "ght"
      ],
      [
        "u",
        "ff"
      ],
      [
[...]
